[PAD]	0
[UNK]	1
[CLS]	2
[SEP]	3
[MASK]	4
!	5
"	6
#	7
$	8
%	9
&	10
'	11
(	12
)	13
*	14
+	15
,	16
-	17
.	18
/	19
0	20
1	21
2	22
3	23
4	24
5	25
6	26
7	27
8	28
9	29
:	30
;	31
<	32
=	33
>	34
?	35
@	36
[	37
\	38
]	39
^	40
_	41
a	42
b	43
c	44
d	45
e	46
f	47
g	48
h	49
i	50
j	51
k	52
l	53
m	54
n	55
o	56
p	57
q	58
r	59
s	60
t	61
u	62
v	63
w	64
x	65
y	66
z	67
{	68
|	69
}	70
~	71
£	72
¤	73
¥	74
§	75
©	76
«	77
®	78
°	79
±	80
²	81
³	82
µ	83
·	84
¹	85
º	86
»	87
¼	88
×	89
ß	90
æ	91
÷	92
ø	93
đ	94
ŋ	95
ɔ	96
ə	97
ɡ	98
ʰ	99
ˇ	100
ˈ	101
ˊ	102
ˋ	103
ˍ	104
ː	105
˙	106
˚	107
ˢ	108
α	109
β	110
γ	111
δ	112
ε	113
η	114
θ	115
ι	116
κ	117
λ	118
μ	119
ν	120
ο	121
π	122
ρ	123
ς	124
σ	125
τ	126
υ	127
φ	128
χ	129
ψ	130
ω	131
а	132
б	133
в	134
г	135
д	136
е	137
ж	138
з	139
и	140
к	141
л	142
м	143
н	144
о	145
п	146
р	147
с	148
т	149
у	150
ф	151
х	152
ц	153
ч	154
ш	155
ы	156
ь	157
я	158
і	159
ا	160
ب	161
ة	162
ت	163
د	164
ر	165
س	166
ع	167
ل	168
م	169
ن	170
ه	171
و	172
ي	173
۩	174
ก	175
ง	176
น	177
ม	178
ย	179
ร	180
อ	181
า	182
เ	183
๑	184
་	185
ღ	186
ᄀ	187
ᄁ	188
ᄂ	189
ᄃ	190
ᄅ	191
ᄆ	192
ᄇ	193
ᄈ	194
ᄉ	195
ᄋ	196
ᄌ	197
ᄎ	198
ᄏ	199
ᄐ	200
ᄑ	201
ᄒ	202
ᅡ	203
ᅢ	204
ᅣ	205
ᅥ	206
ᅦ	207
ᅧ	208
ᅨ	209
ᅩ	210
ᅪ	211
ᅬ	212
ᅭ	213
ᅮ	214
ᅯ	215
ᅲ	216
ᅳ	217
ᅴ	218
ᅵ	219
ᆨ	220
ᆫ	221
ᆯ	222
ᆷ	223
ᆸ	224
ᆺ	225
ᆻ	226
ᆼ	227
ᗜ	228
ᵃ	229
ᵉ	230
ᵍ	231
ᵏ	232
ᵐ	233
ᵒ	234
ᵘ	235
‖	236
„	237
†	238
•	239
‥	240
‧	241
	242
‰	243
′	244
″	245
‹	246
›	247
※	248
‿	249
⁄	250
ⁱ	251
⁺	252
ⁿ	253
₁	254
₂	255
₃	256
₄	257
€	258
℃	259
№	260
™	261
ⅰ	262
ⅱ	263
ⅲ	264
ⅳ	265
ⅴ	266
←	267
↑	268
→	269
↓	270
↔	271
↗	272
↘	273
⇒	274
∀	275
−	276
∕	277
∙	278
√	279
∞	280
∟	281
∠	282
∣	283
∥	284
∩	285
∮	286
∶	287
∼	288
∽	289
≈	290
≒	291
≡	292
≤	293
≥	294
≦	295
≧	296
≪	297
≫	298
⊙	299
⋅	300
⋈	301
⋯	302
⌒	303
①	304
②	305
③	306
④	307
⑤	308
⑥	309
⑦	310
⑧	311
⑨	312
⑩	313
⑴	314
⑵	315
⑶	316
⑷	317
⑸	318
⒈	319
⒉	320
⒊	321
⒋	322
ⓒ	323
ⓔ	324
ⓘ	325
─	326
━	327
│	328
┃	329
┅	330
┆	331
┊	332
┌	333
└	334
├	335
┣	336
═	337
║	338
╚	339
╞	340
╠	341
╭	342
╮	343
╯	344
╰	345
╱	346
╳	347
▂	348
▃	349
▅	350
▇	351
█	352
▉	353
▋	354
▌	355
▍	356
▎	357
■	358
□	359
▪	360
▫	361
▬	362
▲	363
△	364
▶	365
►	366
▼	367
▽	368
◆	369
◇	370
○	371
◎	372
●	373
◕	374
◠	375
◢	376
◤	377
☀	378
★	379
☆	380
☕	381
☞	382
☺	383
☼	384
♀	385
♂	386
♠	387
♡	388
♣	389
♥	390
♦	391
♪	392
♫	393
♬	394
✈	395
✔	396
✕	397
✖	398
✦	399
✨	400
✪	401
✰	402
✿	403
❀	404
❤	405
➜	406
➤	407
⦿	408
、	409
。	410
〃	411
々	412
〇	413
〈	414
〉	415
《	416
》	417
「	418
」	419
『	420
』	421
【	422
】	423
〓	424
〔	425
〕	426
〖	427
〗	428
〜	429
〝	430
〞	431
ぁ	432
あ	433
ぃ	434
い	435
う	436
ぇ	437
え	438
お	439
か	440
き	441
く	442
け	443
こ	444
さ	445
し	446
す	447
せ	448
そ	449
た	450
ち	451
っ	452
つ	453
て	454
と	455
な	456
に	457
ぬ	458
ね	459
の	460
は	461
ひ	462
ふ	463
へ	464
ほ	465
ま	466
み	467
む	468
め	469
も	470
ゃ	471
や	472
ゅ	473
ゆ	474
ょ	475
よ	476
ら	477
り	478
る	479
れ	480
ろ	481
わ	482
を	483
ん	484
゜	485
ゝ	486
ァ	487
ア	488
ィ	489
イ	490
ゥ	491
ウ	492
ェ	493
エ	494
ォ	495
オ	496
カ	497
キ	498
ク	499
ケ	500
コ	501
サ	502
シ	503
ス	504
セ	505
ソ	506
タ	507
チ	508
ッ	509
ツ	510
テ	511
ト	512
ナ	513
ニ	514
ヌ	515
ネ	516
ノ	517
ハ	518
ヒ	519
フ	520
ヘ	521
ホ	522
マ	523
ミ	524
ム	525
メ	526
モ	527
ャ	528
ヤ	529
ュ	530
ユ	531
ョ	532
ヨ	533
ラ	534
リ	535
ル	536
レ	537
ロ	538
ワ	539
ヲ	540
ン	541
ヶ	542
・	543
ー	544
ヽ	545
ㄅ	546
ㄆ	547
ㄇ	548
ㄉ	549
ㄋ	550
ㄌ	551
ㄍ	552
ㄎ	553
ㄏ	554
ㄒ	555
ㄚ	556
ㄛ	557
ㄞ	558
ㄟ	559
ㄢ	560
ㄤ	561
ㄥ	562
ㄧ	563
ㄨ	564
ㆍ	565
㈦	566
㊣	567
㎡	568
㗎	569
一	570
丁	571
七	572
万	573
丈	574
三	575
上	576
下	577
不	578
与	579
丐	580
丑	581
专	582
且	583
丕	584
世	585
丘	586
丙	587
业	588
丛	589
东	590
丝	591
丞	592
丟	593
両	594
丢	595
两	596
严	597
並	598
丧	599
丨	600
个	601
丫	602
中	603
丰	604
串	605
临	606
丶	607
丸	608
丹	609
为	610
主	611
丼	612
丽	613
举	614
丿	615
乂	616
乃	617
久	618
么	619
义	620
之	621
乌	622
乍	623
乎	624
乏	625
乐	626
乒	627
乓	628
乔	629
乖	630
乗	631
乘	632
乙	633
乜	634
九	635
乞	636
也	637
习	638
乡	639
书	640
乩	641
买	642
乱	643
乳	644
乾	645
亀	646
亂	647
了	648
予	649
争	650
事	651
二	652
于	653
亏	654
云	655
互	656
五	657
井	658
亘	659
亙	660
亚	661
些	662
亜	663
亞	664
亟	665
亡	666
亢	667
交	668
亥	669
亦	670
产	671
亨	672
亩	673
享	674
京	675
亭	676
亮	677
亲	678
亳	679
亵	680
人	681
亿	682
什	683
仁	684
仃	685
仄	686
仅	687
仆	688
仇	689
今	690
介	691
仍	692
从	693
仏	694
仑	695
仓	696
仔	697
仕	698
他	699
仗	700
付	701
仙	702
仝	703
仞	704
仟	705
代	706
令	707
以	708
仨	709
仪	710
们	711
仮	712
仰	713
仲	714
件	715
价	716
任	717
份	718
仿	719
企	720
伉	721
伊	722
伍	723
伎	724
伏	725
伐	726
休	727
伕	728
众	729
优	730
伙	731
会	732
伝	733
伞	734
伟	735
传	736
伢	737
伤	738
伦	739
伪	740
伫	741
伯	742
估	743
伴	744
伶	745
伸	746
伺	747
似	748
伽	749
佃	750
但	751
佇	752
佈	753
位	754
低	755
住	756
佐	757
佑	758
体	759
佔	760
何	761
佗	762
佘	763
余	764
佚	765
佛	766
作	767
佝	768
佞	769
佟	770
你	771
佢	772
佣	773
佤	774
佥	775
佩	776
佬	777
佯	778
佰	779
佳	780
併	781
佶	782
佻	783
佼	784
使	785
侃	786
侄	787
來	788
侈	789
例	790
侍	791
侏	792
侑	793
侖	794
侗	795
供	796
依	797
侠	798
価	799
侣	800
侥	801
侦	802
侧	803
侨	804
侬	805
侮	806
侯	807
侵	808
侶	809
侷	810
便	811
係	812
促	813
俄	814
俊	815
俎	816
俏	817
俐	818
俑	819
俗	820
俘	821
俚	822
保	823
俞	824
俟	825
俠	826
信	827
俨	828
俩	829
俪	830
俬	831
俭	832
修	833
俯	834
俱	835
俳	836
俸	837
俺	838
俾	839
倆	840
倉	841
個	842
倌	843
倍	844
倏	845
們	846
倒	847
倔	848
倖	849
倘	850
候	851
倚	852
倜	853
借	854
倡	855
値	856
倦	857
倩	858
倪	859
倫	860
倬	861
倭	862
倶	863
债	864
值	865
倾	866
偃	867
假	868
偈	869
偉	870
偌	871
偎	872
偏	873
偕	874
做	875
停	876
健	877
側	878
偵	879
偶	880
偷	881
偻	882
偽	883
偿	884
傀	885
傅	886
傍	887
傑	888
傘	889
備	890
傚	891
傢	892
傣	893
傥	894
储	895
傩	896
催	897
傭	898
傲	899
傳	900
債	901
傷	902
傻	903
傾	904
僅	905
働	906
像	907
僑	908
僕	909
僖	910
僚	911
僥	912
僧	913
僭	914
僮	915
僱	916
僵	917
價	918
僻	919
儀	920
儂	921
億	922
儆	923
儉	924
儋	925
儒	926
儕	927
儘	928
償	929
儡	930
優	931
儲	932
儷	933
儼	934
儿	935
兀	936
允	937
元	938
兄	939
充	940
兆	941
兇	942
先	943
光	944
克	945
兌	946
免	947
児	948
兑	949
兒	950
兔	951
兖	952
党	953
兜	954
兢	955
入	956
內	957
全	958
兩	959
八	960
公	961
六	962
兮	963
兰	964
共	965
兲	966
关	967
兴	968
兵	969
其	970
具	971
典	972
兹	973
养	974
兼	975
兽	976
冀	977
内	978
円	979
冇	980
冈	981
冉	982
冊	983
册	984
再	985
冏	986
冒	987
冕	988
冗	989
写	990
军	991
农	992
冠	993
冢	994
冤	995
冥	996
冨	997
冪	998
冬	999
冯	1000
冰	1001
冲	1002
决	1003
况	1004
冶	1005
冷	1006
冻	1007
冼	1008
冽	1009
冾	1010
净	1011
凄	1012
准	1013
凇	1014
凈	1015
凉	1016
凋	1017
凌	1018
凍	1019
减	1020
凑	1021
凛	1022
凜	1023
凝	1024
几	1025
凡	1026
凤	1027
処	1028
凪	1029
凭	1030
凯	1031
凰	1032
凱	1033
凳	1034
凶	1035
凸	1036
凹	1037
出	1038
击	1039
函	1040
凿	1041
刀	1042
刁	1043
刃	1044
分	1045
切	1046
刈	1047
刊	1048
刍	1049
刎	1050
刑	1051
划	1052
列	1053
刘	1054
则	1055
刚	1056
创	1057
初	1058
删	1059
判	1060
別	1061
刨	1062
利	1063
刪	1064
别	1065
刮	1066
到	1067
制	1068
刷	1069
券	1070
刹	1071
刺	1072
刻	1073
刽	1074
剁	1075
剂	1076
剃	1077
則	1078
剉	1079
削	1080
剋	1081
剌	1082
前	1083
剎	1084
剐	1085
剑	1086
剔	1087
剖	1088
剛	1089
剜	1090
剝	1091
剣	1092
剤	1093
剥	1094
剧	1095
剩	1096
剪	1097
副	1098
割	1099
創	1100
剷	1101
剽	1102
剿	1103
劃	1104
劇	1105
劈	1106
劉	1107
劊	1108
劍	1109
劏	1110
劑	1111
力	1112
劝	1113
办	1114
功	1115
加	1116
务	1117
劣	1118
动	1119
助	1120
努	1121
劫	1122
劭	1123
励	1124
劲	1125
劳	1126
労	1127
劵	1128
効	1129
劾	1130
势	1131
勁	1132
勃	1133
勇	1134
勉	1135
勋	1136
勐	1137
勒	1138
動	1139
勖	1140
勘	1141
務	1142
勛	1143
勝	1144
勞	1145
募	1146
勢	1147
勤	1148
勧	1149
勳	1150
勵	1151
勸	1152
勺	1153
勻	1154
勾	1155
勿	1156
匀	1157
包	1158
匆	1159
匈	1160
匍	1161
匐	1162
匕	1163
化	1164
北	1165
匙	1166
匝	1167
匠	1168
匡	1169
匣	1170
匪	1171
匮	1172
匯	1173
匱	1174
匹	1175
区	1176
医	1177
匾	1178
匿	1179
區	1180
十	1181
千	1182
卅	1183
升	1184
午	1185
卉	1186
半	1187
卍	1188
华	1189
协	1190
卑	1191
卒	1192
卓	1193
協	1194
单	1195
卖	1196
南	1197
単	1198
博	1199
卜	1200
卞	1201
卟	1202
占	1203
卡	1204
卢	1205
卤	1206
卦	1207
卧	1208
卫	1209
卮	1210
卯	1211
印	1212
危	1213
即	1214
却	1215
卵	1216
卷	1217
卸	1218
卻	1219
卿	1220
厂	1221
厄	1222
厅	1223
历	1224
厉	1225
压	1226
厌	1227
厕	1228
厘	1229
厚	1230
厝	1231
原	1232
厢	1233
厥	1234
厦	1235
厨	1236
厩	1237
厭	1238
厮	1239
厲	1240
厳	1241
去	1242
县	1243
叁	1244
参	1245
參	1246
又	1247
叉	1248
及	1249
友	1250
双	1251
反	1252
収	1253
发	1254
叔	1255
取	1256
受	1257
变	1258
叙	1259
叛	1260
叟	1261
叠	1262
叡	1263
叢	1264
口	1265
古	1266
句	1267
另	1268
叨	1269
叩	1270
只	1271
叫	1272
召	1273
叭	1274
叮	1275
可	1276
台	1277
叱	1278
史	1279
右	1280
叵	1281
叶	1282
号	1283
司	1284
叹	1285
叻	1286
叼	1287
叽	1288
吁	1289
吃	1290
各	1291
吆	1292
合	1293
吉	1294
吊	1295
吋	1296
同	1297
名	1298
后	1299
吏	1300
吐	1301
向	1302
吒	1303
吓	1304
吕	1305
吖	1306
吗	1307
君	1308
吝	1309
吞	1310
吟	1311
吠	1312
吡	1313
否	1314
吧	1315
吨	1316
吩	1317
含	1318
听	1319
吭	1320
吮	1321
启	1322
吱	1323
吳	1324
吴	1325
吵	1326
吶	1327
吸	1328
吹	1329
吻	1330
吼	1331
吽	1332
吾	1333
呀	1334
呂	1335
呃	1336
呆	1337
呈	1338
告	1339
呋	1340
呎	1341
呐	1342
呓	1343
呕	1344
呗	1345
员	1346
呛	1347
呜	1348
呢	1349
呤	1350
呦	1351
周	1352
呱	1353
呲	1354
味	1355
呵	1356
呷	1357
呸	1358
呻	1359
呼	1360
命	1361
咀	1362
咁	1363
咂	1364
咄	1365
咆	1366
咋	1367
和	1368
咎	1369
咏	1370
咐	1371
咒	1372
咔	1373
咕	1374
咖	1375
咗	1376
咘	1377
咙	1378
咚	1379
咛	1380
咣	1381
咤	1382
咦	1383
咧	1384
咨	1385
咩	1386
咪	1387
咫	1388
咬	1389
咭	1390
咯	1391
咱	1392
咲	1393
咳	1394
咸	1395
咻	1396
咽	1397
咿	1398
哀	1399
品	1400
哂	1401
哄	1402
哆	1403
哇	1404
哈	1405
哉	1406
哋	1407
哌	1408
响	1409
哎	1410
哏	1411
哐	1412
哑	1413
哒	1414
哔	1415
哗	1416
哟	1417
員	1418
哥	1419
哦	1420
哧	1421
哨	1422
哩	1423
哪	1424
哭	1425
哮	1426
哲	1427
哺	1428
哼	1429
哽	1430
唁	1431
唄	1432
唆	1433
唇	1434
唉	1435
唏	1436
唐	1437
唑	1438
唔	1439
唠	1440
唤	1441
唧	1442
唬	1443
售	1444
唯	1445
唰	1446
唱	1447
唳	1448
唷	1449
唸	1450
唾	1451
啃	1452
啄	1453
商	1454
啉	1455
啊	1456
問	1457
啓	1458
啕	1459
啖	1460
啜	1461
啞	1462
啟	1463
啡	1464
啤	1465
啥	1466
啦	1467
啧	1468
啪	1469
啫	1470
啬	1471
啮	1472
啰	1473
啱	1474
啲	1475
啵	1476
啶	1477
啷	1478
啸	1479
啻	1480
啼	1481
啾	1482
喀	1483
喂	1484
喃	1485
善	1486
喆	1487
喇	1488
喉	1489
喊	1490
喋	1491
喎	1492
喏	1493
喔	1494
喘	1495
喙	1496
喚	1497
喜	1498
喝	1499
喟	1500
喧	1501
喪	1502
喫	1503
喬	1504
單	1505
喰	1506
喱	1507
喲	1508
喳	1509
喵	1510
営	1511
喷	1512
喹	1513
喺	1514
喻	1515
喽	1516
嗅	1517
嗆	1518
嗇	1519
嗎	1520
嗑	1521
嗒	1522
嗓	1523
嗔	1524
嗖	1525
嗚	1526
嗜	1527
嗝	1528
嗟	1529
嗡	1530
嗣	1531
嗤	1532
嗦	1533
嗨	1534
嗪	1535
嗬	1536
嗯	1537
嗰	1538
嗲	1539
嗳	1540
嗶	1541
嗷	1542
嗽	1543
嘀	1544
嘅	1545
嘆	1546
嘈	1547
嘉	1548
嘌	1549
嘍	1550
嘎	1551
嘔	1552
嘖	1553
嘗	1554
嘘	1555
嘚	1556
嘛	1557
嘜	1558
嘞	1559
嘟	1560
嘢	1561
嘣	1562
嘤	1563
嘧	1564
嘩	1565
嘭	1566
嘮	1567
嘯	1568
嘰	1569
嘱	1570
嘲	1571
嘴	1572
嘶	1573
嘸	1574
嘹	1575
嘻	1576
嘿	1577
噁	1578
噌	1579
噎	1580
噓	1581
噔	1582
噗	1583
噙	1584
噜	1585
噠	1586
噢	1587
噤	1588
器	1589
噩	1590
噪	1591
噬	1592
噱	1593
噴	1594
噶	1595
噸	1596
噹	1597
噻	1598
噼	1599
嚀	1600
嚇	1601
嚎	1602
嚏	1603
嚐	1604
嚓	1605
嚕	1606
嚟	1607
嚣	1608
嚥	1609
嚨	1610
嚮	1611
嚴	1612
嚷	1613
嚼	1614
囂	1615
囉	1616
囊	1617
囍	1618
囑	1619
囔	1620
囗	1621
囚	1622
四	1623
囝	1624
回	1625
囟	1626
因	1627
囡	1628
团	1629
団	1630
囤	1631
囧	1632
囪	1633
囫	1634
园	1635
困	1636
囱	1637
囲	1638
図	1639
围	1640
囹	1641
固	1642
国	1643
图	1644
囿	1645
圃	1646
圄	1647
圆	1648
圈	1649
國	1650
圍	1651
圏	1652
園	1653
圓	1654
圖	1655
團	1656
圜	1657
土	1658
圣	1659
圧	1660
在	1661
圩	1662
圭	1663
地	1664
圳	1665
场	1666
圻	1667
圾	1668
址	1669
坂	1670
均	1671
坊	1672
坍	1673
坎	1674
坏	1675
坐	1676
坑	1677
块	1678
坚	1679
坛	1680
坝	1681
坞	1682
坟	1683
坠	1684
坡	1685
坤	1686
坦	1687
坨	1688
坪	1689
坯	1690
坳	1691
坵	1692
坷	1693
垂	1694
垃	1695
垄	1696
型	1697
垒	1698
垚	1699
垛	1700
垠	1701
垢	1702
垣	1703
垦	1704
垩	1705
垫	1706
垭	1707
垮	1708
垵	1709
埂	1710
埃	1711
埋	1712
城	1713
埔	1714
埕	1715
埗	1716
域	1717
埠	1718
埤	1719
埵	1720
執	1721
埸	1722
培	1723
基	1724
埼	1725
堀	1726
堂	1727
堃	1728
堅	1729
堆	1730
堇	1731
堑	1732
堕	1733
堙	1734
堡	1735
堤	1736
堪	1737
堯	1738
堰	1739
報	1740
場	1741
堵	1742
堺	1743
堿	1744
塊	1745
塌	1746
塑	1747
塔	1748
塗	1749
塘	1750
塚	1751
塞	1752
塢	1753
塩	1754
填	1755
塬	1756
塭	1757
塵	1758
塾	1759
墀	1760
境	1761
墅	1762
墉	1763
墊	1764
墒	1765
墓	1766
増	1767
墘	1768
墙	1769
墜	1770
增	1771
墟	1772
墨	1773
墩	1774
墮	1775
墳	1776
墻	1777
墾	1778
壁	1779
壅	1780
壆	1781
壇	1782
壊	1783
壑	1784
壓	1785
壕	1786
壘	1787
壞	1788
壟	1789
壢	1790
壤	1791
壩	1792
士	1793
壬	1794
壮	1795
壯	1796
声	1797
売	1798
壳	1799
壶	1800
壹	1801
壺	1802
壽	1803
处	1804
备	1805
変	1806
复	1807
夏	1808
夔	1809
夕	1810
外	1811
夙	1812
多	1813
夜	1814
够	1815
夠	1816
夢	1817
夥	1818
大	1819
天	1820
太	1821
夫	1822
夭	1823
央	1824
夯	1825
失	1826
头	1827
夷	1828
夸	1829
夹	1830
夺	1831
夾	1832
奂	1833
奄	1834
奇	1835
奈	1836
奉	1837
奋	1838
奎	1839
奏	1840
奐	1841
契	1842
奔	1843
奕	1844
奖	1845
套	1846
奘	1847
奚	1848
奠	1849
奢	1850
奥	1851
奧	1852
奪	1853
奬	1854
奮	1855
女	1856
奴	1857
奶	1858
奸	1859
她	1860
好	1861
如	1862
妃	1863
妄	1864
妆	1865
妇	1866
妈	1867
妊	1868
妍	1869
妒	1870
妓	1871
妖	1872
妘	1873
妙	1874
妝	1875
妞	1876
妣	1877
妤	1878
妥	1879
妨	1880
妩	1881
妪	1882
妮	1883
妲	1884
妳	1885
妹	1886
妻	1887
妾	1888
姆	1889
姉	1890
姊	1891
始	1892
姍	1893
姐	1894
姑	1895
姒	1896
姓	1897
委	1898
姗	1899
姚	1900
姜	1901
姝	1902
姣	1903
姥	1904
姦	1905
姨	1906
姪	1907
姫	1908
姬	1909
姹	1910
姻	1911
姿	1912
威	1913
娃	1914
娄	1915
娅	1916
娆	1917
娇	1918
娉	1919
娑	1920
娓	1921
娘	1922
娛	1923
娜	1924
娟	1925
娠	1926
娣	1927
娥	1928
娩	1929
娱	1930
娲	1931
娴	1932
娶	1933
娼	1934
婀	1935
婁	1936
婆	1937
婉	1938
婊	1939
婕	1940
婚	1941
婢	1942
婦	1943
婧	1944
婪	1945
婭	1946
婴	1947
婵	1948
婶	1949
婷	1950
婺	1951
婿	1952
媒	1953
媚	1954
媛	1955
媞	1956
媧	1957
媲	1958
媳	1959
媽	1960
媾	1961
嫁	1962
嫂	1963
嫉	1964
嫌	1965
嫑	1966
嫔	1967
嫖	1968
嫘	1969
嫚	1970
嫡	1971
嫣	1972
嫦	1973
嫩	1974
嫲	1975
嫵	1976
嫻	1977
嬅	1978
嬉	1979
嬌	1980
嬗	1981
嬛	1982
嬢	1983
嬤	1984
嬪	1985
嬰	1986
嬴	1987
嬷	1988
嬸	1989
嬿	1990
孀	1991
孃	1992
子	1993
孑	1994
孔	1995
孕	1996
孖	1997
字	1998
存	1999
孙	2000
孚	2001
孛	2002
孜	2003
孝	2004
孟	2005
孢	2006
季	2007
孤	2008
学	2009
孩	2010
孪	2011
孫	2012
孬	2013
孰	2014
孱	2015
孳	2016
孵	2017
學	2018
孺	2019
孽	2020
孿	2021
宁	2022
它	2023
宅	2024
宇	2025
守	2026
安	2027
宋	2028
完	2029
宏	2030
宓	2031
宕	2032
宗	2033
官	2034
宙	2035
定	2036
宛	2037
宜	2038
宝	2039
实	2040
実	2041
宠	2042
审	2043
客	2044
宣	2045
室	2046
宥	2047
宦	2048
宪	2049
宫	2050
宮	2051
宰	2052
害	2053
宴	2054
宵	2055
家	2056
宸	2057
容	2058
宽	2059
宾	2060
宿	2061
寂	2062
寄	2063
寅	2064
密	2065
寇	2066
富	2067
寐	2068
寒	2069
寓	2070
寛	2071
寝	2072
寞	2073
察	2074
寡	2075
寢	2076
寥	2077
實	2078
寧	2079
寨	2080
審	2081
寫	2082
寬	2083
寮	2084
寰	2085
寵	2086
寶	2087
寸	2088
对	2089
寺	2090
寻	2091
导	2092
対	2093
寿	2094
封	2095
専	2096
射	2097
将	2098
將	2099
專	2100
尉	2101
尊	2102
尋	2103
對	2104
導	2105
小	2106
少	2107
尔	2108
尕	2109
尖	2110
尘	2111
尚	2112
尝	2113
尤	2114
尧	2115
尬	2116
就	2117
尴	2118
尷	2119
尸	2120
尹	2121
尺	2122
尻	2123
尼	2124
尽	2125
尾	2126
尿	2127
局	2128
屁	2129
层	2130
屄	2131
居	2132
屆	2133
屈	2134
屉	2135
届	2136
屋	2137
屌	2138
屍	2139
屎	2140
屏	2141
屐	2142
屑	2143
展	2144
屜	2145
属	2146
屠	2147
屡	2148
屢	2149
層	2150
履	2151
屬	2152
屯	2153
山	2154
屹	2155
屿	2156
岀	2157
岁	2158
岂	2159
岌	2160
岐	2161
岑	2162
岔	2163
岖	2164
岗	2165
岘	2166
岙	2167
岚	2168
岛	2169
岡	2170
岩	2171
岫	2172
岬	2173
岭	2174
岱	2175
岳	2176
岷	2177
岸	2178
峇	2179
峋	2180
峒	2181
峙	2182
峡	2183
峤	2184
峥	2185
峦	2186
峨	2187
峪	2188
峭	2189
峯	2190
峰	2191
峴	2192
島	2193
峻	2194
峽	2195
崁	2196
崂	2197
崆	2198
崇	2199
崎	2200
崑	2201
崔	2202
崖	2203
崗	2204
崙	2205
崛	2206
崧	2207
崩	2208
崭	2209
崴	2210
崽	2211
嵇	2212
嵊	2213
嵋	2214
嵌	2215
嵐	2216
嵘	2217
嵩	2218
嵬	2219
嵯	2220
嶂	2221
嶄	2222
嶇	2223
嶋	2224
嶙	2225
嶺	2226
嶼	2227
嶽	2228
巅	2229
巍	2230
巒	2231
巔	2232
巖	2233
川	2234
州	2235
巡	2236
巢	2237
工	2238
左	2239
巧	2240
巨	2241
巩	2242
巫	2243
差	2244
己	2245
已	2246
巳	2247
巴	2248
巷	2249
巻	2250
巽	2251
巾	2252
巿	2253
币	2254
市	2255
布	2256
帅	2257
帆	2258
师	2259
希	2260
帐	2261
帑	2262
帕	2263
帖	2264
帘	2265
帚	2266
帛	2267
帜	2268
帝	2269
帥	2270
带	2271
帧	2272
師	2273
席	2274
帮	2275
帯	2276
帰	2277
帳	2278
帶	2279
帷	2280
常	2281
帼	2282
帽	2283
幀	2284
幂	2285
幄	2286
幅	2287
幌	2288
幔	2289
幕	2290
幟	2291
幡	2292
幢	2293
幣	2294
幫	2295
干	2296
平	2297
年	2298
并	2299
幸	2300
幹	2301
幺	2302
幻	2303
幼	2304
幽	2305
幾	2306
广	2307
庁	2308
広	2309
庄	2310
庆	2311
庇	2312
床	2313
序	2314
庐	2315
库	2316
应	2317
底	2318
庖	2319
店	2320
庙	2321
庚	2322
府	2323
庞	2324
废	2325
庠	2326
度	2327
座	2328
庫	2329
庭	2330
庵	2331
庶	2332
康	2333
庸	2334
庹	2335
庾	2336
廁	2337
廂	2338
廃	2339
廈	2340
廉	2341
廊	2342
廓	2343
廖	2344
廚	2345
廝	2346
廟	2347
廠	2348
廢	2349
廣	2350
廬	2351
廳	2352
延	2353
廷	2354
建	2355
廿	2356
开	2357
弁	2358
异	2359
弃	2360
弄	2361
弈	2362
弊	2363
弋	2364
式	2365
弑	2366
弒	2367
弓	2368
弔	2369
引	2370
弗	2371
弘	2372
弛	2373
弟	2374
张	2375
弥	2376
弦	2377
弧	2378
弩	2379
弭	2380
弯	2381
弱	2382
張	2383
強	2384
弹	2385
强	2386
弼	2387
弾	2388
彅	2389
彆	2390
彈	2391
彌	2392
彎	2393
归	2394
当	2395
录	2396
彗	2397
彙	2398
彝	2399
形	2400
彤	2401
彥	2402
彦	2403
彧	2404
彩	2405
彪	2406
彫	2407
彬	2408
彭	2409
彰	2410
影	2411
彷	2412
役	2413
彻	2414
彼	2415
彿	2416
往	2417
征	2418
径	2419
待	2420
徇	2421
很	2422
徉	2423
徊	2424
律	2425
後	2426
徐	2427
徑	2428
徒	2429
従	2430
徕	2431
得	2432
徘	2433
徙	2434
徜	2435
從	2436
徠	2437
御	2438
徨	2439
復	2440
循	2441
徬	2442
微	2443
徳	2444
徴	2445
徵	2446
德	2447
徹	2448
徼	2449
徽	2450
心	2451
必	2452
忆	2453
忌	2454
忍	2455
忏	2456
忐	2457
忑	2458
忒	2459
忖	2460
志	2461
忘	2462
忙	2463
応	2464
忠	2465
忡	2466
忤	2467
忧	2468
忪	2469
快	2470
忱	2471
念	2472
忻	2473
忽	2474
忿	2475
怀	2476
态	2477
怂	2478
怅	2479
怆	2480
怎	2481
怏	2482
怒	2483
怔	2484
怕	2485
怖	2486
怙	2487
怜	2488
思	2489
怠	2490
怡	2491
急	2492
怦	2493
性	2494
怨	2495
怪	2496
怯	2497
怵	2498
总	2499
怼	2500
恁	2501
恃	2502
恆	2503
恋	2504
恍	2505
恐	2506
恒	2507
恕	2508
恙	2509
恚	2510
恢	2511
恣	2512
恤	2513
恥	2514
恨	2515
恩	2516
恪	2517
恫	2518
恬	2519
恭	2520
息	2521
恰	2522
恳	2523
恵	2524
恶	2525
恸	2526
恺	2527
恻	2528
恼	2529
恿	2530
悄	2531
悅	2532
悉	2533
悌	2534
悍	2535
悔	2536
悖	2537
悚	2538
悟	2539
悠	2540
患	2541
悦	2542
您	2543
悩	2544
悪	2545
悬	2546
悯	2547
悱	2548
悲	2549
悴	2550
悵	2551
悶	2552
悸	2553
悻	2554
悼	2555
悽	2556
情	2557
惆	2558
惇	2559
惊	2560
惋	2561
惑	2562
惕	2563
惘	2564
惚	2565
惜	2566
惟	2567
惠	2568
惡	2569
惦	2570
惧	2571
惨	2572
惩	2573
惫	2574
惬	2575
惭	2576
惮	2577
惯	2578
惰	2579
惱	2580
想	2581
惴	2582
惶	2583
惹	2584
惺	2585
愁	2586
愆	2587
愈	2588
愉	2589
愍	2590
意	2591
愕	2592
愚	2593
愛	2594
愜	2595
感	2596
愣	2597
愤	2598
愧	2599
愫	2600
愷	2601
愿	2602
慄	2603
慈	2604
態	2605
慌	2606
慎	2607
慑	2608
慕	2609
慘	2610
慚	2611
慟	2612
慢	2613
慣	2614
慧	2615
慨	2616
慫	2617
慮	2618
慰	2619
慳	2620
慵	2621
慶	2622
慷	2623
慾	2624
憂	2625
憊	2626
憋	2627
憎	2628
憐	2629
憑	2630
憔	2631
憚	2632
憤	2633
憧	2634
憨	2635
憩	2636
憫	2637
憬	2638
憲	2639
憶	2640
憾	2641
懂	2642
懇	2643
懈	2644
應	2645
懊	2646
懋	2647
懑	2648
懒	2649
懦	2650
懲	2651
懵	2652
懶	2653
懷	2654
懸	2655
懺	2656
懼	2657
懾	2658
懿	2659
戀	2660
戈	2661
戊	2662
戌	2663
戍	2664
戎	2665
戏	2666
成	2667
我	2668
戒	2669
戕	2670
或	2671
战	2672
戚	2673
戛	2674
戟	2675
戡	2676
戦	2677
截	2678
戬	2679
戮	2680
戰	2681
戲	2682
戳	2683
戴	2684
戶	2685
户	2686
戸	2687
戻	2688
戾	2689
房	2690
所	2691
扁	2692
扇	2693
扈	2694
扉	2695
手	2696
才	2697
扎	2698
扑	2699
扒	2700
打	2701
扔	2702
払	2703
托	2704
扛	2705
扣	2706
扦	2707
执	2708
扩	2709
扪	2710
扫	2711
扬	2712
扭	2713
扮	2714
扯	2715
扰	2716
扱	2717
扳	2718
扶	2719
批	2720
扼	2721
找	2722
承	2723
技	2724
抄	2725
抉	2726
把	2727
抑	2728
抒	2729
抓	2730
投	2731
抖	2732
抗	2733
折	2734
抚	2735
抛	2736
抜	2737
択	2738
抟	2739
抠	2740
抡	2741
抢	2742
护	2743
报	2744
抨	2745
披	2746
抬	2747
抱	2748
抵	2749
抹	2750
押	2751
抽	2752
抿	2753
拂	2754
拄	2755
担	2756
拆	2757
拇	2758
拈	2759
拉	2760
拋	2761
拌	2762
拍	2763
拎	2764
拐	2765
拒	2766
拓	2767
拔	2768
拖	2769
拗	2770
拘	2771
拙	2772
拚	2773
招	2774
拜	2775
拟	2776
拡	2777
拢	2778
拣	2779
拥	2780
拦	2781
拧	2782
拨	2783
择	2784
括	2785
拭	2786
拮	2787
拯	2788
拱	2789
拳	2790
拴	2791
拷	2792
拼	2793
拽	2794
拾	2795
拿	2796
持	2797
挂	2798
指	2799
挈	2800
按	2801
挎	2802
挑	2803
挖	2804
挙	2805
挚	2806
挛	2807
挝	2808
挞	2809
挟	2810
挠	2811
挡	2812
挣	2813
挤	2814
挥	2815
挨	2816
挪	2817
挫	2818
振	2819
挲	2820
挹	2821
挺	2822
挽	2823
挾	2824
捂	2825
捅	2826
捆	2827
捉	2828
捋	2829
捌	2830
捍	2831
捎	2832
捏	2833
捐	2834
捕	2835
捞	2836
损	2837
捡	2838
换	2839
捣	2840
捧	2841
捨	2842
捩	2843
据	2844
捱	2845
捲	2846
捶	2847
捷	2848
捺	2849
捻	2850
掀	2851
掂	2852
掃	2853
掇	2854
授	2855
掉	2856
掌	2857
掏	2858
掐	2859
排	2860
掖	2861
掘	2862
掙	2863
掛	2864
掠	2865
採	2866
探	2867
掣	2868
接	2869
控	2870
推	2871
掩	2872
措	2873
掬	2874
掰	2875
掲	2876
掳	2877
掴	2878
掷	2879
掸	2880
掺	2881
揀	2882
揃	2883
揄	2884
揆	2885
揉	2886
揍	2887
描	2888
提	2889
插	2890
揖	2891
揚	2892
換	2893
握	2894
揣	2895
揩	2896
揪	2897
揭	2898
揮	2899
援	2900
揶	2901
揸	2902
揹	2903
揽	2904
搀	2905
搁	2906
搂	2907
搅	2908
損	2909
搏	2910
搐	2911
搓	2912
搔	2913
搖	2914
搗	2915
搜	2916
搞	2917
搡	2918
搪	2919
搬	2920
搭	2921
搵	2922
搶	2923
携	2924
搽	2925
摀	2926
摁	2927
摄	2928
摆	2929
摇	2930
摈	2931
摊	2932
摒	2933
摔	2934
摘	2935
摞	2936
摟	2937
摧	2938
摩	2939
摯	2940
摳	2941
摸	2942
摹	2943
摺	2944
摻	2945
撂	2946
撃	2947
撅	2948
撇	2949
撈	2950
撐	2951
撑	2952
撒	2953
撓	2954
撕	2955
撚	2956
撞	2957
撤	2958
撥	2959
撩	2960
撫	2961
撬	2962
播	2963
撮	2964
撰	2965
撲	2966
撵	2967
撷	2968
撸	2969
撻	2970
撼	2971
撿	2972
擀	2973
擁	2974
擂	2975
擄	2976
擅	2977
擇	2978
擊	2979
擋	2980
操	2981
擎	2982
擒	2983
擔	2984
擘	2985
據	2986
擞	2987
擠	2988
擡	2989
擢	2990
擦	2991
擬	2992
擰	2993
擱	2994
擲	2995
擴	2996
擷	2997
擺	2998
擼	2999
擾	3000
攀	3001
攏	3002
攒	3003
攔	3004
攘	3005
攙	3006
攜	3007
攝	3008
攞	3009
攢	3010
攣	3011
攤	3012
攥	3013
攪	3014
攫	3015
攬	3016
支	3017
收	3018
攸	3019
改	3020
攻	3021
放	3022
政	3023
故	3024
效	3025
敌	3026
敍	3027
敎	3028
敏	3029
救	3030
敕	3031
敖	3032
敗	3033
敘	3034
教	3035
敛	3036
敝	3037
敞	3038
敢	3039
散	3040
敦	3041
敬	3042
数	3043
敲	3044
整	3045
敵	3046
敷	3047
數	3048
斂	3049
斃	3050
文	3051
斋	3052
斌	3053
斎	3054
斐	3055
斑	3056
斓	3057
斗	3058
料	3059
斛	3060
斜	3061
斟	3062
斡	3063
斤	3064
斥	3065
斧	3066
斩	3067
斫	3068
斬	3069
断	3070
斯	3071
新	3072
斷	3073
方	3074
於	3075
施	3076
旁	3077
旃	3078
旅	3079
旋	3080
旌	3081
旎	3082
族	3083
旖	3084
旗	3085
无	3086
既	3087
日	3088
旦	3089
旧	3090
旨	3091
早	3092
旬	3093
旭	3094
旮	3095
旱	3096
时	3097
旷	3098
旺	3099
旻	3100
昀	3101
昂	3102
昆	3103
昇	3104
昉	3105
昊	3106
昌	3107
明	3108
昏	3109
易	3110
昔	3111
昕	3112
昙	3113
星	3114
映	3115
春	3116
昧	3117
昨	3118
昭	3119
是	3120
昱	3121
昴	3122
昵	3123
昶	3124
昼	3125
显	3126
晁	3127
時	3128
晃	3129
晉	3130
晋	3131
晌	3132
晏	3133
晒	3134
晓	3135
晔	3136
晕	3137
晖	3138
晗	3139
晚	3140
晝	3141
晞	3142
晟	3143
晤	3144
晦	3145
晨	3146
晩	3147
普	3148
景	3149
晰	3150
晴	3151
晶	3152
晷	3153
智	3154
晾	3155
暂	3156
暄	3157
暇	3158
暈	3159
暉	3160
暌	3161
暐	3162
暑	3163
暖	3164
暗	3165
暝	3166
暢	3167
暧	3168
暨	3169
暫	3170
暮	3171
暱	3172
暴	3173
暸	3174
暹	3175
曄	3176
曆	3177
曇	3178
曉	3179
曖	3180
曙	3181
曜	3182
曝	3183
曠	3184
曦	3185
曬	3186
曰	3187
曲	3188
曳	3189
更	3190
書	3191
曹	3192
曼	3193
曾	3194
替	3195
最	3196
會	3197
月	3198
有	3199
朋	3200
服	3201
朐	3202
朔	3203
朕	3204
朗	3205
望	3206
朝	3207
期	3208
朦	3209
朧	3210
木	3211
未	3212
末	3213
本	3214
札	3215
朮	3216
术	3217
朱	3218
朴	3219
朵	3220
机	3221
朽	3222
杀	3223
杂	3224
权	3225
杆	3226
杈	3227
杉	3228
李	3229
杏	3230
材	3231
村	3232
杓	3233
杖	3234
杜	3235
杞	3236
束	3237
杠	3238
条	3239
来	3240
杨	3241
杭	3242
杯	3243
杰	3244
東	3245
杳	3246
杵	3247
杷	3248
杼	3249
松	3250
板	3251
极	3252
构	3253
枇	3254
枉	3255
枋	3256
析	3257
枕	3258
林	3259
枚	3260
果	3261
枝	3262
枢	3263
枣	3264
枪	3265
枫	3266
枭	3267
枯	3268
枰	3269
枱	3270
枳	3271
架	3272
枷	3273
枸	3274
柄	3275
柏	3276
某	3277
柑	3278
柒	3279
染	3280
柔	3281
柘	3282
柚	3283
柜	3284
柞	3285
柠	3286
柢	3287
查	3288
柩	3289
柬	3290
柯	3291
柱	3292
柳	3293
柴	3294
柵	3295
査	3296
柿	3297
栀	3298
栃	3299
栄	3300
栅	3301
标	3302
栈	3303
栉	3304
栋	3305
栎	3306
栏	3307
树	3308
栓	3309
栖	3310
栗	3311
校	3312
栩	3313
株	3314
样	3315
核	3316
根	3317
格	3318
栽	3319
栾	3320
桀	3321
桁	3322
桂	3323
桃	3324
桅	3325
框	3326
案	3327
桉	3328
桌	3329
桎	3330
桐	3331
桑	3332
桓	3333
桔	3334
桜	3335
桠	3336
桡	3337
桢	3338
档	3339
桥	3340
桦	3341
桧	3342
桨	3343
桩	3344
桶	3345
桿	3346
梁	3347
梅	3348
梆	3349
梏	3350
梓	3351
梗	3352
條	3353
梟	3354
梢	3355
梦	3356
梧	3357
梨	3358
梭	3359
梯	3360
械	3361
梳	3362
梵	3363
梶	3364
检	3365
棂	3366
棄	3367
棉	3368
棋	3369
棍	3370
棒	3371
棕	3372
棗	3373
棘	3374
棚	3375
棟	3376
棠	3377
棣	3378
棧	3379
森	3380
棱	3381
棲	3382
棵	3383
棹	3384
棺	3385
椁	3386
椅	3387
椋	3388
植	3389
椎	3390
椒	3391
検	3392
椪	3393
椭	3394
椰	3395
椹	3396
椽	3397
椿	3398
楂	3399
楊	3400
楓	3401
楔	3402
楚	3403
楝	3404
楞	3405
楠	3406
楣	3407
楨	3408
楫	3409
業	3410
楮	3411
極	3412
楷	3413
楸	3414
楹	3415
楼	3416
楽	3417
概	3418
榄	3419
榆	3420
榈	3421
榉	3422
榔	3423
榕	3424
榖	3425
榛	3426
榜	3427
榨	3428
榫	3429
榭	3430
榮	3431
榱	3432
榴	3433
榷	3434
榻	3435
槁	3436
槃	3437
構	3438
槌	3439
槍	3440
槎	3441
槐	3442
槓	3443
様	3444
槛	3445
槟	3446
槤	3447
槭	3448
槲	3449
槳	3450
槻	3451
槽	3452
槿	3453
樁	3454
樂	3455
樊	3456
樑	3457
樓	3458
標	3459
樞	3460
樟	3461
模	3462
樣	3463
権	3464
横	3465
樫	3466
樯	3467
樱	3468
樵	3469
樸	3470
樹	3471
樺	3472
樽	3473
樾	3474
橄	3475
橇	3476
橋	3477
橐	3478
橘	3479
橙	3480
機	3481
橡	3482
橢	3483
橫	3484
橱	3485
橹	3486
橼	3487
檀	3488
檄	3489
檎	3490
檐	3491
檔	3492
檗	3493
檜	3494
檢	3495
檬	3496
檯	3497
檳	3498
檸	3499
檻	3500
櫃	3501
櫚	3502
櫛	3503
櫥	3504
櫸	3505
櫻	3506
欄	3507
權	3508
欒	3509
欖	3510
欠	3511
次	3512
欢	3513
欣	3514
欧	3515
欲	3516
欸	3517
欺	3518
欽	3519
款	3520
歆	3521
歇	3522
歉	3523
歌	3524
歎	3525
歐	3526
歓	3527
歙	3528
歛	3529
歡	3530
止	3531
正	3532
此	3533
步	3534
武	3535
歧	3536
歩	3537
歪	3538
歯	3539
歲	3540
歳	3541
歴	3542
歷	3543
歸	3544
歹	3545
死	3546
歼	3547
殁	3548
殃	3549
殆	3550
殇	3551
殉	3552
殊	3553
残	3554
殒	3555
殓	3556
殖	3557
殘	3558
殞	3559
殡	3560
殤	3561
殭	3562
殯	3563
殲	3564
殴	3565
段	3566
殷	3567
殺	3568
殼	3569
殿	3570
毀	3571
毁	3572
毂	3573
毅	3574
毆	3575
毋	3576
母	3577
毎	3578
每	3579
毒	3580
毓	3581
比	3582
毕	3583
毗	3584
毘	3585
毙	3586
毛	3587
毡	3588
毫	3589
毯	3590
毽	3591
氈	3592
氏	3593
氐	3594
民	3595
氓	3596
气	3597
氖	3598
気	3599
氙	3600
氛	3601
氟	3602
氡	3603
氢	3604
氣	3605
氤	3606
氦	3607
氧	3608
氨	3609
氪	3610
氫	3611
氮	3612
氯	3613
氰	3614
氲	3615
水	3616
氷	3617
永	3618
氹	3619
氾	3620
汀	3621
汁	3622
求	3623
汆	3624
汇	3625
汉	3626
汎	3627
汐	3628
汕	3629
汗	3630
汙	3631
汛	3632
汝	3633
汞	3634
江	3635
池	3636
污	3637
汤	3638
汨	3639
汩	3640
汪	3641
汰	3642
汲	3643
汴	3644
汶	3645
汹	3646
決	3647
汽	3648
汾	3649
沁	3650
沂	3651
沃	3652
沅	3653
沈	3654
沉	3655
沌	3656
沏	3657
沐	3658
沒	3659
沓	3660
沖	3661
沙	3662
沛	3663
沟	3664
没	3665
沢	3666
沣	3667
沥	3668
沦	3669
沧	3670
沪	3671
沫	3672
沭	3673
沮	3674
沱	3675
河	3676
沸	3677
油	3678
治	3679
沼	3680
沽	3681
沾	3682
沿	3683
況	3684
泄	3685
泉	3686
泊	3687
泌	3688
泓	3689
法	3690
泗	3691
泛	3692
泞	3693
泠	3694
泡	3695
波	3696
泣	3697
泥	3698
注	3699
泪	3700
泫	3701
泮	3702
泯	3703
泰	3704
泱	3705
泳	3706
泵	3707
泷	3708
泸	3709
泻	3710
泼	3711
泽	3712
泾	3713
洁	3714
洄	3715
洋	3716
洒	3717
洗	3718
洙	3719
洛	3720
洞	3721
津	3722
洩	3723
洪	3724
洮	3725
洱	3726
洲	3727
洵	3728
洶	3729
洸	3730
洹	3731
活	3732
洼	3733
洽	3734
派	3735
流	3736
浃	3737
浄	3738
浅	3739
浆	3740
浇	3741
浊	3742
测	3743
济	3744
浏	3745
浑	3746
浒	3747
浓	3748
浔	3749
浙	3750
浚	3751
浜	3752
浣	3753
浦	3754
浩	3755
浪	3756
浬	3757
浮	3758
浯	3759
浴	3760
海	3761
浸	3762
涂	3763
涅	3764
涇	3765
消	3766
涉	3767
涌	3768
涎	3769
涓	3770
涔	3771
涕	3772
涙	3773
涛	3774
涝	3775
涞	3776
涟	3777
涠	3778
涡	3779
涣	3780
涤	3781
润	3782
涧	3783
涨	3784
涩	3785
涪	3786
涮	3787
涯	3788
液	3789
涵	3790
涸	3791
涼	3792
涿	3793
淀	3794
淄	3795
淅	3796
淆	3797
淇	3798
淋	3799
淌	3800
淑	3801
淒	3802
淖	3803
淘	3804
淙	3805
淚	3806
淞	3807
淡	3808
淤	3809
淦	3810
淨	3811
淩	3812
淪	3813
淫	3814
淬	3815
淮	3816
深	3817
淳	3818
淵	3819
混	3820
淹	3821
淺	3822
添	3823
淼	3824
清	3825
済	3826
渉	3827
渊	3828
渋	3829
渍	3830
渎	3831
渐	3832
渔	3833
渗	3834
渙	3835
渚	3836
減	3837
渝	3838
渠	3839
渡	3840
渣	3841
渤	3842
渥	3843
渦	3844
温	3845
測	3846
渭	3847
港	3848
渲	3849
渴	3850
游	3851
渺	3852
渾	3853
湃	3854
湄	3855
湊	3856
湍	3857
湖	3858
湘	3859
湛	3860
湟	3861
湧	3862
湫	3863
湮	3864
湯	3865
湳	3866
湾	3867
湿	3868
満	3869
溃	3870
溅	3871
溉	3872
溏	3873
源	3874
準	3875
溜	3876
溝	3877
溟	3878
溢	3879
溥	3880
溧	3881
溪	3882
溫	3883
溯	3884
溱	3885
溴	3886
溶	3887
溺	3888
溼	3889
滁	3890
滂	3891
滄	3892
滅	3893
滇	3894
滋	3895
滌	3896
滑	3897
滓	3898
滔	3899
滕	3900
滙	3901
滚	3902
滝	3903
滞	3904
滟	3905
满	3906
滢	3907
滤	3908
滥	3909
滦	3910
滨	3911
滩	3912
滬	3913
滯	3914
滲	3915
滴	3916
滷	3917
滸	3918
滾	3919
滿	3920
漁	3921
漂	3922
漆	3923
漉	3924
漏	3925
漓	3926
演	3927
漕	3928
漠	3929
漢	3930
漣	3931
漩	3932
漪	3933
漫	3934
漬	3935
漯	3936
漱	3937
漲	3938
漳	3939
漸	3940
漾	3941
漿	3942
潆	3943
潇	3944
潋	3945
潍	3946
潑	3947
潔	3948
潘	3949
潛	3950
潜	3951
潞	3952
潟	3953
潢	3954
潤	3955
潦	3956
潧	3957
潭	3958
潮	3959
潰	3960
潴	3961
潸	3962
潺	3963
潼	3964
澀	3965
澄	3966
澆	3967
澈	3968
澍	3969
澎	3970
澗	3971
澜	3972
澡	3973
澤	3974
澧	3975
澱	3976
澳	3977
澹	3978
激	3979
濁	3980
濂	3981
濃	3982
濑	3983
濒	3984
濕	3985
濘	3986
濛	3987
濟	3988
濠	3989
濡	3990
濤	3991
濫	3992
濬	3993
濮	3994
濯	3995
濱	3996
濺	3997
濾	3998
瀅	3999
瀆	4000
瀉	4001
瀋	4002
瀏	4003
瀑	4004
瀕	4005
瀘	4006
瀚	4007
瀛	4008
瀝	4009
瀞	4010
瀟	4011
瀧	4012
瀨	4013
瀬	4014
瀰	4015
瀾	4016
灌	4017
灏	4018
灑	4019
灘	4020
灝	4021
灞	4022
灣	4023
火	4024
灬	4025
灭	4026
灯	4027
灰	4028
灵	4029
灶	4030
灸	4031
灼	4032
災	4033
灾	4034
灿	4035
炀	4036
炁	4037
炅	4038
炉	4039
炊	4040
炎	4041
炒	4042
炔	4043
炕	4044
炖	4045
炙	4046
炜	4047
炫	4048
炬	4049
炭	4050
炮	4051
炯	4052
炳	4053
炷	4054
炸	4055
点	4056
為	4057
炼	4058
炽	4059
烁	4060
烂	4061
烃	4062
烈	4063
烊	4064
烏	4065
烘	4066
烙	4067
烛	4068
烟	4069
烤	4070
烦	4071
烧	4072
烨	4073
烩	4074
烫	4075
烬	4076
热	4077
烯	4078
烷	4079
烹	4080
烽	4081
焉	4082
焊	4083
焕	4084
焖	4085
焗	4086
焘	4087
焙	4088
焚	4089
焜	4090
無	4091
焦	4092
焯	4093
焰	4094
焱	4095
然	4096
焼	4097
煅	4098
煉	4099
煊	4100
煌	4101
煎	4102
煒	4103
煖	4104
煙	4105
煜	4106
煞	4107
煤	4108
煥	4109
煦	4110
照	4111
煨	4112
煩	4113
煮	4114
煲	4115
煸	4116
煽	4117
熄	4118
熊	4119
熏	4120
熒	4121
熔	4122
熙	4123
熟	4124
熠	4125
熨	4126
熬	4127
熱	4128
熵	4129
熹	4130
熾	4131
燁	4132
燃	4133
燄	4134
燈	4135
燉	4136
燊	4137
燎	4138
燒	4139
燔	4140
燕	4141
燙	4142
燜	4143
營	4144
燥	4145
燦	4146
燧	4147
燭	4148
燮	4149
燴	4150
燻	4151
燼	4152
燿	4153
爆	4154
爍	4155
爐	4156
爛	4157
爪	4158
爬	4159
爭	4160
爰	4161
爱	4162
爲	4163
爵	4164
父	4165
爷	4166
爸	4167
爹	4168
爺	4169
爻	4170
爽	4171
爾	4172
牆	4173
片	4174
版	4175
牌	4176
牍	4177
牒	4178
牙	4179
牛	4180
牝	4181
牟	4182
牠	4183
牡	4184
牢	4185
牦	4186
牧	4187
物	4188
牯	4189
牲	4190
牴	4191
牵	4192
特	4193
牺	4194
牽	4195
犀	4196
犁	4197
犄	4198
犊	4199
犍	4200
犒	4201
犢	4202
犧	4203
犬	4204
犯	4205
状	4206
犷	4207
犸	4208
犹	4209
狀	4210
狂	4211
狄	4212
狈	4213
狎	4214
狐	4215
狒	4216
狗	4217
狙	4218
狞	4219
狠	4220
狡	4221
狩	4222
独	4223
狭	4224
狮	4225
狰	4226
狱	4227
狸	4228
狹	4229
狼	4230
狽	4231
猎	4232
猕	4233
猖	4234
猗	4235
猙	4236
猛	4237
猜	4238
猝	4239
猥	4240
猩	4241
猪	4242
猫	4243
猬	4244
献	4245
猴	4246
猶	4247
猷	4248
猾	4249
猿	4250
獄	4251
獅	4252
獎	4253
獐	4254
獒	4255
獗	4256
獠	4257
獣	4258
獨	4259
獭	4260
獰	4261
獲	4262
獵	4263
獷	4264
獸	4265
獺	4266
獻	4267
獼	4268
獾	4269
玄	4270
率	4271
玉	4272
王	4273
玑	4274
玖	4275
玛	4276
玟	4277
玠	4278
玥	4279
玩	4280
玫	4281
玮	4282
环	4283
现	4284
玲	4285
玳	4286
玷	4287
玺	4288
玻	4289
珀	4290
珂	4291
珅	4292
珈	4293
珉	4294
珊	4295
珍	4296
珏	4297
珐	4298
珑	4299
珙	4300
珞	4301
珠	4302
珣	4303
珥	4304
珩	4305
珪	4306
班	4307
珮	4308
珲	4309
珺	4310
現	4311
球	4312
琅	4313
理	4314
琇	4315
琉	4316
琊	4317
琍	4318
琏	4319
琐	4320
琛	4321
琢	4322
琥	4323
琦	4324
琨	4325
琪	4326
琬	4327
琮	4328
琰	4329
琲	4330
琳	4331
琴	4332
琵	4333
琶	4334
琺	4335
琼	4336
瑀	4337
瑁	4338
瑄	4339
瑋	4340
瑕	4341
瑗	4342
瑙	4343
瑚	4344
瑛	4345
瑜	4346
瑞	4347
瑟	4348
瑠	4349
瑣	4350
瑤	4351
瑩	4352
瑪	4353
瑯	4354
瑰	4355
瑶	4356
瑾	4357
璀	4358
璁	4359
璃	4360
璇	4361
璉	4362
璋	4363
璎	4364
璐	4365
璜	4366
璞	4367
璟	4368
璧	4369
璨	4370
環	4371
璽	4372
璿	4373
瓊	4374
瓏	4375
瓒	4376
瓜	4377
瓢	4378
瓣	4379
瓤	4380
瓦	4381
瓮	4382
瓯	4383
瓴	4384
瓶	4385
瓷	4386
甄	4387
甌	4388
甕	4389
甘	4390
甙	4391
甚	4392
甜	4393
生	4394
產	4395
産	4396
甥	4397
甦	4398
用	4399
甩	4400
甫	4401
甬	4402
甭	4403
甯	4404
田	4405
由	4406
甲	4407
申	4408
电	4409
男	4410
甸	4411
町	4412
画	4413
甾	4414
畀	4415
畅	4416
界	4417
畏	4418
畑	4419
畔	4420
留	4421
畜	4422
畝	4423
畢	4424
略	4425
畦	4426
番	4427
畫	4428
異	4429
畲	4430
畳	4431
畴	4432
當	4433
畸	4434
畹	4435
畿	4436
疆	4437
疇	4438
疊	4439
疏	4440
疑	4441
疔	4442
疖	4443
疗	4444
疙	4445
疚	4446
疝	4447
疟	4448
疡	4449
疣	4450
疤	4451
疥	4452
疫	4453
疮	4454
疯	4455
疱	4456
疲	4457
疳	4458
疵	4459
疸	4460
疹	4461
疼	4462
疽	4463
疾	4464
痂	4465
病	4466
症	4467
痈	4468
痉	4469
痊	4470
痍	4471
痒	4472
痔	4473
痕	4474
痘	4475
痙	4476
痛	4477
痞	4478
痠	4479
痢	4480
痣	4481
痤	4482
痧	4483
痨	4484
痪	4485
痫	4486
痰	4487
痱	4488
痴	4489
痹	4490
痺	4491
痼	4492
痿	4493
瘀	4494
瘁	4495
瘋	4496
瘍	4497
瘓	4498
瘘	4499
瘙	4500
瘟	4501
瘠	4502
瘡	4503
瘢	4504
瘤	4505
瘦	4506
瘧	4507
瘩	4508
瘪	4509
瘫	4510
瘴	4511
瘸	4512
瘾	4513
療	4514
癇	4515
癌	4516
癒	4517
癖	4518
癜	4519
癞	4520
癡	4521
癢	4522
癣	4523
癥	4524
癫	4525
癬	4526
癮	4527
癱	4528
癲	4529
癸	4530
発	4531
登	4532
發	4533
白	4534
百	4535
皂	4536
的	4537
皆	4538
皇	4539
皈	4540
皋	4541
皎	4542
皑	4543
皓	4544
皖	4545
皙	4546
皚	4547
皮	4548
皰	4549
皱	4550
皴	4551
皺	4552
皿	4553
盂	4554
盃	4555
盅	4556
盆	4557
盈	4558
益	4559
盎	4560
盏	4561
盐	4562
监	4563
盒	4564
盔	4565
盖	4566
盗	4567
盘	4568
盛	4569
盜	4570
盞	4571
盟	4572
盡	4573
監	4574
盤	4575
盥	4576
盧	4577
盪	4578
目	4579
盯	4580
盱	4581
盲	4582
直	4583
相	4584
盹	4585
盼	4586
盾	4587
省	4588
眈	4589
眉	4590
看	4591
県	4592
眙	4593
眞	4594
真	4595
眠	4596
眦	4597
眨	4598
眩	4599
眯	4600
眶	4601
眷	4602
眸	4603
眺	4604
眼	4605
眾	4606
着	4607
睁	4608
睇	4609
睏	4610
睐	4611
睑	4612
睛	4613
睜	4614
睞	4615
睡	4616
睢	4617
督	4618
睥	4619
睦	4620
睨	4621
睪	4622
睫	4623
睬	4624
睹	4625
睽	4626
睾	4627
睿	4628
瞄	4629
瞅	4630
瞇	4631
瞋	4632
瞌	4633
瞎	4634
瞑	4635
瞒	4636
瞓	4637
瞞	4638
瞟	4639
瞠	4640
瞥	4641
瞧	4642
瞩	4643
瞪	4644
瞬	4645
瞭	4646
瞰	4647
瞳	4648
瞻	4649
瞼	4650
瞿	4651
矇	4652
矍	4653
矗	4654
矚	4655
矛	4656
矜	4657
矢	4658
矣	4659
知	4660
矩	4661
矫	4662
短	4663
矮	4664
矯	4665
石	4666
矶	4667
矽	4668
矾	4669
矿	4670
码	4671
砂	4672
砌	4673
砍	4674
砒	4675
研	4676
砖	4677
砗	4678
砚	4679
砝	4680
砣	4681
砥	4682
砧	4683
砭	4684
砰	4685
砲	4686
破	4687
砷	4688
砸	4689
砺	4690
砼	4691
砾	4692
础	4693
硅	4694
硐	4695
硒	4696
硕	4697
硝	4698
硫	4699
硬	4700
确	4701
硯	4702
硼	4703
碁	4704
碇	4705
碉	4706
碌	4707
碍	4708
碎	4709
碑	4710
碓	4711
碗	4712
碘	4713
碚	4714
碛	4715
碟	4716
碣	4717
碧	4718
碩	4719
碰	4720
碱	4721
碳	4722
碴	4723
確	4724
碼	4725
碾	4726
磁	4727
磅	4728
磊	4729
磋	4730
磐	4731
磕	4732
磚	4733
磡	4734
磨	4735
磬	4736
磯	4737
磲	4738
磷	4739
磺	4740
礁	4741
礎	4742
礙	4743
礡	4744
礦	4745
礪	4746
礫	4747
礴	4748
示	4749
礼	4750
社	4751
祀	4752
祁	4753
祂	4754
祇	4755
祈	4756
祉	4757
祎	4758
祐	4759
祕	4760
祖	4761
祗	4762
祚	4763
祛	4764
祜	4765
祝	4766
神	4767
祟	4768
祠	4769
祢	4770
祥	4771
票	4772
祭	4773
祯	4774
祷	4775
祸	4776
祺	4777
祿	4778
禀	4779
禁	4780
禄	4781
禅	4782
禍	4783
禎	4784
福	4785
禛	4786
禦	4787
禧	4788
禪	4789
禮	4790
禱	4791
禹	4792
禺	4793
离	4794
禽	4795
禾	4796
禿	4797
秀	4798
私	4799
秃	4800
秆	4801
秉	4802
秋	4803
种	4804
科	4805
秒	4806
秘	4807
租	4808
秣	4809
秤	4810
秦	4811
秧	4812
秩	4813
秭	4814
积	4815
称	4816
秸	4817
移	4818
秽	4819
稀	4820
稅	4821
程	4822
稍	4823
税	4824
稔	4825
稗	4826
稚	4827
稜	4828
稞	4829
稟	4830
稠	4831
稣	4832
種	4833
稱	4834
稲	4835
稳	4836
稷	4837
稹	4838
稻	4839
稼	4840
稽	4841
稿	4842
穀	4843
穂	4844
穆	4845
穌	4846
積	4847
穎	4848
穗	4849
穢	4850
穩	4851
穫	4852
穴	4853
究	4854
穷	4855
穹	4856
空	4857
穿	4858
突	4859
窃	4860
窄	4861
窈	4862
窍	4863
窑	4864
窒	4865
窓	4866
窕	4867
窖	4868
窗	4869
窘	4870
窜	4871
窝	4872
窟	4873
窠	4874
窥	4875
窦	4876
窨	4877
窩	4878
窪	4879
窮	4880
窯	4881
窺	4882
窿	4883
竄	4884
竅	4885
竇	4886
竊	4887
立	4888
竖	4889
站	4890
竜	4891
竞	4892
竟	4893
章	4894
竣	4895
童	4896
竭	4897
端	4898
競	4899
竹	4900
竺	4901
竽	4902
竿	4903
笃	4904
笆	4905
笈	4906
笋	4907
笏	4908
笑	4909
笔	4910
笙	4911
笛	4912
笞	4913
笠	4914
符	4915
笨	4916
第	4917
笹	4918
笺	4919
笼	4920
筆	4921
等	4922
筊	4923
筋	4924
筍	4925
筏	4926
筐	4927
筑	4928
筒	4929
答	4930
策	4931
筛	4932
筝	4933
筠	4934
筱	4935
筲	4936
筵	4937
筷	4938
筹	4939
签	4940
简	4941
箇	4942
箋	4943
箍	4944
箏	4945
箐	4946
箔	4947
箕	4948
算	4949
箝	4950
管	4951
箩	4952
箫	4953
箭	4954
箱	4955
箴	4956
箸	4957
節	4958
篁	4959
範	4960
篆	4961
篇	4962
築	4963
篑	4964
篓	4965
篙	4966
篝	4967
篠	4968
篡	4969
篤	4970
篩	4971
篪	4972
篮	4973
篱	4974
篷	4975
簇	4976
簌	4977
簍	4978
簡	4979
簦	4980
簧	4981
簪	4982
簫	4983
簷	4984
簸	4985
簽	4986
簾	4987
簿	4988
籁	4989
籃	4990
籌	4991
籍	4992
籐	4993
籟	4994
籠	4995
籤	4996
籬	4997
籮	4998
籲	4999
米	5000
类	5001
籼	5002
籽	5003
粄	5004
粉	5005
粑	5006
粒	5007
粕	5008
粗	5009
粘	5010
粟	5011
粤	5012
粥	5013
粧	5014
粪	5015
粮	5016
粱	5017
粲	5018
粳	5019
粵	5020
粹	5021
粼	5022
粽	5023
精	5024
粿	5025
糅	5026
糊	5027
糍	5028
糕	5029
糖	5030
糗	5031
糙	5032
糜	5033
糞	5034
糟	5035
糠	5036
糧	5037
糬	5038
糯	5039
糰	5040
糸	5041
系	5042
糾	5043
紀	5044
紂	5045
約	5046
紅	5047
紉	5048
紊	5049
紋	5050
納	5051
紐	5052
紓	5053
純	5054
紗	5055
紘	5056
紙	5057
級	5058
紛	5059
紜	5060
素	5061
紡	5062
索	5063
紧	5064
紫	5065
紮	5066
累	5067
細	5068
紳	5069
紹	5070
紺	5071
終	5072
絃	5073
組	5074
絆	5075
経	5076
結	5077
絕	5078
絞	5079
絡	5080
絢	5081
給	5082
絨	5083
絮	5084
統	5085
絲	5086
絳	5087
絵	5088
絶	5089
絹	5090
綁	5091
綏	5092
綑	5093
經	5094
継	5095
続	5096
綜	5097
綠	5098
綢	5099
綦	5100
綫	5101
綬	5102
維	5103
綱	5104
網	5105
綴	5106
綵	5107
綸	5108
綺	5109
綻	5110
綽	5111
綾	5112
綿	5113
緊	5114
緋	5115
総	5116
緑	5117
緒	5118
緘	5119
線	5120
緝	5121
緞	5122
締	5123
緣	5124
編	5125
緩	5126
緬	5127
緯	5128
練	5129
緹	5130
緻	5131
縁	5132
縄	5133
縈	5134
縛	5135
縝	5136
縣	5137
縫	5138
縮	5139
縱	5140
縴	5141
縷	5142
總	5143
績	5144
繁	5145
繃	5146
繆	5147
繇	5148
繋	5149
織	5150
繕	5151
繚	5152
繞	5153
繡	5154
繩	5155
繪	5156
繫	5157
繭	5158
繳	5159
繹	5160
繼	5161
繽	5162
纂	5163
續	5164
纍	5165
纏	5166
纓	5167
纔	5168
纖	5169
纜	5170
纠	5171
红	5172
纣	5173
纤	5174
约	5175
级	5176
纨	5177
纪	5178
纫	5179
纬	5180
纭	5181
纯	5182
纰	5183
纱	5184
纲	5185
纳	5186
纵	5187
纶	5188
纷	5189
纸	5190
纹	5191
纺	5192
纽	5193
纾	5194
线	5195
绀	5196
练	5197
组	5198
绅	5199
细	5200
织	5201
终	5202
绊	5203
绍	5204
绎	5205
经	5206
绑	5207
绒	5208
结	5209
绔	5210
绕	5211
绘	5212
给	5213
绚	5214
绛	5215
络	5216
绝	5217
绞	5218
统	5219
绡	5220
绢	5221
绣	5222
绥	5223
绦	5224
继	5225
绩	5226
绪	5227
绫	5228
续	5229
绮	5230
绯	5231
绰	5232
绳	5233
维	5234
绵	5235
绶	5236
绷	5237
绸	5238
绻	5239
综	5240
绽	5241
绾	5242
绿	5243
缀	5244
缄	5245
缅	5246
缆	5247
缇	5248
缈	5249
缉	5250
缎	5251
缓	5252
缔	5253
缕	5254
编	5255
缘	5256
缙	5257
缚	5258
缜	5259
缝	5260
缠	5261
缢	5262
缤	5263
缥	5264
缨	5265
缩	5266
缪	5267
缭	5268
缮	5269
缰	5270
缱	5271
缴	5272
缸	5273
缺	5274
缽	5275
罂	5276
罄	5277
罌	5278
罐	5279
网	5280
罔	5281
罕	5282
罗	5283
罚	5284
罡	5285
罢	5286
罩	5287
罪	5288
置	5289
罰	5290
署	5291
罵	5292
罷	5293
罹	5294
羁	5295
羅	5296
羈	5297
羊	5298
羌	5299
美	5300
羔	5301
羚	5302
羞	5303
羟	5304
羡	5305
羣	5306
群	5307
羥	5308
羧	5309
羨	5310
義	5311
羯	5312
羲	5313
羸	5314
羹	5315
羽	5316
羿	5317
翁	5318
翅	5319
翊	5320
翌	5321
翎	5322
習	5323
翔	5324
翘	5325
翟	5326
翠	5327
翡	5328
翦	5329
翩	5330
翰	5331
翱	5332
翳	5333
翹	5334
翻	5335
翼	5336
耀	5337
老	5338
考	5339
耄	5340
者	5341
耆	5342
耋	5343
而	5344
耍	5345
耐	5346
耒	5347
耕	5348
耗	5349
耘	5350
耙	5351
耦	5352
耨	5353
耳	5354
耶	5355
耷	5356
耸	5357
耻	5358
耽	5359
耿	5360
聂	5361
聆	5362
聊	5363
聋	5364
职	5365
聒	5366
联	5367
聖	5368
聘	5369
聚	5370
聞	5371
聪	5372
聯	5373
聰	5374
聲	5375
聳	5376
聴	5377
聶	5378
職	5379
聽	5380
聾	5381
聿	5382
肃	5383
肄	5384
肅	5385
肆	5386
肇	5387
肉	5388
肋	5389
肌	5390
肏	5391
肓	5392
肖	5393
肘	5394
肚	5395
肛	5396
肝	5397
肠	5398
股	5399
肢	5400
肤	5401
肥	5402
肩	5403
肪	5404
肮	5405
肯	5406
肱	5407
育	5408
肴	5409
肺	5410
肽	5411
肾	5412
肿	5413
胀	5414
胁	5415
胃	5416
胄	5417
胆	5418
背	5419
胍	5420
胎	5421
胖	5422
胚	5423
胛	5424
胜	5425
胝	5426
胞	5427
胡	5428
胤	5429
胥	5430
胧	5431
胫	5432
胭	5433
胯	5434
胰	5435
胱	5436
胳	5437
胴	5438
胶	5439
胸	5440
胺	5441
能	5442
脂	5443
脅	5444
脆	5445
脇	5446
脈	5447
脉	5448
脊	5449
脍	5450
脏	5451
脐	5452
脑	5453
脓	5454
脖	5455
脘	5456
脚	5457
脛	5458
脣	5459
脩	5460
脫	5461
脯	5462
脱	5463
脲	5464
脳	5465
脸	5466
脹	5467
脾	5468
腆	5469
腈	5470
腊	5471
腋	5472
腌	5473
腎	5474
腐	5475
腑	5476
腓	5477
腔	5478
腕	5479
腥	5480
腦	5481
腩	5482
腫	5483
腭	5484
腮	5485
腰	5486
腱	5487
腳	5488
腴	5489
腸	5490
腹	5491
腺	5492
腻	5493
腼	5494
腾	5495
腿	5496
膀	5497
膈	5498
膊	5499
膏	5500
膑	5501
膘	5502
膚	5503
膛	5504
膜	5505
膝	5506
膠	5507
膦	5508
膨	5509
膩	5510
膳	5511
膺	5512
膻	5513
膽	5514
膾	5515
膿	5516
臀	5517
臂	5518
臃	5519
臆	5520
臉	5521
臊	5522
臍	5523
臓	5524
臘	5525
臟	5526
臣	5527
臥	5528
臧	5529
臨	5530
自	5531
臬	5532
臭	5533
至	5534
致	5535
臺	5536
臻	5537
臼	5538
臾	5539
舀	5540
舂	5541
舅	5542
舆	5543
與	5544
興	5545
舉	5546
舊	5547
舌	5548
舍	5549
舎	5550
舐	5551
舒	5552
舔	5553
舖	5554
舗	5555
舛	5556
舜	5557
舞	5558
舟	5559
航	5560
舫	5561
般	5562
舰	5563
舱	5564
舵	5565
舶	5566
舷	5567
舸	5568
船	5569
舺	5570
舾	5571
艇	5572
艋	5573
艘	5574
艙	5575
艦	5576
艮	5577
良	5578
艰	5579
艱	5580
色	5581
艳	5582
艷	5583
艹	5584
艺	5585
艾	5586
节	5587
芃	5588
芈	5589
芊	5590
芋	5591
芍	5592
芎	5593
芒	5594
芙	5595
芜	5596
芝	5597
芡	5598
芥	5599
芦	5600
芩	5601
芪	5602
芫	5603
芬	5604
芭	5605
芮	5606
芯	5607
花	5608
芳	5609
芷	5610
芸	5611
芹	5612
芻	5613
芽	5614
芾	5615
苁	5616
苄	5617
苇	5618
苋	5619
苍	5620
苏	5621
苑	5622
苒	5623
苓	5624
苔	5625
苕	5626
苗	5627
苛	5628
苜	5629
苞	5630
苟	5631
苡	5632
苣	5633
若	5634
苦	5635
苫	5636
苯	5637
英	5638
苷	5639
苹	5640
苻	5641
茁	5642
茂	5643
范	5644
茄	5645
茅	5646
茉	5647
茎	5648
茏	5649
茗	5650
茜	5651
茧	5652
茨	5653
茫	5654
茬	5655
茭	5656
茯	5657
茱	5658
茲	5659
茴	5660
茵	5661
茶	5662
茸	5663
茹	5664
茼	5665
荀	5666
荃	5667
荆	5668
草	5669
荊	5670
荏	5671
荐	5672
荒	5673
荔	5674
荖	5675
荘	5676
荚	5677
荞	5678
荟	5679
荠	5680
荡	5681
荣	5682
荤	5683
荥	5684
荧	5685
荨	5686
荪	5687
荫	5688
药	5689
荳	5690
荷	5691
荸	5692
荻	5693
荼	5694
荽	5695
莅	5696
莆	5697
莉	5698
莊	5699
莎	5700
莒	5701
莓	5702
莖	5703
莘	5704
莞	5705
莠	5706
莢	5707
莧	5708
莪	5709
莫	5710
莱	5711
莲	5712
莴	5713
获	5714
莹	5715
莺	5716
莽	5717
莿	5718
菀	5719
菁	5720
菅	5721
菇	5722
菈	5723
菊	5724
菌	5725
菏	5726
菓	5727
菖	5728
菘	5729
菜	5730
菟	5731
菠	5732
菡	5733
菩	5734
華	5735
菱	5736
菲	5737
菸	5738
菽	5739
萁	5740
萃	5741
萄	5742
萊	5743
萋	5744
萌	5745
萍	5746
萎	5747
萘	5748
萝	5749
萤	5750
营	5751
萦	5752
萧	5753
萨	5754
萩	5755
萬	5756
萱	5757
萵	5758
萸	5759
萼	5760
落	5761
葆	5762
葉	5763
著	5764
葚	5765
葛	5766
葡	5767
董	5768
葦	5769
葩	5770
葫	5771
葬	5772
葭	5773
葯	5774
葱	5775
葳	5776
葵	5777
葷	5778
葺	5779
蒂	5780
蒋	5781
蒐	5782
蒔	5783
蒙	5784
蒜	5785
蒞	5786
蒟	5787
蒡	5788
蒨	5789
蒲	5790
蒸	5791
蒹	5792
蒻	5793
蒼	5794
蒿	5795
蓁	5796
蓄	5797
蓆	5798
蓉	5799
蓋	5800
蓑	5801
蓓	5802
蓖	5803
蓝	5804
蓟	5805
蓦	5806
蓬	5807
蓮	5808
蓼	5809
蓿	5810
蔑	5811
蔓	5812
蔔	5813
蔗	5814
蔘	5815
蔚	5816
蔡	5817
蔣	5818
蔥	5819
蔫	5820
蔬	5821
蔭	5822
蔵	5823
蔷	5824
蔺	5825
蔻	5826
蔼	5827
蔽	5828
蕁	5829
蕃	5830
蕈	5831
蕉	5832
蕊	5833
蕎	5834
蕙	5835
蕤	5836
蕨	5837
蕩	5838
蕪	5839
蕭	5840
蕲	5841
蕴	5842
蕻	5843
蕾	5844
薄	5845
薅	5846
薇	5847
薈	5848
薊	5849
薏	5850
薑	5851
薔	5852
薙	5853
薛	5854
薦	5855
薨	5856
薩	5857
薪	5858
薬	5859
薯	5860
薰	5861
薹	5862
藉	5863
藍	5864
藏	5865
藐	5866
藓	5867
藕	5868
藜	5869
藝	5870
藤	5871
藥	5872
藩	5873
藹	5874
藻	5875
藿	5876
蘆	5877
蘇	5878
蘊	5879
蘋	5880
蘑	5881
蘚	5882
蘭	5883
蘸	5884
蘼	5885
蘿	5886
虎	5887
虏	5888
虐	5889
虑	5890
虔	5891
處	5892
虚	5893
虛	5894
虜	5895
虞	5896
號	5897
虢	5898
虧	5899
虫	5900
虬	5901
虱	5902
虹	5903
虻	5904
虽	5905
虾	5906
蚀	5907
蚁	5908
蚂	5909
蚊	5910
蚌	5911
蚓	5912
蚕	5913
蚜	5914
蚝	5915
蚣	5916
蚤	5917
蚩	5918
蚪	5919
蚯	5920
蚱	5921
蚵	5922
蛀	5923
蛆	5924
蛇	5925
蛊	5926
蛋	5927
蛎	5928
蛐	5929
蛔	5930
蛙	5931
蛛	5932
蛟	5933
蛤	5934
蛭	5935
蛮	5936
蛰	5937
蛳	5938
蛹	5939
蛻	5940
蛾	5941
蜀	5942
蜂	5943
蜃	5944
蜆	5945
蜇	5946
蜈	5947
蜊	5948
蜍	5949
蜒	5950
蜓	5951
蜕	5952
蜗	5953
蜘	5954
蜚	5955
蜜	5956
蜡	5957
蜢	5958
蜥	5959
蜱	5960
蜴	5961
蜷	5962
蜻	5963
蜿	5964
蝇	5965
蝈	5966
蝉	5967
蝌	5968
蝎	5969
蝕	5970
蝗	5971
蝙	5972
蝟	5973
蝠	5974
蝦	5975
蝨	5976
蝴	5977
蝶	5978
蝸	5979
蝼	5980
螂	5981
螃	5982
融	5983
螞	5984
螢	5985
螨	5986
螯	5987
螳	5988
螺	5989
蟀	5990
蟄	5991
蟆	5992
蟋	5993
蟎	5994
蟑	5995
蟒	5996
蟠	5997
蟬	5998
蟲	5999
蟹	6000
蟻	6001
蟾	6002
蠅	6003
蠍	6004
蠔	6005
蠕	6006
蠛	6007
蠟	6008
蠡	6009
蠢	6010
蠣	6011
蠱	6012
蠶	6013
蠹	6014
蠻	6015
血	6016
衄	6017
衅	6018
衆	6019
行	6020
衍	6021
術	6022
衔	6023
街	6024
衙	6025
衛	6026
衝	6027
衞	6028
衡	6029
衢	6030
衣	6031
补	6032
表	6033
衩	6034
衫	6035
衬	6036
衮	6037
衰	6038
衲	6039
衷	6040
衹	6041
衾	6042
衿	6043
袁	6044
袂	6045
袄	6046
袅	6047
袈	6048
袋	6049
袍	6050
袒	6051
袖	6052
袜	6053
袞	6054
袤	6055
袪	6056
被	6057
袭	6058
袱	6059
裁	6060
裂	6061
装	6062
裆	6063
裊	6064
裏	6065
裔	6066
裕	6067
裘	6068
裙	6069
補	6070
裝	6071
裟	6072
裡	6073
裤	6074
裨	6075
裱	6076
裳	6077
裴	6078
裸	6079
裹	6080
製	6081
裾	6082
褂	6083
複	6084
褐	6085
褒	6086
褓	6087
褔	6088
褚	6089
褥	6090
褪	6091
褫	6092
褲	6093
褶	6094
褻	6095
襁	6096
襄	6097
襟	6098
襠	6099
襪	6100
襬	6101
襯	6102
襲	6103
西	6104
要	6105
覃	6106
覆	6107
覇	6108
見	6109
規	6110
覓	6111
視	6112
覚	6113
覦	6114
覧	6115
親	6116
覬	6117
観	6118
覷	6119
覺	6120
覽	6121
觀	6122
见	6123
观	6124
规	6125
觅	6126
视	6127
览	6128
觉	6129
觊	6130
觎	6131
觐	6132
觑	6133
角	6134
觞	6135
解	6136
觥	6137
触	6138
觸	6139
言	6140
訂	6141
計	6142
訊	6143
討	6144
訓	6145
訕	6146
訖	6147
託	6148
記	6149
訛	6150
訝	6151
訟	6152
訣	6153
訥	6154
訪	6155
設	6156
許	6157
訳	6158
訴	6159
訶	6160
診	6161
註	6162
証	6163
詆	6164
詐	6165
詔	6166
評	6167
詛	6168
詞	6169
詠	6170
詡	6171
詢	6172
詣	6173
試	6174
詩	6175
詫	6176
詬	6177
詭	6178
詮	6179
詰	6180
話	6181
該	6182
詳	6183
詹	6184
詼	6185
誅	6186
誇	6187
誉	6188
誌	6189
認	6190
誓	6191
誕	6192
誘	6193
語	6194
誠	6195
誡	6196
誣	6197
誤	6198
誥	6199
誦	6200
誨	6201
說	6202
説	6203
読	6204
誰	6205
課	6206
誹	6207
誼	6208
調	6209
諄	6210
談	6211
請	6212
諏	6213
諒	6214
論	6215
諗	6216
諜	6217
諡	6218
諦	6219
諧	6220
諫	6221
諭	6222
諮	6223
諱	6224
諳	6225
諷	6226
諸	6227
諺	6228
諾	6229
謀	6230
謁	6231
謂	6232
謄	6233
謊	6234
謎	6235
謐	6236
謔	6237
謗	6238
謙	6239
講	6240
謝	6241
謠	6242
謨	6243
謬	6244
謹	6245
謾	6246
譁	6247
證	6248
譎	6249
譏	6250
識	6251
譙	6252
譚	6253
譜	6254
警	6255
譬	6256
譯	6257
議	6258
譲	6259
譴	6260
護	6261
譽	6262
讀	6263
變	6264
讓	6265
讚	6266
讞	6267
计	6268
订	6269
认	6270
讥	6271
讧	6272
讨	6273
让	6274
讪	6275
讫	6276
训	6277
议	6278
讯	6279
记	6280
讲	6281
讳	6282
讴	6283
讶	6284
讷	6285
许	6286
讹	6287
论	6288
讼	6289
讽	6290
设	6291
访	6292
诀	6293
证	6294
诃	6295
评	6296
诅	6297
识	6298
诈	6299
诉	6300
诊	6301
诋	6302
词	6303
诏	6304
译	6305
试	6306
诗	6307
诘	6308
诙	6309
诚	6310
诛	6311
话	6312
诞	6313
诟	6314
诠	6315
诡	6316
询	6317
诣	6318
诤	6319
该	6320
详	6321
诧	6322
诩	6323
诫	6324
诬	6325
语	6326
误	6327
诰	6328
诱	6329
诲	6330
说	6331
诵	6332
诶	6333
请	6334
诸	6335
诺	6336
读	6337
诽	6338
课	6339
诿	6340
谀	6341
谁	6342
调	6343
谄	6344
谅	6345
谆	6346
谈	6347
谊	6348
谋	6349
谌	6350
谍	6351
谎	6352
谏	6353
谐	6354
谑	6355
谒	6356
谓	6357
谔	6358
谕	6359
谗	6360
谘	6361
谙	6362
谚	6363
谛	6364
谜	6365
谟	6366
谢	6367
谣	6368
谤	6369
谥	6370
谦	6371
谧	6372
谨	6373
谩	6374
谪	6375
谬	6376
谭	6377
谯	6378
谱	6379
谲	6380
谴	6381
谶	6382
谷	6383
豁	6384
豆	6385
豇	6386
豈	6387
豉	6388
豊	6389
豌	6390
豎	6391
豐	6392
豔	6393
豚	6394
象	6395
豢	6396
豪	6397
豫	6398
豬	6399
豹	6400
豺	6401
貂	6402
貅	6403
貌	6404
貓	6405
貔	6406
貘	6407
貝	6408
貞	6409
負	6410
財	6411
貢	6412
貧	6413
貨	6414
販	6415
貪	6416
貫	6417
責	6418
貯	6419
貰	6420
貳	6421
貴	6422
貶	6423
買	6424
貸	6425
費	6426
貼	6427
貽	6428
貿	6429
賀	6430
賁	6431
賂	6432
賃	6433
賄	6434
資	6435
賈	6436
賊	6437
賑	6438
賓	6439
賜	6440
賞	6441
賠	6442
賡	6443
賢	6444
賣	6445
賤	6446
賦	6447
質	6448
賬	6449
賭	6450
賴	6451
賺	6452
購	6453
賽	6454
贅	6455
贈	6456
贊	6457
贍	6458
贏	6459
贓	6460
贖	6461
贛	6462
贝	6463
贞	6464
负	6465
贡	6466
财	6467
责	6468
贤	6469
败	6470
账	6471
货	6472
质	6473
贩	6474
贪	6475
贫	6476
贬	6477
购	6478
贮	6479
贯	6480
贰	6481
贱	6482
贲	6483
贴	6484
贵	6485
贷	6486
贸	6487
费	6488
贺	6489
贻	6490
贼	6491
贾	6492
贿	6493
赁	6494
赂	6495
赃	6496
资	6497
赅	6498
赈	6499
赊	6500
赋	6501
赌	6502
赎	6503
赏	6504
赐	6505
赓	6506
赔	6507
赖	6508
赘	6509
赚	6510
赛	6511
赝	6512
赞	6513
赠	6514
赡	6515
赢	6516
赣	6517
赤	6518
赦	6519
赧	6520
赫	6521
赭	6522
走	6523
赳	6524
赴	6525
赵	6526
赶	6527
起	6528
趁	6529
超	6530
越	6531
趋	6532
趕	6533
趙	6534
趟	6535
趣	6536
趨	6537
足	6538
趴	6539
趵	6540
趸	6541
趺	6542
趾	6543
跃	6544
跄	6545
跆	6546
跋	6547
跌	6548
跎	6549
跑	6550
跖	6551
跚	6552
跛	6553
距	6554
跟	6555
跡	6556
跤	6557
跨	6558
跩	6559
跪	6560
路	6561
跳	6562
践	6563
跷	6564
跹	6565
跺	6566
跻	6567
踉	6568
踊	6569
踌	6570
踏	6571
踐	6572
踝	6573
踞	6574
踟	6575
踢	6576
踩	6577
踪	6578
踮	6579
踱	6580
踴	6581
踵	6582
踹	6583
蹂	6584
蹄	6585
蹇	6586
蹈	6587
蹉	6588
蹊	6589
蹋	6590
蹑	6591
蹒	6592
蹙	6593
蹟	6594
蹣	6595
蹤	6596
蹦	6597
蹩	6598
蹬	6599
蹭	6600
蹲	6601
蹴	6602
蹶	6603
蹺	6604
蹼	6605
蹿	6606
躁	6607
躇	6608
躉	6609
躊	6610
躋	6611
躍	6612
躏	6613
躪	6614
身	6615
躬	6616
躯	6617
躲	6618
躺	6619
軀	6620
車	6621
軋	6622
軌	6623
軍	6624
軒	6625
軟	6626
転	6627
軸	6628
軼	6629
軽	6630
軾	6631
較	6632
載	6633
輒	6634
輓	6635
輔	6636
輕	6637
輛	6638
輝	6639
輟	6640
輩	6641
輪	6642
輯	6643
輸	6644
輻	6645
輾	6646
輿	6647
轄	6648
轅	6649
轆	6650
轉	6651
轍	6652
轎	6653
轟	6654
车	6655
轧	6656
轨	6657
轩	6658
转	6659
轭	6660
轮	6661
软	6662
轰	6663
轲	6664
轴	6665
轶	6666
轻	6667
轼	6668
载	6669
轿	6670
较	6671
辄	6672
辅	6673
辆	6674
辇	6675
辈	6676
辉	6677
辊	6678
辍	6679
辐	6680
辑	6681
输	6682
辕	6683
辖	6684
辗	6685
辘	6686
辙	6687
辛	6688
辜	6689
辞	6690
辟	6691
辣	6692
辦	6693
辨	6694
辩	6695
辫	6696
辭	6697
辮	6698
辯	6699
辰	6700
辱	6701
農	6702
边	6703
辺	6704
辻	6705
込	6706
辽	6707
达	6708
迁	6709
迂	6710
迄	6711
迅	6712
过	6713
迈	6714
迎	6715
运	6716
近	6717
返	6718
还	6719
这	6720
进	6721
远	6722
违	6723
连	6724
迟	6725
迢	6726
迤	6727
迥	6728
迦	6729
迩	6730
迪	6731
迫	6732
迭	6733
述	6734
迴	6735
迷	6736
迸	6737
迹	6738
迺	6739
追	6740
退	6741
送	6742
适	6743
逃	6744
逅	6745
逆	6746
选	6747
逊	6748
逍	6749
透	6750
逐	6751
递	6752
途	6753
逕	6754
逗	6755
這	6756
通	6757
逛	6758
逝	6759
逞	6760
速	6761
造	6762
逢	6763
連	6764
逮	6765
週	6766
進	6767
逵	6768
逶	6769
逸	6770
逻	6771
逼	6772
逾	6773
遁	6774
遂	6775
遅	6776
遇	6777
遊	6778
運	6779
遍	6780
過	6781
遏	6782
遐	6783
遑	6784
遒	6785
道	6786
達	6787
違	6788
遗	6789
遙	6790
遛	6791
遜	6792
遞	6793
遠	6794
遢	6795
遣	6796
遥	6797
遨	6798
適	6799
遭	6800
遮	6801
遲	6802
遴	6803
遵	6804
遶	6805
遷	6806
選	6807
遺	6808
遼	6809
遽	6810
避	6811
邀	6812
邁	6813
邂	6814
邃	6815
還	6816
邇	6817
邈	6818
邊	6819
邋	6820
邏	6821
邑	6822
邓	6823
邕	6824
邛	6825
邝	6826
邢	6827
那	6828
邦	6829
邨	6830
邪	6831
邬	6832
邮	6833
邯	6834
邰	6835
邱	6836
邳	6837
邵	6838
邸	6839
邹	6840
邺	6841
邻	6842
郁	6843
郅	6844
郊	6845
郎	6846
郑	6847
郜	6848
郝	6849
郡	6850
郢	6851
郤	6852
郦	6853
郧	6854
部	6855
郫	6856
郭	6857
郴	6858
郵	6859
郷	6860
郸	6861
都	6862
鄂	6863
鄉	6864
鄒	6865
鄔	6866
鄙	6867
鄞	6868
鄢	6869
鄧	6870
鄭	6871
鄰	6872
鄱	6873
鄲	6874
鄺	6875
酉	6876
酊	6877
酋	6878
酌	6879
配	6880
酐	6881
酒	6882
酗	6883
酚	6884
酝	6885
酢	6886
酣	6887
酥	6888
酩	6889
酪	6890
酬	6891
酮	6892
酯	6893
酰	6894
酱	6895
酵	6896
酶	6897
酷	6898
酸	6899
酿	6900
醃	6901
醇	6902
醉	6903
醋	6904
醍	6905
醐	6906
醒	6907
醚	6908
醛	6909
醜	6910
醞	6911
醣	6912
醪	6913
醫	6914
醬	6915
醮	6916
醯	6917
醴	6918
醺	6919
釀	6920
釁	6921
采	6922
釉	6923
释	6924
釋	6925
里	6926
重	6927
野	6928
量	6929
釐	6930
金	6931
釗	6932
釘	6933
釜	6934
針	6935
釣	6936
釦	6937
釧	6938
釵	6939
鈀	6940
鈉	6941
鈍	6942
鈎	6943
鈔	6944
鈕	6945
鈞	6946
鈣	6947
鈦	6948
鈪	6949
鈴	6950
鈺	6951
鈾	6952
鉀	6953
鉄	6954
鉅	6955
鉉	6956
鉑	6957
鉗	6958
鉚	6959
鉛	6960
鉤	6961
鉴	6962
鉻	6963
銀	6964
銃	6965
銅	6966
銑	6967
銓	6968
銖	6969
銘	6970
銜	6971
銬	6972
銭	6973
銮	6974
銳	6975
銷	6976
銹	6977
鋁	6978
鋅	6979
鋒	6980
鋤	6981
鋪	6982
鋰	6983
鋸	6984
鋼	6985
錄	6986
錐	6987
錘	6988
錚	6989
錠	6990
錢	6991
錦	6992
錨	6993
錫	6994
錮	6995
錯	6996
録	6997
錳	6998
錶	6999
鍊	7000
鍋	7001
鍍	7002
鍛	7003
鍥	7004
鍰	7005
鍵	7006
鍺	7007
鍾	7008
鎂	7009
鎊	7010
鎌	7011
鎏	7012
鎔	7013
鎖	7014
鎗	7015
鎚	7016
鎧	7017
鎬	7018
鎮	7019
鎳	7020
鏈	7021
鏖	7022
鏗	7023
鏘	7024
鏞	7025
鏟	7026
鏡	7027
鏢	7028
鏤	7029
鏽	7030
鐘	7031
鐮	7032
鐲	7033
鐳	7034
鐵	7035
鐸	7036
鐺	7037
鑄	7038
鑊	7039
鑑	7040
鑒	7041
鑣	7042
鑫	7043
鑰	7044
鑲	7045
鑼	7046
鑽	7047
鑾	7048
鑿	7049
针	7050
钉	7051
钊	7052
钎	7053
钏	7054
钒	7055
钓	7056
钗	7057
钙	7058
钛	7059
钜	7060
钝	7061
钞	7062
钟	7063
钠	7064
钡	7065
钢	7066
钣	7067
钤	7068
钥	7069
钦	7070
钧	7071
钨	7072
钩	7073
钮	7074
钯	7075
钰	7076
钱	7077
钳	7078
钴	7079
钵	7080
钺	7081
钻	7082
钼	7083
钾	7084
钿	7085
铀	7086
铁	7087
铂	7088
铃	7089
铄	7090
铅	7091
铆	7092
铉	7093
铎	7094
铐	7095
铛	7096
铜	7097
铝	7098
铠	7099
铡	7100
铢	7101
铣	7102
铤	7103
铨	7104
铩	7105
铬	7106
铭	7107
铮	7108
铰	7109
铲	7110
铵	7111
银	7112
铸	7113
铺	7114
链	7115
铿	7116
销	7117
锁	7118
锂	7119
锄	7120
锅	7121
锆	7122
锈	7123
锉	7124
锋	7125
锌	7126
锏	7127
锐	7128
锑	7129
错	7130
锚	7131
锟	7132
锡	7133
锢	7134
锣	7135
锤	7136
锥	7137
锦	7138
锭	7139
键	7140
锯	7141
锰	7142
锲	7143
锵	7144
锹	7145
锺	7146
锻	7147
镀	7148
镁	7149
镂	7150
镇	7151
镉	7152
镌	7153
镍	7154
镐	7155
镑	7156
镕	7157
镖	7158
镗	7159
镛	7160
镜	7161
镣	7162
镭	7163
镯	7164
镰	7165
镳	7166
镶	7167
長	7168
长	7169
門	7170
閃	7171
閉	7172
開	7173
閎	7174
閏	7175
閑	7176
閒	7177
間	7178
閔	7179
閘	7180
閡	7181
関	7182
閣	7183
閥	7184
閨	7185
閩	7186
閱	7187
閲	7188
閹	7189
閻	7190
閾	7191
闆	7192
闇	7193
闊	7194
闌	7195
闍	7196
闔	7197
闕	7198
闖	7199
闘	7200
關	7201
闡	7202
闢	7203
门	7204
闪	7205
闫	7206
闭	7207
问	7208
闯	7209
闰	7210
闲	7211
间	7212
闵	7213
闷	7214
闸	7215
闹	7216
闺	7217
闻	7218
闽	7219
闾	7220
阀	7221
阁	7222
阂	7223
阅	7224
阆	7225
阇	7226
阈	7227
阉	7228
阎	7229
阐	7230
阑	7231
阔	7232
阕	7233
阖	7234
阙	7235
阚	7236
阜	7237
队	7238
阡	7239
阪	7240
阮	7241
阱	7242
防	7243
阳	7244
阴	7245
阵	7246
阶	7247
阻	7248
阿	7249
陀	7250
陂	7251
附	7252
际	7253
陆	7254
陇	7255
陈	7256
陋	7257
陌	7258
降	7259
限	7260
陕	7261
陛	7262
陝	7263
陞	7264
陟	7265
陡	7266
院	7267
陣	7268
除	7269
陨	7270
险	7271
陪	7272
陰	7273
陲	7274
陳	7275
陵	7276
陶	7277
陷	7278
陸	7279
険	7280
陽	7281
隅	7282
隆	7283
隈	7284
隊	7285
隋	7286
隍	7287
階	7288
随	7289
隐	7290
隔	7291
隕	7292
隘	7293
隙	7294
際	7295
障	7296
隠	7297
隣	7298
隧	7299
隨	7300
險	7301
隱	7302
隴	7303
隶	7304
隸	7305
隻	7306
隼	7307
隽	7308
难	7309
雀	7310
雁	7311
雄	7312
雅	7313
集	7314
雇	7315
雉	7316
雋	7317
雌	7318
雍	7319
雎	7320
雏	7321
雑	7322
雒	7323
雕	7324
雖	7325
雙	7326
雛	7327
雜	7328
雞	7329
離	7330
難	7331
雨	7332
雪	7333
雯	7334
雰	7335
雲	7336
雳	7337
零	7338
雷	7339
雹	7340
電	7341
雾	7342
需	7343
霁	7344
霄	7345
霆	7346
震	7347
霈	7348
霉	7349
霊	7350
霍	7351
霎	7352
霏	7353
霑	7354
霓	7355
霖	7356
霜	7357
霞	7358
霧	7359
霭	7360
霰	7361
露	7362
霸	7363
霹	7364
霽	7365
霾	7366
靂	7367
靄	7368
靈	7369
青	7370
靓	7371
靖	7372
静	7373
靚	7374
靛	7375
靜	7376
非	7377
靠	7378
靡	7379
面	7380
靥	7381
靦	7382
革	7383
靳	7384
靴	7385
靶	7386
靼	7387
鞅	7388
鞋	7389
鞍	7390
鞏	7391
鞑	7392
鞘	7393
鞠	7394
鞣	7395
鞦	7396
鞭	7397
韆	7398
韋	7399
韌	7400
韓	7401
韜	7402
韦	7403
韧	7404
韩	7405
韬	7406
韭	7407
音	7408
韵	7409
韶	7410
韻	7411
響	7412
頁	7413
頂	7414
頃	7415
項	7416
順	7417
須	7418
頌	7419
預	7420
頑	7421
頒	7422
頓	7423
頗	7424
領	7425
頜	7426
頡	7427
頤	7428
頫	7429
頭	7430
頰	7431
頷	7432
頸	7433
頹	7434
頻	7435
頼	7436
顆	7437
題	7438
額	7439
顎	7440
顏	7441
顔	7442
願	7443
顛	7444
類	7445
顧	7446
顫	7447
顯	7448
顱	7449
顴	7450
页	7451
顶	7452
顷	7453
项	7454
顺	7455
须	7456
顼	7457
顽	7458
顾	7459
顿	7460
颁	7461
颂	7462
预	7463
颅	7464
领	7465
颇	7466
颈	7467
颉	7468
颊	7469
颌	7470
颍	7471
颐	7472
频	7473
颓	7474
颔	7475
颖	7476
颗	7477
题	7478
颚	7479
颛	7480
颜	7481
额	7482
颞	7483
颠	7484
颡	7485
颢	7486
颤	7487
颦	7488
颧	7489
風	7490
颯	7491
颱	7492
颳	7493
颶	7494
颼	7495
飄	7496
飆	7497
风	7498
飒	7499
飓	7500
飕	7501
飘	7502
飙	7503
飚	7504
飛	7505
飞	7506
食	7507
飢	7508
飨	7509
飩	7510
飪	7511
飯	7512
飲	7513
飼	7514
飽	7515
飾	7516
餃	7517
餅	7518
餉	7519
養	7520
餌	7521
餐	7522
餒	7523
餓	7524
餘	7525
餚	7526
餛	7527
餞	7528
餡	7529
館	7530
餮	7531
餵	7532
餾	7533
饅	7534
饈	7535
饋	7536
饌	7537
饍	7538
饑	7539
饒	7540
饕	7541
饗	7542
饞	7543
饥	7544
饨	7545
饪	7546
饬	7547
饭	7548
饮	7549
饯	7550
饰	7551
饱	7552
饲	7553
饴	7554
饵	7555
饶	7556
饷	7557
饺	7558
饼	7559
饽	7560
饿	7561
馀	7562
馁	7563
馄	7564
馅	7565
馆	7566
馈	7567
馋	7568
馍	7569
馏	7570
馒	7571
馔	7572
首	7573
馗	7574
香	7575
馥	7576
馨	7577
馬	7578
馭	7579
馮	7580
馳	7581
馴	7582
駁	7583
駄	7584
駅	7585
駆	7586
駐	7587
駒	7588
駕	7589
駛	7590
駝	7591
駭	7592
駱	7593
駿	7594
騁	7595
騎	7596
騏	7597
験	7598
騙	7599
騨	7600
騰	7601
騷	7602
驀	7603
驅	7604
驊	7605
驍	7606
驒	7607
驕	7608
驗	7609
驚	7610
驛	7611
驟	7612
驢	7613
驥	7614
马	7615
驭	7616
驮	7617
驯	7618
驰	7619
驱	7620
驳	7621
驴	7622
驶	7623
驷	7624
驸	7625
驹	7626
驻	7627
驼	7628
驾	7629
驿	7630
骁	7631
骂	7632
骄	7633
骅	7634
骆	7635
骇	7636
骈	7637
骊	7638
骋	7639
验	7640
骏	7641
骐	7642
骑	7643
骗	7644
骚	7645
骛	7646
骜	7647
骞	7648
骠	7649
骡	7650
骤	7651
骥	7652
骧	7653
骨	7654
骯	7655
骰	7656
骶	7657
骷	7658
骸	7659
骼	7660
髂	7661
髅	7662
髋	7663
髏	7664
髒	7665
髓	7666
體	7667
髖	7668
高	7669
髦	7670
髪	7671
髮	7672
髯	7673
髻	7674
鬃	7675
鬆	7676
鬍	7677
鬓	7678
鬚	7679
鬟	7680
鬢	7681
鬣	7682
鬥	7683
鬧	7684
鬱	7685
鬼	7686
魁	7687
魂	7688
魄	7689
魅	7690
魇	7691
魍	7692
魏	7693
魔	7694
魘	7695
魚	7696
魯	7697
魷	7698
鮑	7699
鮨	7700
鮪	7701
鮭	7702
鮮	7703
鯉	7704
鯊	7705
鯖	7706
鯛	7707
鯨	7708
鯰	7709
鯽	7710
鰍	7711
鰓	7712
鰭	7713
鰲	7714
鰻	7715
鰾	7716
鱈	7717
鱉	7718
鱔	7719
鱗	7720
鱷	7721
鱸	7722
鱼	7723
鱿	7724
鲁	7725
鲈	7726
鲍	7727
鲑	7728
鲛	7729
鲜	7730
鲟	7731
鲢	7732
鲤	7733
鲨	7734
鲫	7735
鲱	7736
鲲	7737
鲶	7738
鲷	7739
鲸	7740
鳃	7741
鳄	7742
鳅	7743
鳌	7744
鳍	7745
鳕	7746
鳖	7747
鳗	7748
鳝	7749
鳞	7750
鳥	7751
鳩	7752
鳳	7753
鳴	7754
鳶	7755
鴉	7756
鴕	7757
鴛	7758
鴦	7759
鴨	7760
鴻	7761
鴿	7762
鵑	7763
鵜	7764
鵝	7765
鵡	7766
鵬	7767
鵰	7768
鵲	7769
鶘	7770
鶩	7771
鶯	7772
鶴	7773
鷗	7774
鷲	7775
鷹	7776
鷺	7777
鸚	7778
鸞	7779
鸟	7780
鸠	7781
鸡	7782
鸢	7783
鸣	7784
鸥	7785
鸦	7786
鸨	7787
鸪	7788
鸭	7789
鸯	7790
鸳	7791
鸵	7792
鸽	7793
鸾	7794
鸿	7795
鹂	7796
鹃	7797
鹄	7798
鹅	7799
鹈	7800
鹉	7801
鹊	7802
鹌	7803
鹏	7804
鹑	7805
鹕	7806
鹘	7807
鹜	7808
鹞	7809
鹤	7810
鹦	7811
鹧	7812
鹫	7813
鹭	7814
鹰	7815
鹳	7816
鹵	7817
鹹	7818
鹼	7819
鹽	7820
鹿	7821
麂	7822
麋	7823
麒	7824
麓	7825
麗	7826
麝	7827
麟	7828
麥	7829
麦	7830
麩	7831
麴	7832
麵	7833
麸	7834
麺	7835
麻	7836
麼	7837
麽	7838
麾	7839
黃	7840
黄	7841
黍	7842
黎	7843
黏	7844
黑	7845
黒	7846
黔	7847
默	7848
黛	7849
黜	7850
黝	7851
點	7852
黠	7853
黨	7854
黯	7855
黴	7856
鼋	7857
鼎	7858
鼐	7859
鼓	7860
鼠	7861
鼬	7862
鼹	7863
鼻	7864
鼾	7865
齁	7866
齊	7867
齋	7868
齐	7869
齒	7870
齡	7871
齢	7872
齣	7873
齦	7874
齿	7875
龄	7876
龅	7877
龈	7878
龊	7879
龋	7880
龌	7881
龍	7882
龐	7883
龔	7884
龕	7885
龙	7886
龚	7887
龛	7888
龜	7889
龟	7890
︰	7891
︱	7892
︶	7893
︿	7894
﹁	7895
﹂	7896
﹍	7897
﹏	7898
﹐	7899
﹑	7900
﹒	7901
﹔	7902
﹕	7903
﹖	7904
﹗	7905
﹙	7906
﹚	7907
﹝	7908
﹞	7909
﹡	7910
﹣	7911
！	7912
＂	7913
＃	7914
＄	7915
％	7916
＆	7917
＇	7918
（	7919
）	7920
＊	7921
＋	7922
，	7923
－	7924
．	7925
／	7926
０	7927
１	7928
２	7929
３	7930
４	7931
５	7932
６	7933
７	7934
８	7935
９	7936
：	7937
；	7938
＜	7939
＝	7940
＞	7941
？	7942
＠	7943
［	7944
＼	7945
］	7946
＾	7947
＿	7948
｀	7949
ａ	7950
ｂ	7951
ｃ	7952
ｄ	7953
ｅ	7954
ｆ	7955
ｇ	7956
ｈ	7957
ｉ	7958
ｊ	7959
ｋ	7960
ｌ	7961
ｍ	7962
ｎ	7963
ｏ	7964
ｐ	7965
ｑ	7966
ｒ	7967
ｓ	7968
ｔ	7969
ｕ	7970
ｖ	7971
ｗ	7972
ｘ	7973
ｙ	7974
ｚ	7975
｛	7976
｜	7977
｝	7978
～	7979
｡	7980
｢	7981
｣	7982
､	7983
･	7984
ｯ	7985
ｰ	7986
ｲ	7987
ｸ	7988
ｼ	7989
ｽ	7990
ﾄ	7991
ﾉ	7992
ﾌ	7993
ﾗ	7994
ﾙ	7995
ﾝ	7996
ﾞ	7997
ﾟ	7998
￣	7999
￥	8000
👍	8001
🔥	8002
😂	8003
😎	8004
yam	8005
10	8006
2017	8007
12	8008
11	8009
2016	8010
20	8011
30	8012
15	8013
06	8014
lofter	8015
##s	8016
2015	8017
by	8018
16	8019
14	8020
18	8021
13	8022
24	8023
17	8024
2014	8025
21	8026
##0	8027
22	8028
19	8029
25	8030
23	8031
com	8032
100	8033
00	8034
05	8035
2013	8036
##a	8037
03	8038
09	8039
08	8040
28	8041
##2	8042
50	8043
01	8044
04	8045
##1	8046
27	8047
02	8048
2012	8049
##3	8050
26	8051
##e	8052
07	8053
##8	8054
##5	8055
##6	8056
##4	8057
##9	8058
##7	8059
29	8060
2011	8061
40	8062
##t	8063
2010	8064
##o	8065
##d	8066
##i	8067
2009	8068
##n	8069
app	8070
www	8071
the	8072
##m	8073
31	8074
##c	8075
##l	8076
##y	8077
##r	8078
##g	8079
2008	8080
60	8081
http	8082
200	8083
qq	8084
##p	8085
80	8086
##f	8087
google	8088
pixnet	8089
90	8090
cookies	8091
tripadvisor	8092
500	8093
##er	8094
##k	8095
35	8096
##h	8097
facebook	8098
2007	8099
2000	8100
70	8101
##b	8102
of	8103
##x	8104
##u	8105
45	8106
300	8107
iphone	8108
32	8109
1000	8110
2006	8111
48	8112
ip	8113
36	8114
in	8115
38	8116
3d	8117
##w	8118
##ing	8119
55	8120
ctrip	8121
##on	8122
##v	8123
33	8124
##の	8125
to	8126
34	8127
400	8128
id	8129
2005	8130
it	8131
37	8132
windows	8133
llc	8134
top	8135
99	8136
42	8137
39	8138
000	8139
led	8140
at	8141
##an	8142
41	8143
51	8144
52	8145
46	8146
49	8147
43	8148
53	8149
44	8150
##z	8151
android	8152
58	8153
and	8154
59	8155
2004	8156
56	8157
vr	8158
##か	8159
5000	8160
2003	8161
47	8162
blogthis	8163
twitter	8164
54	8165
##le	8166
150	8167
ok	8168
2018	8169
57	8170
75	8171
cn	8172
no	8173
ios	8174
##in	8175
##mm	8176
##00	8177
800	8178
on	8179
te	8180
3000	8181
65	8182
2001	8183
360	8184
95	8185
ig	8186
lv	8187
120	8188
##ng	8189
##を	8190
##us	8191
##に	8192
pc	8193
てす	8194
──	8195
600	8196
##te	8197
85	8198
2002	8199
88	8200
##ed	8201
html	8202
ncc	8203
wifi	8204
email	8205
64	8206
blog	8207
is	8208
##10	8209
##て	8210
mail	8211
online	8212
##al	8213
dvd	8214
##ic	8215
studio	8216
##は	8217
##℃	8218
##ia	8219
##と	8220
line	8221
vip	8222
72	8223
##q	8224
98	8225
##ce	8226
##en	8227
for	8228
##is	8229
##ra	8230
##es	8231
##j	8232
usb	8233
net	8234
cp	8235
1999	8236
asia	8237
4g	8238
##cm	8239
diy	8240
new	8241
3c	8242
##お	8243
ta	8244
66	8245
language	8246
vs	8247
apple	8248
tw	8249
86	8250
web	8251
##ne	8252
ipad	8253
62	8254
you	8255
##re	8256
101	8257
68	8258
##tion	8259
ps	8260
de	8261
bt	8262
pony	8263
atm	8264
##2017	8265
1998	8266
67	8267
##ch	8268
ceo	8269
##or	8270
go	8271
##na	8272
av	8273
pro	8274
cafe	8275
96	8276
pinterest	8277
97	8278
63	8279
pixstyleme3c	8280
##ta	8281
more	8282
said	8283
##2016	8284
1997	8285
mp3	8286
700	8287
##ll	8288
nba	8289
jun	8290
##20	8291
92	8292
tv	8293
1995	8294
pm	8295
61	8296
76	8297
nbsp	8298
250	8299
##ie	8300
linux	8301
##ma	8302
cd	8303
110	8304
hd	8305
##17	8306
78	8307
##ion	8308
77	8309
6000	8310
am	8311
##th	8312
##st	8313
94	8314
##se	8315
##et	8316
69	8317
180	8318
gdp	8319
my	8320
105	8321
81	8322
abc	8323
89	8324
flash	8325
79	8326
one	8327
93	8328
1990	8329
1996	8330
##ck	8331
gps	8332
##も	8333
##ly	8334
web885	8335
106	8336
2020	8337
91	8338
##ge	8339
4000	8340
1500	8341
xd	8342
boss	8343
isbn	8344
1994	8345
org	8346
##ry	8347
me	8348
love	8349
##11	8350
0fork	8351
73	8352
##12	8353
3g	8354
##ter	8355
##ar	8356
71	8357
82	8358
##la	8359
hotel	8360
130	8361
1970	8362
pk	8363
83	8364
87	8365
140	8366
ie	8367
##os	8368
##30	8369
##el	8370
74	8371
##50	8372
seo	8373
cpu	8374
##ml	8375
p2p	8376
84	8377
may	8378
##る	8379
sun	8380
tue	8381
internet	8382
cc	8383
posted	8384
youtube	8385
##at	8386
##ン	8387
##man	8388
ii	8389
##ル	8390
##15	8391
abs	8392
nt	8393
pdf	8394
yahoo	8395
ago	8396
1980	8397
##it	8398
news	8399
mac	8400
104	8401
##てす	8402
##me	8403
##り	8404
java	8405
1992	8406
spa	8407
##de	8408
##nt	8409
hk	8410
all	8411
plus	8412
la	8413
1993	8414
##mb	8415
##16	8416
##ve	8417
west	8418
##da	8419
160	8420
air	8421
##い	8422
##ps	8423
から	8424
##to	8425
1989	8426
logo	8427
htc	8428
php	8429
https	8430
fi	8431
momo	8432
##son	8433
sat	8434
##ke	8435
##80	8436
ebd	8437
suv	8438
wi	8439
day	8440
apk	8441
##88	8442
##um	8443
mv	8444
galaxy	8445
wiki	8446
or	8447
brake	8448
##ス	8449
1200	8450
する	8451
this	8452
1991	8453
mon	8454
##こ	8455
❤2017	8456
po	8457
##ない	8458
javascript	8459
life	8460
home	8461
june	8462
##ss	8463
system	8464
900	8465
##ー	8466
##０	8467
pp	8468
1988	8469
world	8470
fb	8471
4k	8472
br	8473
##as	8474
ic	8475
ai	8476
leonardo	8477
safari	8478
##60	8479
live	8480
free	8481
xx	8482
wed	8483
win7	8484
kiehl	8485
##co	8486
lg	8487
o2o	8488
##go	8489
us	8490
235	8491
1949	8492
mm	8493
しい	8494
vfm	8495
kanye	8496
##90	8497
##2015	8498
##id	8499
jr	8500
##ey	8501
123	8502
rss	8503
##sa	8504
##ro	8505
##am	8506
##no	8507
thu	8508
fri	8509
350	8510
##sh	8511
##ki	8512
103	8513
comments	8514
name	8515
##のて	8516
##pe	8517
##ine	8518
max	8519
1987	8520
8000	8521
uber	8522
##mi	8523
##ton	8524
wordpress	8525
office	8526
1986	8527
1985	8528
##ment	8529
107	8530
bd	8531
win10	8532
##ld	8533
##li	8534
gmail	8535
bb	8536
dior	8537
##rs	8538
##ri	8539
##rd	8540
##ます	8541
up	8542
cad	8543
##®	8544
dr	8545
して	8546
read	8547
##21	8548
をお	8549
##io	8550
##99	8551
url	8552
1984	8553
pvc	8554
paypal	8555
show	8556
policy	8557
##40	8558
##ty	8559
##18	8560
with	8561
##★	8562
##01	8563
txt	8564
102	8565
##ba	8566
dna	8567
from	8568
post	8569
mini	8570
ar	8571
taiwan	8572
john	8573
##ga	8574
privacy	8575
agoda	8576
##13	8577
##ny	8578
word	8579
##24	8580
##22	8581
##by	8582
##ur	8583
##hz	8584
1982	8585
##ang	8586
265	8587
cookie	8588
netscape	8589
108	8590
##ka	8591
##～	8592
##ad	8593
house	8594
share	8595
note	8596
ibm	8597
code	8598
hello	8599
nike	8600
sim	8601
survey	8602
##016	8603
1979	8604
1950	8605
wikia	8606
##32	8607
##017	8608
5g	8609
cbc	8610
##tor	8611
##kg	8612
1983	8613
##rt	8614
##14	8615
campaign	8616
store	8617
2500	8618
os	8619
##ct	8620
##ts	8621
##°	8622
170	8623
api	8624
##ns	8625
365	8626
excel	8627
##な	8628
##ao	8629
##ら	8630
##し	8631
～～	8632
##nd	8633
university	8634
163	8635
には	8636
518	8637
##70	8638
##ya	8639
##il	8640
##25	8641
pierre	8642
ipo	8643
0020	8644
897	8645
##23	8646
hotels	8647
##ian	8648
のお	8649
125	8650
years	8651
6606	8652
##ers	8653
##26	8654
high	8655
##day	8656
time	8657
##ay	8658
bug	8659
##line	8660
##く	8661
##す	8662
##be	8663
xp	8664
talk2yam	8665
yamservice	8666
10000	8667
coco	8668
##dy	8669
sony	8670
##ies	8671
1978	8672
microsoft	8673
david	8674
people	8675
##ha	8676
1960	8677
instagram	8678
intel	8679
その	8680
##ot	8681
iso	8682
1981	8683
##va	8684
115	8685
##mo	8686
##land	8687
xxx	8688
man	8689
co	8690
ltxsw	8691
##ation	8692
baby	8693
220	8694
##pa	8695
##ol	8696
1945	8697
7000	8698
tag	8699
450	8700
##ue	8701
msn	8702
##31	8703
oppo	8704
##ト	8705
##ca	8706
control	8707
##om	8708
st	8709
chrome	8710
##ure	8711
##ん	8712
be	8713
##き	8714
lol	8715
##19	8716
した	8717
##bo	8718
240	8719
lady	8720
##100	8721
##way	8722
##から	8723
4600	8724
##ko	8725
##do	8726
##un	8727
4s	8728
corporation	8729
168	8730
##ni	8731
herme	8732
##28	8733
ｃｐ	8734
978	8735
##up	8736
##06	8737
ui	8738
##ds	8739
ppt	8740
admin	8741
three	8742
します	8743
bbc	8744
re	8745
128	8746
##48	8747
ca	8748
##015	8749
##35	8750
hp	8751
##ee	8752
tpp	8753
##た	8754
##ive	8755
××	8756
root	8757
##cc	8758
##ました	8759
##ble	8760
##ity	8761
adobe	8762
park	8763
114	8764
et	8765
oled	8766
city	8767
##ex	8768
##ler	8769
##ap	8770
china	8771
##book	8772
20000	8773
view	8774
##ice	8775
global	8776
##km	8777
your	8778
hong	8779
##mg	8780
out	8781
##ms	8782
ng	8783
ebay	8784
##29	8785
menu	8786
ubuntu	8787
##cy	8788
rom	8789
##view	8790
open	8791
ktv	8792
do	8793
server	8794
##lo	8795
if	8796
english	8797
##ね	8798
##５	8799
##oo	8800
1600	8801
##02	8802
step1	8803
kong	8804
club	8805
135	8806
july	8807
inc	8808
1976	8809
mr	8810
hi	8811
##net	8812
touch	8813
##ls	8814
##ii	8815
michael	8816
lcd	8817
##05	8818
##33	8819
phone	8820
james	8821
step2	8822
1300	8823
ios9	8824
##box	8825
dc	8826
##２	8827
##ley	8828
samsung	8829
111	8830
280	8831
pokemon	8832
css	8833
##ent	8834
##les	8835
いいえ	8836
##１	8837
s8	8838
atom	8839
play	8840
bmw	8841
##said	8842
sa	8843
etf	8844
ctrl	8845
♥yoyo♥	8846
##55	8847
2025	8848
##2014	8849
##66	8850
adidas	8851
amazon	8852
1958	8853
##ber	8854
##ner	8855
visa	8856
##77	8857
##der	8858
1800	8859
connectivity	8860
##hi	8861
firefox	8862
109	8863
118	8864
hr	8865
so	8866
style	8867
mark	8868
pop	8869
ol	8870
skip	8871
1975	8872
as	8873
##27	8874
##ir	8875
##61	8876
190	8877
mba	8878
##う	8879
##ai	8880
le	8881
##ver	8882
1900	8883
cafe2017	8884
lte	8885
super	8886
113	8887
129	8888
##ron	8889
amd	8890
like	8891
##☆	8892
are	8893
##ster	8894
we	8895
##sk	8896
paul	8897
data	8898
international	8899
##ft	8900
longchamp	8901
ssd	8902
good	8903
##ート	8904
##ti	8905
reply	8906
##my	8907
↓↓↓	8908
apr	8909
star	8910
##ker	8911
source	8912
136	8913
js	8914
112	8915
get	8916
force	8917
photo	8918
##one	8919
126	8920
##2013	8921
##ow	8922
link	8923
bbs	8924
1972	8925
goods	8926
##lin	8927
python	8928
119	8929
##ip	8930
game	8931
##ics	8932
##ません	8933
blue	8934
##●	8935
520	8936
##45	8937
page	8938
itunes	8939
##03	8940
1955	8941
260	8942
1968	8943
gt	8944
gif	8945
618	8946
##ff	8947
##47	8948
group	8949
くたさい	8950
about	8951
bar	8952
ganji	8953
##nce	8954
music	8955
lee	8956
not	8957
1977	8958
1971	8959
1973	8960
##per	8961
an	8962
faq	8963
comment	8964
##って	8965
days	8966
##ock	8967
116	8968
##bs	8969
1974	8970
1969	8971
v1	8972
player	8973
1956	8974
xbox	8975
sql	8976
fm	8977
f1	8978
139	8979
##ah	8980
210	8981
##lv	8982
##mp	8983
##000	8984
melody	8985
1957	8986
##３	8987
550	8988
17life	8989
199	8990
1966	8991
xml	8992
market	8993
##au	8994
##71	8995
999	8996
##04	8997
what	8998
gl	8999
##95	9000
##age	9001
tips	9002
##68	9003
book	9004
##ting	9005
mysql	9006
can	9007
1959	9008
230	9009
##ung	9010
wonderland	9011
watch	9012
10℃	9013
##ction	9014
9000	9015
mar	9016
mobile	9017
1946	9018
1962	9019
article	9020
##db	9021
part	9022
▲top	9023
party	9024
って	9025
1967	9026
1964	9027
1948	9028
##07	9029
##ore	9030
##op	9031
この	9032
dj	9033
##78	9034
##38	9035
010	9036
main	9037
225	9038
1965	9039
##ong	9040
art	9041
320	9042
ad	9043
134	9044
020	9045
##73	9046
117	9047
pm2	9048
japan	9049
228	9050
##08	9051
ts	9052
1963	9053
##ica	9054
der	9055
sm	9056
##36	9057
2019	9058
##wa	9059
ct	9060
##７	9061
##や	9062
##64	9063
1937	9064
homemesh	9065
search	9066
##85	9067
##れは	9068
##tv	9069
##di	9070
macbook	9071
##９	9072
##くたさい	9073
service	9074
##♥	9075
type	9076
った	9077
750	9078
##ier	9079
##si	9080
##75	9081
##います	9082
##ok	9083
best	9084
##ット	9085
goris	9086
lock	9087
##った	9088
cf	9089
3m	9090
big	9091
##ut	9092
ftp	9093
carol	9094
##vi	9095
１０	9096
1961	9097
happy	9098
sd	9099
##ac	9100
122	9101
anti	9102
pe	9103
cnn	9104
iii	9105
1920	9106
138	9107
##ラ	9108
1940	9109
esp	9110
jan	9111
tags	9112
##98	9113
##51	9114
august	9115
vol	9116
##86	9117
154	9118
##™	9119
##fs	9120
##れ	9121
##sion	9122
design	9123
ac	9124
##ム	9125
press	9126
jordan	9127
ppp	9128
that	9129
key	9130
check	9131
##６	9132
##tt	9133
##㎡	9134
1080p	9135
##lt	9136
power	9137
##42	9138
1952	9139
##bc	9140
vivi	9141
##ック	9142
he	9143
133	9144
121	9145
jpg	9146
##rry	9147
201	9148
175	9149
3500	9150
1947	9151
nb	9152
##ted	9153
##rn	9154
しています	9155
1954	9156
usd	9157
##t00	9158
master	9159
##ンク	9160
001	9161
model	9162
##58	9163
al	9164
##09	9165
1953	9166
##34	9167
ram	9168
goo	9169
ても	9170
##ui	9171
127	9172
1930	9173
red	9174
##ary	9175
rpg	9176
item	9177
##pm	9178
##41	9179
270	9180
##za	9181
project	9182
##2012	9183
hot	9184
td	9185
blogabstract	9186
##ger	9187
##62	9188
650	9189
##44	9190
gr2	9191
##します	9192
##ｍ	9193
black	9194
electronic	9195
nfc	9196
year	9197
asus	9198
また	9199
html5	9200
cindy	9201
##hd	9202
m3	9203
132	9204
esc	9205
##od	9206
booking	9207
##53	9208
fed	9209
tvb	9210
##81	9211
##ina	9212
mit	9213
165	9214
##いる	9215
chan	9216
192	9217
distribution	9218
next	9219
になる	9220
peter	9221
bios	9222
steam	9223
cm	9224
1941	9225
にも	9226
pk10	9227
##ix	9228
##65	9229
##91	9230
dec	9231
nasa	9232
##ana	9233
icecat	9234
00z	9235
b1	9236
will	9237
##46	9238
li	9239
se	9240
##ji	9241
##み	9242
##ard	9243
oct	9244
##ain	9245
jp	9246
##ze	9247
##bi	9248
cio	9249
##56	9250
smart	9251
h5	9252
##39	9253
##port	9254
curve	9255
vpn	9256
##nm	9257
##dia	9258
utc	9259
##あり	9260
12345678910	9261
##52	9262
rmvb	9263
chanel	9264
a4	9265
miss	9266
##and	9267
##im	9268
media	9269
who	9270
##63	9271
she	9272
girl	9273
5s	9274
124	9275
vera	9276
##して	9277
class	9278
vivo	9279
king	9280
##フ	9281
##ei	9282
national	9283
ab	9284
1951	9285
5cm	9286
888	9287
145	9288
ipod	9289
ap	9290
1100	9291
5mm	9292
211	9293
ms	9294
2756	9295
##69	9296
mp4	9297
msci	9298
##po	9299
##89	9300
131	9301
mg	9302
index	9303
380	9304
##bit	9305
##out	9306
##zz	9307
##97	9308
##67	9309
158	9310
apec	9311
##８	9312
photoshop	9313
opec	9314
￥799	9315
ては	9316
##96	9317
##tes	9318
##ast	9319
2g	9320
○○	9321
##ール	9322
￥2899	9323
##ling	9324
##よ	9325
##ory	9326
1938	9327
##ical	9328
kitty	9329
content	9330
##43	9331
step3	9332
##cn	9333
win8	9334
155	9335
vc	9336
1400	9337
iphone7	9338
robert	9339
##した	9340
tcl	9341
137	9342
beauty	9343
##87	9344
en	9345
dollars	9346
##ys	9347
##oc	9348
step	9349
pay	9350
yy	9351
a1	9352
##2011	9353
##lly	9354
##ks	9355
##♪	9356
1939	9357
188	9358
download	9359
1944	9360
sep	9361
exe	9362
ph	9363
います	9364
school	9365
gb	9366
center	9367
pr	9368
street	9369
##board	9370
uv	9371
##37	9372
##lan	9373
winrar	9374
##que	9375
##ua	9376
##com	9377
1942	9378
1936	9379
480	9380
gpu	9381
##４	9382
ettoday	9383
fu	9384
tom	9385
##54	9386
##ren	9387
##via	9388
149	9389
##72	9390
b2b	9391
144	9392
##79	9393
##tch	9394
rose	9395
arm	9396
mb	9397
##49	9398
##ial	9399
##nn	9400
nvidia	9401
step4	9402
mvp	9403
00㎡	9404
york	9405
156	9406
##イ	9407
how	9408
cpi	9409
591	9410
2765	9411
gov	9412
kg	9413
joe	9414
##xx	9415
mandy	9416
pa	9417
##ser	9418
copyright	9419
fashion	9420
1935	9421
don	9422
##け	9423
ecu	9424
##ist	9425
##art	9426
erp	9427
wap	9428
have	9429
##lm	9430
talk	9431
##ek	9432
##ning	9433
##if	9434
ch	9435
##ite	9436
video	9437
1943	9438
cs	9439
san	9440
iot	9441
look	9442
##84	9443
##2010	9444
##ku	9445
october	9446
##ux	9447
trump	9448
##hs	9449
##ide	9450
box	9451
141	9452
first	9453
##ins	9454
april	9455
##ight	9456
##83	9457
185	9458
angel	9459
protected	9460
aa	9461
151	9462
162	9463
x1	9464
m2	9465
##fe	9466
##×	9467
##ho	9468
size	9469
143	9470
min	9471
ofo	9472
fun	9473
gomaji	9474
ex	9475
hdmi	9476
food	9477
dns	9478
march	9479
chris	9480
kevin	9481
##のか	9482
##lla	9483
##pp	9484
##ec	9485
ag	9486
ems	9487
6s	9488
720p	9489
##rm	9490
##ham	9491
off	9492
##92	9493
asp	9494
team	9495
fandom	9496
ed	9497
299	9498
▌♥	9499
##ell	9500
info	9501
されています	9502
##82	9503
sina	9504
4066	9505
161	9506
##able	9507
##ctor	9508
330	9509
399	9510
315	9511
dll	9512
rights	9513
ltd	9514
idc	9515
jul	9516
3kg	9517
1927	9518
142	9519
ma	9520
surface	9521
##76	9522
##ク	9523
～～～	9524
304	9525
mall	9526
eps	9527
146	9528
green	9529
##59	9530
map	9531
space	9532
donald	9533
v2	9534
sodu	9535
##light	9536
1931	9537
148	9538
1700	9539
まて	9540
310	9541
reserved	9542
htm	9543
##han	9544
##57	9545
2d	9546
178	9547
mod	9548
##ise	9549
##tions	9550
152	9551
ti	9552
##shi	9553
doc	9554
1933	9555
icp	9556
055	9557
wang	9558
##ram	9559
shopping	9560
aug	9561
##pi	9562
##well	9563
now	9564
wam	9565
b2	9566
からお	9567
##hu	9568
236	9569
1928	9570
##gb	9571
266	9572
f2	9573
##93	9574
153	9575
mix	9576
##ef	9577
##uan	9578
bwl	9579
##plus	9580
##res	9581
core	9582
##ess	9583
tea	9584
5℃	9585
hktvmall	9586
nhk	9587
##ate	9588
list	9589
##ese	9590
301	9591
feb	9592
4m	9593
inn	9594
ての	9595
nov	9596
159	9597
12345	9598
daniel	9599
##ci	9600
pass	9601
##bet	9602
##nk	9603
coffee	9604
202	9605
ssl	9606
airbnb	9607
##ute	9608
fbi	9609
woshipm	9610
skype	9611
ea	9612
cg	9613
sp	9614
##fc	9615
##www	9616
yes	9617
edge	9618
alt	9619
007	9620
##94	9621
fpga	9622
##ght	9623
##gs	9624
iso9001	9625
さい	9626
##ile	9627
##wood	9628
##uo	9629
image	9630
lin	9631
icon	9632
american	9633
##em	9634
1932	9635
set	9636
says	9637
##king	9638
##tive	9639
blogger	9640
##74	9641
なと	9642
256	9643
147	9644
##ox	9645
##zy	9646
##red	9647
##ium	9648
##lf	9649
nokia	9650
claire	9651
##リ	9652
##ding	9653
november	9654
lohas	9655
##500	9656
##tic	9657
##マ	9658
##cs	9659
##ある	9660
##che	9661
##ire	9662
##gy	9663
##ult	9664
db	9665
january	9666
win	9667
##カ	9668
166	9669
road	9670
ptt	9671
##ま	9672
##つ	9673
198	9674
##fa	9675
##mer	9676
anna	9677
pchome	9678
はい	9679
udn	9680
ef	9681
420	9682
##time	9683
##tte	9684
2030	9685
##ア	9686
g20	9687
white	9688
かかります	9689
1929	9690
308	9691
garden	9692
eleven	9693
di	9694
##おります	9695
chen	9696
309b	9697
777	9698
172	9699
young	9700
cosplay	9701
ちてない	9702
4500	9703
bat	9704
##123	9705
##tra	9706
##ては	9707
kindle	9708
npc	9709
steve	9710
etc	9711
##ern	9712
##｜	9713
call	9714
xperia	9715
ces	9716
travel	9717
sk	9718
s7	9719
##ous	9720
1934	9721
##int	9722
みいたたけます	9723
183	9724
edu	9725
file	9726
cho	9727
qr	9728
##car	9729
##our	9730
186	9731
##ant	9732
##ｄ	9733
eric	9734
1914	9735
rends	9736
##jo	9737
##する	9738
mastercard	9739
##2000	9740
kb	9741
##min	9742
290	9743
##ino	9744
vista	9745
##ris	9746
##ud	9747
jack	9748
2400	9749
##set	9750
169	9751
pos	9752
1912	9753
##her	9754
##ou	9755
taipei	9756
しく	9757
205	9758
beta	9759
##ませんか	9760
232	9761
##fi	9762
express	9763
255	9764
body	9765
##ill	9766
aphojoy	9767
user	9768
december	9769
meiki	9770
##ick	9771
tweet	9772
richard	9773
##av	9774
##ᆫ	9775
iphone6	9776
##dd	9777
ちてすか	9778
views	9779
##mark	9780
321	9781
pd	9782
##００	9783
times	9784
##▲	9785
level	9786
##ash	9787
10g	9788
point	9789
5l	9790
##ome	9791
208	9792
koreanmall	9793
##ak	9794
george	9795
q2	9796
206	9797
wma	9798
tcp	9799
##200	9800
スタッフ	9801
full	9802
mlb	9803
##lle	9804
##watch	9805
tm	9806
run	9807
179	9808
911	9809
smith	9810
business	9811
##und	9812
1919	9813
color	9814
##tal	9815
222	9816
171	9817
##less	9818
moon	9819
4399	9820
##rl	9821
update	9822
pcb	9823
shop	9824
499	9825
157	9826
little	9827
なし	9828
end	9829
##mhz	9830
van	9831
dsp	9832
easy	9833
660	9834
##house	9835
##key	9836
history	9837
##ｏ	9838
oh	9839
##001	9840
##hy	9841
##web	9842
oem	9843
let	9844
was	9845
##2009	9846
##gg	9847
review	9848
##wan	9849
182	9850
##°c	9851
203	9852
uc	9853
title	9854
##val	9855
united	9856
233	9857
2021	9858
##ons	9859
doi	9860
trivago	9861
overdope	9862
sbs	9863
##ance	9864
##ち	9865
grand	9866
special	9867
573032185	9868
imf	9869
216	9870
wx17house	9871
##so	9872
##ーム	9873
audi	9874
##he	9875
london	9876
william	9877
##rp	9878
##ake	9879
science	9880
beach	9881
cfa	9882
amp	9883
ps4	9884
880	9885
##800	9886
##link	9887
##hp	9888
crm	9889
ferragamo	9890
bell	9891
make	9892
##eng	9893
195	9894
under	9895
zh	9896
photos	9897
2300	9898
##style	9899
##ント	9900
via	9901
176	9902
da	9903
##gi	9904
company	9905
i7	9906
##ray	9907
thomas	9908
370	9909
ufo	9910
i5	9911
##max	9912
plc	9913
ben	9914
back	9915
research	9916
8g	9917
173	9918
mike	9919
##pc	9920
##ッフ	9921
september	9922
189	9923
##ace	9924
vps	9925
february	9926
167	9927
pantos	9928
wp	9929
lisa	9930
1921	9931
★★	9932
jquery	9933
night	9934
long	9935
offer	9936
##berg	9937
##news	9938
1911	9939
##いて	9940
ray	9941
fks	9942
wto	9943
せます	9944
over	9945
164	9946
340	9947
##all	9948
##rus	9949
1924	9950
##888	9951
##works	9952
blogtitle	9953
loftpermalink	9954
##→	9955
187	9956
martin	9957
test	9958
ling	9959
km	9960
##め	9961
15000	9962
fda	9963
v3	9964
##ja	9965
##ロ	9966
ｗedding	9967
かある	9968
outlet	9969
family	9970
##ea	9971
をこ	9972
##top	9973
story	9974
##ness	9975
salvatore	9976
##lu	9977
204	9978
swift	9979
215	9980
room	9981
している	9982
oracle	9983
##ul	9984
1925	9985
sam	9986
b2c	9987
week	9988
pi	9989
rock	9990
##のは	9991
##ａ	9992
##けと	9993
##ean	9994
##300	9995
##gle	9996
cctv	9997
after	9998
chinese	9999
##back	10000
powered	10001
x2	10002
##tan	10003
1918	10004
##nes	10005
##イン	10006
canon	10007
only	10008
181	10009
##zi	10010
##las	10011
say	10012
##oe	10013
184	10014
##sd	10015
221	10016
##bot	10017
##world	10018
##zo	10019
sky	10020
made	10021
top100	10022
just	10023
1926	10024
pmi	10025
802	10026
234	10027
gap	10028
##vr	10029
177	10030
les	10031
174	10032
▲topoct	10033
ball	10034
vogue	10035
vi	10036
ing	10037
ofweek	10038
cos	10039
##list	10040
##ort	10041
▲topmay	10042
##なら	10043
##lon	10044
として	10045
last	10046
##tc	10047
##of	10048
##bus	10049
##gen	10050
real	10051
eva	10052
##コ	10053
a3	10054
nas	10055
##lie	10056
##ria	10057
##coin	10058
##bt	10059
▲topapr	10060
his	10061
212	10062
cat	10063
nata	10064
vive	10065
health	10066
⋯⋯	10067
drive	10068
sir	10069
▲topmar	10070
du	10071
cup	10072
##カー	10073
##ook	10074
##よう	10075
##sy	10076
alex	10077
msg	10078
tour	10079
しました	10080
3ce	10081
##word	10082
193	10083
ebooks	10084
r8	10085
block	10086
318	10087
##より	10088
2200	10089
nice	10090
pvp	10091
207	10092
months	10093
1905	10094
rewards	10095
##ther	10096
1917	10097
0800	10098
##xi	10099
##チ	10100
##sc	10101
micro	10102
850	10103
gg	10104
blogfp	10105
op	10106
1922	10107
daily	10108
m1	10109
264	10110
true	10111
##bb	10112
ml	10113
##tar	10114
##のお	10115
##ky	10116
anthony	10117
196	10118
253	10119
##yo	10120
state	10121
218	10122
##ara	10123
##aa	10124
##rc	10125
##tz	10126
##ston	10127
より	10128
gear	10129
##eo	10130
##ade	10131
ge	10132
see	10133
1923	10134
##win	10135
##ura	10136
ss	10137
heart	10138
##den	10139
##ita	10140
down	10141
##sm	10142
el	10143
png	10144
2100	10145
610	10146
rakuten	10147
whatsapp	10148
bay	10149
dream	10150
add	10151
##use	10152
680	10153
311	10154
pad	10155
gucci	10156
mpv	10157
##ode	10158
##fo	10159
island	10160
▲topjun	10161
##▼	10162
223	10163
jason	10164
214	10165
chicago	10166
##❤	10167
しの	10168
##hone	10169
io	10170
##れる	10171
##ことか	10172
sogo	10173
be2	10174
##ology	10175
990	10176
cloud	10177
vcd	10178
##con	10179
2～3	10180
##ford	10181
##joy	10182
##kb	10183
##こさいます	10184
##rade	10185
but	10186
##ach	10187
docker	10188
##ful	10189
rfid	10190
ul	10191
##ase	10192
hit	10193
ford	10194
##star	10195
580	10196
##○	10197
１１	10198
a2	10199
sdk	10200
reading	10201
edited	10202
##are	10203
cmos	10204
##mc	10205
238	10206
siri	10207
light	10208
##ella	10209
##ため	10210
bloomberg	10211
##read	10212
pizza	10213
##ison	10214
jimmy	10215
##vm	10216
college	10217
node	10218
journal	10219
ba	10220
18k	10221
##play	10222
245	10223
##cer	10224
２０	10225
magic	10226
##yu	10227
191	10228
jump	10229
288	10230
tt	10231
##ings	10232
asr	10233
##lia	10234
3200	10235
step5	10236
network	10237
##cd	10238
mc	10239
いします	10240
1234	10241
pixstyleme	10242
273	10243
##600	10244
2800	10245
money	10246
★★★★★	10247
1280	10248
１２	10249
430	10250
bl	10251
みの	10252
act	10253
##tus	10254
tokyo	10255
##rial	10256
##life	10257
emba	10258
##ae	10259
saas	10260
tcs	10261
##rk	10262
##wang	10263
summer	10264
##sp	10265
ko	10266
##ving	10267
390	10268
premium	10269
##その	10270
netflix	10271
##ヒ	10272
uk	10273
mt	10274
##lton	10275
right	10276
frank	10277
two	10278
209	10279
える	10280
##ple	10281
##cal	10282
021	10283
##んな	10284
##sen	10285
##ville	10286
hold	10287
nexus	10288
dd	10289
##ius	10290
てお	10291
##mah	10292
##なく	10293
tila	10294
zero	10295
820	10296
ce	10297
##tin	10298
resort	10299
##ws	10300
charles	10301
old	10302
p10	10303
5d	10304
report	10305
##360	10306
##ru	10307
##には	10308
bus	10309
vans	10310
lt	10311
##est	10312
pv	10313
##レ	10314
links	10315
rebecca	10316
##ツ	10317
##dm	10318
azure	10319
##365	10320
きな	10321
limited	10322
bit	10323
4gb	10324
##mon	10325
1910	10326
moto	10327
##eam	10328
213	10329
1913	10330
var	10331
eos	10332
なとの	10333
226	10334
blogspot	10335
された	10336
699	10337
e3	10338
dos	10339
dm	10340
fc	10341
##ments	10342
##ik	10343
##kw	10344
boy	10345
##bin	10346
##ata	10347
960	10348
er	10349
##せ	10350
219	10351
##vin	10352
##tu	10353
##ula	10354
194	10355
##∥	10356
station	10357
##ろ	10358
##ature	10359
835	10360
files	10361
zara	10362
hdr	10363
top10	10364
nature	10365
950	10366
magazine	10367
s6	10368
marriott	10369
##シ	10370
avira	10371
case	10372
##っと	10373
tab	10374
##ran	10375
tony	10376
##home	10377
oculus	10378
im	10379
##ral	10380
jean	10381
saint	10382
cry	10383
307	10384
rosie	10385
##force	10386
##ini	10387
ice	10388
##bert	10389
のある	10390
##nder	10391
##mber	10392
pet	10393
2600	10394
##◆	10395
plurk	10396
▲topdec	10397
##sis	10398
00kg	10399
▲topnov	10400
720	10401
##ence	10402
tim	10403
##ω	10404
##nc	10405
##ても	10406
##name	10407
log	10408
ips	10409
great	10410
ikea	10411
malaysia	10412
unix	10413
##イト	10414
3600	10415
##ncy	10416
##nie	10417
12000	10418
akb48	10419
##ye	10420
##oid	10421
404	10422
##chi	10423
##いた	10424
oa	10425
xuehai	10426
##1000	10427
##orm	10428
##rf	10429
275	10430
さん	10431
##ware	10432
##リー	10433
980	10434
ho	10435
##pro	10436
text	10437
##era	10438
560	10439
bob	10440
227	10441
##ub	10442
##2008	10443
8891	10444
scp	10445
avi	10446
##zen	10447
2022	10448
mi	10449
wu	10450
museum	10451
qvod	10452
apache	10453
lake	10454
jcb	10455
▲topaug	10456
★★★	10457
ni	10458
##hr	10459
hill	10460
302	10461
ne	10462
weibo	10463
490	10464
ruby	10465
##ーシ	10466
##ヶ	10467
##row	10468
4d	10469
▲topjul	10470
iv	10471
##ish	10472
github	10473
306	10474
mate	10475
312	10476
##スト	10477
##lot	10478
##ane	10479
andrew	10480
のハイト	10481
##tina	10482
t1	10483
rf	10484
ed2k	10485
##vel	10486
##900	10487
way	10488
final	10489
りの	10490
ns	10491
5a	10492
705	10493
197	10494
##メ	10495
sweet	10496
bytes	10497
##ene	10498
▲topjan	10499
231	10500
##cker	10501
##2007	10502
##px	10503
100g	10504
topapp	10505
229	10506
helpapp	10507
rs	10508
low	10509
14k	10510
g4g	10511
care	10512
630	10513
ldquo	10514
あり	10515
##fork	10516
leave	10517
rm	10518
edition	10519
##gan	10520
##zon	10521
##qq	10522
▲topsep	10523
##google	10524
##ism	10525
gold	10526
224	10527
explorer	10528
##zer	10529
toyota	10530
category	10531
select	10532
visual	10533
##labels	10534
restaurant	10535
##md	10536
posts	10537
s1	10538
##ico	10539
もっと	10540
angelababy	10541
123456	10542
217	10543
sports	10544
s3	10545
mbc	10546
1915	10547
してくたさい	10548
shell	10549
x86	10550
candy	10551
##new	10552
kbs	10553
face	10554
xl	10555
470	10556
##here	10557
4a	10558
swissinfo	10559
v8	10560
▲topfeb	10561
dram	10562
##ual	10563
##vice	10564
3a	10565
##wer	10566
sport	10567
q1	10568
ios10	10569
public	10570
int	10571
card	10572
##ｃ	10573
ep	10574
au	10575
rt	10576
##れた	10577
1080	10578
bill	10579
##mll	10580
kim	10581
３０	10582
460	10583
wan	10584
##uk	10585
##ミ	10586
x3	10587
298	10588
0t	10589
scott	10590
##ming	10591
239	10592
e5	10593
##3d	10594
h7n9	10595
worldcat	10596
brown	10597
##あります	10598
##vo	10599
##led	10600
##580	10601
##ax	10602
249	10603
410	10604
##ert	10605
paris	10606
##～6	10607
polo	10608
925	10609
##lr	10610
599	10611
##ナ	10612
capital	10613
##hing	10614
bank	10615
cv	10616
1g	10617
##chat	10618
##ｓ	10619
##たい	10620
adc	10621
##ule	10622
2m	10623
##ｅ	10624
digital	10625
hotmail	10626
268	10627
##pad	10628
870	10629
bbq	10630
quot	10631
##ring	10632
before	10633
wali	10634
##まて	10635
mcu	10636
2k	10637
2b	10638
という	10639
costco	10640
316	10641
north	10642
333	10643
switch	10644
##city	10645
##ｐ	10646
philips	10647
##mann	10648
management	10649
panasonic	10650
##cl	10651
##vd	10652
##ping	10653
##rge	10654
alice	10655
##lk	10656
##ましょう	10657
css3	10658
##ney	10659
vision	10660
alpha	10661
##ular	10662
##400	10663
##tter	10664
lz	10665
にお	10666
##ありません	10667
mode	10668
gre	10669
1916	10670
pci	10671
##tm	10672
237	10673
1～2	10674
##yan	10675
##そ	10676
について	10677
##let	10678
##キ	10679
work	10680
war	10681
coach	10682
ah	10683
mary	10684
##ᅵ	10685
huang	10686
##pt	10687
a8	10688
pt	10689
follow	10690
##berry	10691
1895	10692
##ew	10693
a5	10694
ghost	10695
##ション	10696
##wn	10697
##og	10698
south	10699
##code	10700
girls	10701
##rid	10702
action	10703
villa	10704
git	10705
r11	10706
table	10707
games	10708
##cket	10709
error	10710
##anonymoussaid	10711
##ag	10712
here	10713
##ame	10714
##gc	10715
qa	10716
##■	10717
##lis	10718
gmp	10719
##gin	10720
vmalife	10721
##cher	10722
yu	10723
wedding	10724
##tis	10725
demo	10726
dragon	10727
530	10728
soho	10729
social	10730
bye	10731
##rant	10732
river	10733
orz	10734
acer	10735
325	10736
##↑	10737
##ース	10738
##ats	10739
261	10740
del	10741
##ven	10742
440	10743
ups	10744
##ように	10745
##ター	10746
305	10747
value	10748
macd	10749
yougou	10750
##dn	10751
661	10752
##ano	10753
ll	10754
##urt	10755
##rent	10756
continue	10757
script	10758
##wen	10759
##ect	10760
paper	10761
263	10762
319	10763
shift	10764
##chel	10765
##フト	10766
##cat	10767
258	10768
x5	10769
fox	10770
243	10771
##さん	10772
car	10773
aaa	10774
##blog	10775
loading	10776
##yn	10777
##tp	10778
kuso	10779
799	10780
si	10781
sns	10782
イカせるテンマ	10783
ヒンクテンマ3	10784
rmb	10785
vdc	10786
forest	10787
central	10788
prime	10789
help	10790
ultra	10791
##rmb	10792
##ような	10793
241	10794
square	10795
688	10796
##しい	10797
のないフロクに	10798
##field	10799
##reen	10800
##ors	10801
##ju	10802
c1	10803
start	10804
510	10805
##air	10806
##map	10807
cdn	10808
##wo	10809
cba	10810
stephen	10811
m8	10812
100km	10813
##get	10814
opera	10815
##base	10816
##ood	10817
vsa	10818
com™	10819
##aw	10820
##ail	10821
251	10822
なのて	10823
count	10824
t2	10825
##ᅡ	10826
##een	10827
2700	10828
hop	10829
##gp	10830
vsc	10831
tree	10832
##eg	10833
##ose	10834
816	10835
285	10836
##ories	10837
##shop	10838
alphago	10839
v4	10840
1909	10841
simon	10842
##ᆼ	10843
fluke62max	10844
zip	10845
スホンサー	10846
##sta	10847
louis	10848
cr	10849
bas	10850
##～10	10851
bc	10852
##yer	10853
hadoop	10854
##ube	10855
##wi	10856
1906	10857
0755	10858
hola	10859
##low	10860
place	10861
centre	10862
5v	10863
d3	10864
##fer	10865
252	10866
##750	10867
##media	10868
281	10869
540	10870
0l	10871
exchange	10872
262	10873
series	10874
##ハー	10875
##san	10876
eb	10877
##bank	10878
##ｋ	10879
q3	10880
##nge	10881
##mail	10882
take	10883
##lp	10884
259	10885
1888	10886
client	10887
east	10888
cache	10889
event	10890
vincent	10891
##ールを	10892
きを	10893
##nse	10894
sui	10895
855	10896
adchoice	10897
##и	10898
##stry	10899
##なたの	10900
246	10901
##zone	10902
ga	10903
apps	10904
sea	10905
##ab	10906
248	10907
cisco	10908
##タ	10909
##rner	10910
kymco	10911
##care	10912
dha	10913
##pu	10914
##yi	10915
minkoff	10916
royal	10917
p1	10918
への	10919
annie	10920
269	10921
collection	10922
kpi	10923
playstation	10924
257	10925
になります	10926
866	10927
bh	10928
##bar	10929
queen	10930
505	10931
radio	10932
1904	10933
andy	10934
armani	10935
##xy	10936
manager	10937
iherb	10938
##ery	10939
##share	10940
spring	10941
raid	10942
johnson	10943
1908	10944
##ob	10945
volvo	10946
hall	10947
##ball	10948
v6	10949
our	10950
taylor	10951
##hk	10952
bi	10953
242	10954
##cp	10955
kate	10956
bo	10957
water	10958
technology	10959
##rie	10960
サイトは	10961
277	10962
##ona	10963
##sl	10964
hpv	10965
303	10966
gtx	10967
hip	10968
rdquo	10969
jayz	10970
stone	10971
##lex	10972
##rum	10973
namespace	10974
##やり	10975
620	10976
##ale	10977
##atic	10978
des	10979
##erson	10980
##ql	10981
##ves	10982
##type	10983
enter	10984
##この	10985
##てきます	10986
d2	10987
##168	10988
##mix	10989
##bian	10990
との	10991
a9	10992
jj	10993
ky	10994
##lc	10995
access	10996
movie	10997
##hc	10998
リストに	10999
tower	11000
##ration	11001
##mit	11002
ます	11003
##nch	11004
ua	11005
tel	11006
prefix	11007
##o2	11008
1907	11009
##point	11010
1901	11011
ott	11012
～10	11013
##http	11014
##ury	11015
baidu	11016
##ink	11017
member	11018
##logy	11019
bigbang	11020
nownews	11021
##js	11022
##shot	11023
##tb	11024
##こと	11025
247	11026
eba	11027
##tics	11028
##lus	11029
ける	11030
v5	11031
spark	11032
##ama	11033
there	11034
##ions	11035
god	11036
##lls	11037
##down	11038
hiv	11039
##ress	11040
burberry	11041
day2	11042
##kv	11043
◆◆	11044
jeff	11045
related	11046
film	11047
edit	11048
joseph	11049
283	11050
##ark	11051
cx	11052
32gb	11053
order	11054
g9	11055
30000	11056
##ans	11057
##tty	11058
s5	11059
##bee	11060
かあります	11061
thread	11062
xr	11063
buy	11064
sh	11065
005	11066
land	11067
spotify	11068
mx	11069
##ari	11070
276	11071
##verse	11072
×email	11073
sf	11074
why	11075
##ことて	11076
244	11077
7headlines	11078
nego	11079
sunny	11080
dom	11081
exo	11082
401	11083
666	11084
positioning	11085
fit	11086
rgb	11087
##tton	11088
278	11089
kiss	11090
alexa	11091
adam	11092
lp	11093
みリストを	11094
##ｇ	11095
mp	11096
##ties	11097
##llow	11098
amy	11099
##du	11100
np	11101
002	11102
institute	11103
271	11104
##rth	11105
##lar	11106
2345	11107
590	11108
##des	11109
sidebar	11110
１５	11111
imax	11112
site	11113
##cky	11114
##kit	11115
##ime	11116
##009	11117
season	11118
323	11119
##fun	11120
##ンター	11121
##ひ	11122
gogoro	11123
a7	11124
pu	11125
lily	11126
fire	11127
twd600	11128
##ッセーシを	11129
いて	11130
##vis	11131
30ml	11132
##cture	11133
##をお	11134
information	11135
##オ	11136
close	11137
friday	11138
##くれる	11139
yi	11140
nick	11141
てすか	11142
##tta	11143
##tel	11144
6500	11145
##lock	11146
cbd	11147
economy	11148
254	11149
かお	11150
267	11151
tinker	11152
double	11153
375	11154
8gb	11155
voice	11156
##app	11157
oops	11158
channel	11159
today	11160
985	11161
##right	11162
raw	11163
xyz	11164
##＋	11165
jim	11166
edm	11167
##cent	11168
7500	11169
supreme	11170
814	11171
ds	11172
##its	11173
##asia	11174
dropbox	11175
##てすか	11176
##tti	11177
books	11178
272	11179
100ml	11180
##tle	11181
##ller	11182
##ken	11183
##more	11184
##boy	11185
sex	11186
309	11187
##dom	11188
t3	11189
##ider	11190
##なります	11191
##unch	11192
1903	11193
810	11194
feel	11195
5500	11196
##かった	11197
##put	11198
により	11199
s2	11200
mo	11201
##gh	11202
men	11203
ka	11204
amoled	11205
div	11206
##tr	11207
##n1	11208
port	11209
howard	11210
##tags	11211
ken	11212
dnf	11213
##nus	11214
adsense	11215
##а	11216
ide	11217
##へ	11218
buff	11219
thunder	11220
##town	11221
##ique	11222
has	11223
##body	11224
auto	11225
pin	11226
##erry	11227
tee	11228
てした	11229
295	11230
number	11231
##the	11232
##013	11233
object	11234
psp	11235
cool	11236
udnbkk	11237
16gb	11238
##mic	11239
miui	11240
##tro	11241
most	11242
r2	11243
##alk	11244
##nity	11245
1880	11246
±0	11247
##いました	11248
428	11249
s4	11250
law	11251
version	11252
##oa	11253
n1	11254
sgs	11255
docomo	11256
##tf	11257
##ack	11258
henry	11259
fc2	11260
##ded	11261
##sco	11262
##014	11263
##rite	11264
286	11265
0mm	11266
linkedin	11267
##ada	11268
##now	11269
wii	11270
##ndy	11271
ucbug	11272
##◎	11273
sputniknews	11274
legalminer	11275
##ika	11276
##xp	11277
2gb	11278
##bu	11279
q10	11280
oo	11281
b6	11282
come	11283
##rman	11284
cheese	11285
ming	11286
maker	11287
##gm	11288
nikon	11289
##fig	11290
ppi	11291
kelly	11292
##ります	11293
jchere	11294
てきます	11295
ted	11296
md	11297
003	11298
fgo	11299
tech	11300
##tto	11301
dan	11302
soc	11303
##gl	11304
##len	11305
hair	11306
earth	11307
640	11308
521	11309
img	11310
##pper	11311
##a1	11312
##てきる	11313
##ロク	11314
acca	11315
##ition	11316
##ference	11317
suite	11318
##ig	11319
outlook	11320
##mond	11321
##cation	11322
398	11323
##pr	11324
279	11325
101vip	11326
358	11327
##999	11328
282	11329
64gb	11330
3800	11331
345	11332
airport	11333
##over	11334
284	11335
##おり	11336
jones	11337
##ith	11338
lab	11339
##su	11340
##いるのて	11341
co2	11342
town	11343
piece	11344
##llo	11345
no1	11346
vmware	11347
24h	11348
##qi	11349
focus	11350
reader	11351
##admin	11352
##ora	11353
tb	11354
false	11355
##log	11356
1898	11357
know	11358
lan	11359
838	11360
##ces	11361
f4	11362
##ume	11363
motel	11364
stop	11365
##oper	11366
na	11367
flickr	11368
netcomponents	11369
##af	11370
##─	11371
pose	11372
williams	11373
local	11374
##ound	11375
##cg	11376
##site	11377
##iko	11378
いお	11379
274	11380
5m	11381
gsm	11382
con	11383
##ath	11384
1902	11385
friends	11386
##hip	11387
cell	11388
317	11389
##rey	11390
780	11391
cream	11392
##cks	11393
012	11394
##dp	11395
facebooktwitterpinterestgoogle	11396
sso	11397
324	11398
shtml	11399
song	11400
swiss	11401
##mw	11402
##キンク	11403
lumia	11404
xdd	11405
string	11406
tiffany	11407
522	11408
marc	11409
られた	11410
insee	11411
russell	11412
sc	11413
dell	11414
##ations	11415
ｏｋ	11416
camera	11417
289	11418
##vs	11419
##flow	11420
##late	11421
classic	11422
287	11423
##nter	11424
stay	11425
g1	11426
mtv	11427
512	11428
##ever	11429
##lab	11430
##nger	11431
qe	11432
sata	11433
ryan	11434
d1	11435
50ml	11436
cms	11437
##cing	11438
su	11439
292	11440
3300	11441
editor	11442
296	11443
##nap	11444
security	11445
sunday	11446
association	11447
##ens	11448
##700	11449
##bra	11450
acg	11451
##かり	11452
sofascore	11453
とは	11454
mkv	11455
##ign	11456
jonathan	11457
gary	11458
build	11459
labels	11460
##oto	11461
tesla	11462
moba	11463
qi	11464
gohappy	11465
general	11466
ajax	11467
1024	11468
##かる	11469
サイト	11470
society	11471
##test	11472
##urs	11473
wps	11474
fedora	11475
##ich	11476
mozilla	11477
328	11478
##480	11479
##dr	11480
usa	11481
urn	11482
##lina	11483
##ｒ	11484
grace	11485
##die	11486
##try	11487
##ader	11488
1250	11489
##なり	11490
elle	11491
570	11492
##chen	11493
##ᆯ	11494
price	11495
##ten	11496
uhz	11497
##ough	11498
eq	11499
##hen	11500
states	11501
push	11502
session	11503
balance	11504
wow	11505
506	11506
##cus	11507
##py	11508
when	11509
##ward	11510
##ep	11511
34e	11512
wong	11513
library	11514
prada	11515
##サイト	11516
##cle	11517
running	11518
##ree	11519
313	11520
ck	11521
date	11522
q4	11523
##ctive	11524
##ool	11525
##＞	11526
mk	11527
##ira	11528
##163	11529
388	11530
die	11531
secret	11532
rq	11533
dota	11534
buffet	11535
は１ヶ	11536
e6	11537
##ez	11538
pan	11539
368	11540
ha	11541
##card	11542
##cha	11543
2a	11544
##さ	11545
alan	11546
day3	11547
eye	11548
f3	11549
##end	11550
france	11551
keep	11552
adi	11553
rna	11554
tvbs	11555
##ala	11556
solo	11557
nova	11558
##え	11559
##tail	11560
##ょう	11561
support	11562
##ries	11563
##なる	11564
##ved	11565
base	11566
copy	11567
iis	11568
fps	11569
##ways	11570
hero	11571
hgih	11572
profile	11573
fish	11574
mu	11575
ssh	11576
entertainment	11577
chang	11578
##wd	11579
click	11580
cake	11581
##ond	11582
pre	11583
##tom	11584
kic	11585
pixel	11586
##ov	11587
##fl	11588
product	11589
6a	11590
##pd	11591
dear	11592
##gate	11593
es	11594
yumi	11595
audio	11596
##²	11597
##sky	11598
echo	11599
bin	11600
where	11601
##ture	11602
329	11603
##ape	11604
find	11605
sap	11606
isis	11607
##なと	11608
nand	11609
##101	11610
##load	11611
##ream	11612
band	11613
a6	11614
525	11615
never	11616
##post	11617
festival	11618
50cm	11619
##we	11620
555	11621
guide	11622
314	11623
zenfone	11624
##ike	11625
335	11626
gd	11627
forum	11628
jessica	11629
strong	11630
alexander	11631
##ould	11632
software	11633
allen	11634
##ious	11635
program	11636
360°	11637
else	11638
lohasthree	11639
##gar	11640
することかてきます	11641
please	11642
##れます	11643
rc	11644
##ggle	11645
##ric	11646
bim	11647
50000	11648
##own	11649
eclipse	11650
355	11651
brian	11652
3ds	11653
##side	11654
061	11655
361	11656
##other	11657
##ける	11658
##tech	11659
##ator	11660
485	11661
engine	11662
##ged	11663
##ｔ	11664
plaza	11665
##fit	11666
cia	11667
ngo	11668
westbrook	11669
shi	11670
tbs	11671
50mm	11672
##みませんか	11673
sci	11674
291	11675
reuters	11676
##ily	11677
contextlink	11678
##hn	11679
af	11680
##cil	11681
bridge	11682
very	11683
##cel	11684
1890	11685
cambridge	11686
##ize	11687
15g	11688
##aid	11689
##data	11690
790	11691
frm	11692
##head	11693
award	11694
butler	11695
##sun	11696
meta	11697
##mar	11698
america	11699
ps3	11700
puma	11701
pmid	11702
##すか	11703
lc	11704
670	11705
kitchen	11706
##lic	11707
オーフン5	11708
きなしソフトサーヒス	11709
そして	11710
day1	11711
future	11712
★★★★	11713
##text	11714
##page	11715
##rris	11716
pm1	11717
##ket	11718
fans	11719
##っています	11720
1001	11721
christian	11722
bot	11723
kids	11724
trackback	11725
##hai	11726
c3	11727
display	11728
##hl	11729
n2	11730
1896	11731
idea	11732
さんも	11733
##sent	11734
airmail	11735
##ug	11736
##men	11737
pwm	11738
けます	11739
028	11740
##lution	11741
369	11742
852	11743
awards	11744
schemas	11745
354	11746
asics	11747
wikipedia	11748
font	11749
##tional	11750
##vy	11751
c2	11752
293	11753
##れている	11754
##dget	11755
##ein	11756
っている	11757
contact	11758
pepper	11759
スキル	11760
339	11761
##～5	11762
294	11763
##uel	11764
##ument	11765
730	11766
##hang	11767
みてす	11768
q5	11769
##sue	11770
rain	11771
##ndi	11772
wei	11773
swatch	11774
##cept	11775
わせ	11776
331	11777
popular	11778
##ste	11779
##tag	11780
p2	11781
501	11782
trc	11783
1899	11784
##west	11785
##live	11786
justin	11787
honda	11788
ping	11789
messenger	11790
##rap	11791
v9	11792
543	11793
##とは	11794
unity	11795
appqq	11796
はすへて	11797
025	11798
leo	11799
##tone	11800
##テ	11801
##ass	11802
uniqlo	11803
##010	11804
502	11805
her	11806
jane	11807
memory	11808
moneydj	11809
##tical	11810
human	11811
12306	11812
していると	11813
##m2	11814
coc	11815
miacare	11816
##mn	11817
tmt	11818
##core	11819
vim	11820
kk	11821
##may	11822
fan	11823
target	11824
use	11825
too	11826
338	11827
435	11828
2050	11829
867	11830
737	11831
fast	11832
##2c	11833
services	11834
##ope	11835
omega	11836
energy	11837
##わ	11838
pinkoi	11839
1a	11840
##なから	11841
##rain	11842
jackson	11843
##ement	11844
##シャンルの	11845
374	11846
366	11847
そんな	11848
p9	11849
rd	11850
##ᆨ	11851
1111	11852
##tier	11853
##vic	11854
zone	11855
##│	11856
385	11857
690	11858
dl	11859
isofix	11860
cpa	11861
m4	11862
322	11863
kimi	11864
めて	11865
davis	11866
##lay	11867
lulu	11868
##uck	11869
050	11870
weeks	11871
qs	11872
##hop	11873
920	11874
##ｎ	11875
ae	11876
##ear	11877
～5	11878
eia	11879
405	11880
##fly	11881
korea	11882
jpeg	11883
boost	11884
##ship	11885
small	11886
##リア	11887
1860	11888
eur	11889
297	11890
425	11891
valley	11892
##iel	11893
simple	11894
##ude	11895
rn	11896
k2	11897
##ena	11898
されます	11899
non	11900
patrick	11901
しているから	11902
##ナー	11903
feed	11904
5757	11905
30g	11906
process	11907
well	11908
qqmei	11909
##thing	11910
they	11911
aws	11912
lu	11913
pink	11914
##ters	11915
##kin	11916
または	11917
board	11918
##vertisement	11919
wine	11920
##ien	11921
unicode	11922
##dge	11923
r1	11924
359	11925
##tant	11926
いを	11927
##twitter	11928
##3c	11929
cool1	11930
される	11931
##れて	11932
##ｌ	11933
isp	11934
##012	11935
standard	11936
45㎡2	11937
402	11938
##150	11939
matt	11940
##fu	11941
326	11942
##iner	11943
googlemsn	11944
pixnetfacebookyahoo	11945
##ラン	11946
x7	11947
886	11948
##uce	11949
メーカー	11950
sao	11951
##ev	11952
##きました	11953
##file	11954
9678	11955
403	11956
xddd	11957
shirt	11958
6l	11959
##rio	11960
##hat	11961
3mm	11962
givenchy	11963
ya	11964
bang	11965
##lio	11966
monday	11967
crystal	11968
ロクイン	11969
##abc	11970
336	11971
head	11972
890	11973
ubuntuforumwikilinuxpastechat	11974
##vc	11975
##～20	11976
##rity	11977
cnc	11978
7866	11979
ipv6	11980
null	11981
1897	11982
##ost	11983
yang	11984
imsean	11985
tiger	11986
##fet	11987
##ンス	11988
352	11989
##＝	11990
dji	11991
327	11992
ji	11993
maria	11994
##come	11995
##んて	11996
foundation	11997
3100	11998
##beth	11999
##なった	12000
1m	12001
601	12002
active	12003
##aft	12004
##don	12005
3p	12006
sr	12007
349	12008
emma	12009
##khz	12010
living	12011
415	12012
353	12013
1889	12014
341	12015
709	12016
457	12017
sas	12018
x6	12019
##face	12020
pptv	12021
x4	12022
##mate	12023
han	12024
sophie	12025
##jing	12026
337	12027
fifa	12028
##mand	12029
other	12030
sale	12031
inwedding	12032
##gn	12033
てきちゃいます	12034
##mmy	12035
##pmlast	12036
bad	12037
nana	12038
nbc	12039
してみてくたさいね	12040
なとはお	12041
##wu	12042
##かあります	12043
##あ	12044
note7	12045
single	12046
##340	12047
せからこ	12048
してくたさい♪この	12049
しにはとんとんワークケートを	12050
するとあなたにもっとマッチした	12051
ならワークケートへ	12052
もみつかっちゃうかも	12053
ワークケートの	12054
##bel	12055
window	12056
##dio	12057
##ht	12058
union	12059
age	12060
382	12061
１４	12062
##ivity	12063
##ｙ	12064
コメント	12065
domain	12066
neo	12067
##isa	12068
##lter	12069
5k	12070
f5	12071
steven	12072
##cts	12073
powerpoint	12074
tft	12075
self	12076
g2	12077
ft	12078
##テル	12079
zol	12080
##act	12081
mwc	12082
381	12083
343	12084
もう	12085
nbapop	12086
408	12087
てある	12088
eds	12089
ace	12090
##room	12091
previous	12092
author	12093
tomtom	12094
il	12095
##ets	12096
hu	12097
financial	12098
☆☆☆	12099
っています	12100
bp	12101
5t	12102
chi	12103
1gb	12104
##hg	12105
fairmont	12106
cross	12107
008	12108
gay	12109
h2	12110
function	12111
##けて	12112
356	12113
also	12114
1b	12115
625	12116
##ータ	12117
##raph	12118
1894	12119
3～5	12120
##ils	12121
i3	12122
334	12123
avenue	12124
##host	12125
による	12126
##bon	12127
##tsu	12128
message	12129
navigation	12130
50g	12131
fintech	12132
h6	12133
##ことを	12134
8cm	12135
##ject	12136
##vas	12137
##firm	12138
credit	12139
##wf	12140
xxxx	12141
form	12142
##nor	12143
##space	12144
huawei	12145
plan	12146
json	12147
sbl	12148
##dc	12149
machine	12150
921	12151
392	12152
wish	12153
##120	12154
##sol	12155
windows7	12156
edward	12157
##ために	12158
development	12159
washington	12160
##nsis	12161
lo	12162
818	12163
##sio	12164
##ym	12165
##bor	12166
planet	12167
##～8	12168
##wt	12169
ieee	12170
gpa	12171
##めて	12172
camp	12173
ann	12174
gm	12175
##tw	12176
##oka	12177
connect	12178
##rss	12179
##work	12180
##atus	12181
wall	12182
chicken	12183
soul	12184
2mm	12185
##times	12186
fa	12187
##ather	12188
##cord	12189
009	12190
##eep	12191
hitachi	12192
gui	12193
harry	12194
##pan	12195
e1	12196
disney	12197
##press	12198
##ーション	12199
wind	12200
386	12201
frigidaire	12202
##tl	12203
liu	12204
hsu	12205
332	12206
basic	12207
von	12208
ev	12209
いた	12210
てきる	12211
スホンサーサイト	12212
learning	12213
##ull	12214
expedia	12215
archives	12216
change	12217
##wei	12218
santa	12219
cut	12220
ins	12221
6gb	12222
turbo	12223
brand	12224
cf1	12225
508	12226
004	12227
return	12228
747	12229
##rip	12230
h1	12231
##nis	12232
##をこ	12233
128gb	12234
##にお	12235
3t	12236
application	12237
しており	12238
emc	12239
rx	12240
##oon	12241
384	12242
quick	12243
412	12244
15058	12245
wilson	12246
wing	12247
chapter	12248
##bug	12249
beyond	12250
##cms	12251
##dar	12252
##oh	12253
zoom	12254
e2	12255
trip	12256
sb	12257
##nba	12258
rcep	12259
342	12260
aspx	12261
ci	12262
080	12263
gc	12264
gnu	12265
める	12266
##count	12267
advanced	12268
dance	12269
dv	12270
##url	12271
##ging	12272
367	12273
8591	12274
am09	12275
shadow	12276
battle	12277
346	12278
##ｉ	12279
##cia	12280
##という	12281
emily	12282
##のてす	12283
##tation	12284
host	12285
ff	12286
techorz	12287
sars	12288
##mini	12289
##mporary	12290
##ering	12291
nc	12292
4200	12293
798	12294
##next	12295
cma	12296
##mbps	12297
##gas	12298
##ift	12299
##dot	12300
##ィ	12301
455	12302
##～17	12303
amana	12304
##りの	12305
426	12306
##ros	12307
ir	12308
00㎡1	12309
##eet	12310
##ible	12311
##↓	12312
710	12313
ˋ▽ˊ	12314
##aka	12315
dcs	12316
iq	12317
##ｖ	12318
l1	12319
##lor	12320
maggie	12321
##011	12322
##iu	12323
588	12324
##～1	12325
830	12326
##gt	12327
1tb	12328
articles	12329
create	12330
##burg	12331
##iki	12332
database	12333
fantasy	12334
##rex	12335
##cam	12336
dlc	12337
dean	12338
##you	12339
hard	12340
path	12341
gaming	12342
victoria	12343
maps	12344
cb	12345
##lee	12346
##itor	12347
overchicstoretvhome	12348
systems	12349
##xt	12350
416	12351
p3	12352
sarah	12353
760	12354
##nan	12355
407	12356
486	12357
x9	12358
install	12359
second	12360
626	12361
##ann	12362
##ph	12363
##rcle	12364
##nic	12365
860	12366
##nar	12367
ec	12368
##とう	12369
768	12370
metro	12371
chocolate	12372
##rian	12373
～4	12374
##table	12375
##しています	12376
skin	12377
##sn	12378
395	12379
mountain	12380
##0mm	12381
inparadise	12382
6m	12383
7x24	12384
ib	12385
4800	12386
##jia	12387
eeworld	12388
creative	12389
g5	12390
g3	12391
357	12392
parker	12393
ecfa	12394
village	12395
からの	12396
18000	12397
sylvia	12398
サーヒス	12399
hbl	12400
##ques	12401
##onsored	12402
##x2	12403
##きます	12404
##v4	12405
##tein	12406
ie6	12407
383	12408
##stack	12409
389	12410
ver	12411
##ads	12412
##baby	12413
sound	12414
bbe	12415
##110	12416
##lone	12417
##uid	12418
ads	12419
022	12420
gundam	12421
351	12422
thinkpad	12423
006	12424
scrum	12425
match	12426
##ave	12427
mems	12428
##470	12429
##oy	12430
##なりました	12431
##talk	12432
glass	12433
lamigo	12434
span	12435
##eme	12436
job	12437
##a5	12438
jay	12439
wade	12440
kde	12441
498	12442
##lace	12443
ocean	12444
tvg	12445
##covery	12446
##r3	12447
##ners	12448
##rea	12449
junior	12450
think	12451
##aine	12452
cover	12453
##ision	12454
##sia	12455
↓↓	12456
##bow	12457
msi	12458
413	12459
458	12460
406	12461
##love	12462
711	12463
801	12464
soft	12465
z2	12466
##pl	12467
456	12468
1840	12469
mobil	12470
mind	12471
##uy	12472
427	12473
nginx	12474
##oi	12475
めた	12476
##rr	12477
6221	12478
##mple	12479
##sson	12480
##ーシてす	12481
371	12482
##nts	12483
91tv	12484
comhd	12485
crv3000	12486
##uard	12487
1868	12488
397	12489
deep	12490
lost	12491
field	12492
gallery	12493
##bia	12494
rate	12495
spf	12496
redis	12497
traction	12498
930	12499
icloud	12500
011	12501
なら	12502
fe	12503
jose	12504
372	12505
##tory	12506
into	12507
sohu	12508
fx	12509
899	12510
379	12511
kicstart2	12512
##hia	12513
すく	12514
##～3	12515
##sit	12516
ra	12517
２４	12518
##walk	12519
##xure	12520
500g	12521
##pact	12522
pacific	12523
xa	12524
natural	12525
carlo	12526
##250	12527
##walker	12528
1850	12529
##can	12530
cto	12531
gigi	12532
516	12533
##サー	12534
pen	12535
##hoo	12536
ob	12537
matlab	12538
##ｂ	12539
##yy	12540
13913459	12541
##iti	12542
mango	12543
##bbs	12544
sense	12545
c5	12546
oxford	12547
##ニア	12548
walker	12549
jennifer	12550
##ola	12551
course	12552
##bre	12553
701	12554
##pus	12555
##rder	12556
lucky	12557
075	12558
##ぁ	12559
ivy	12560
なお	12561
##nia	12562
sotheby	12563
side	12564
##ugh	12565
joy	12566
##orage	12567
##ush	12568
##bat	12569
##dt	12570
364	12571
r9	12572
##2d	12573
##gio	12574
511	12575
country	12576
wear	12577
##lax	12578
##～7	12579
##moon	12580
393	12581
seven	12582
study	12583
411	12584
348	12585
lonzo	12586
8k	12587
##ェ	12588
evolution	12589
##イフ	12590
##kk	12591
gs	12592
kd	12593
##レス	12594
arduino	12595
344	12596
b12	12597
##lux	12598
arpg	12599
##rdon	12600
cook	12601
##x5	12602
dark	12603
five	12604
##als	12605
##ida	12606
とても	12607
sign	12608
362	12609
##ちの	12610
something	12611
20mm	12612
##nda	12613
387	12614
##posted	12615
fresh	12616
tf	12617
1870	12618
422	12619
cam	12620
##mine	12621
##skip	12622
##form	12623
##ssion	12624
education	12625
394	12626
##tee	12627
dyson	12628
stage	12629
##jie	12630
want	12631
##night	12632
epson	12633
pack	12634
あります	12635
##ppy	12636
テリヘル	12637
##█	12638
wd	12639
##eh	12640
##rence	12641
left	12642
##lvin	12643
golden	12644
mhz	12645
discovery	12646
##trix	12647
##n2	12648
loft	12649
##uch	12650
##dra	12651
##sse	12652
speed	12653
～1	12654
1mdb	12655
sorry	12656
welcome	12657
##urn	12658
wave	12659
gaga	12660
##lmer	12661
teddy	12662
##160	12663
トラックハック	12664
せよ	12665
611	12666
##f2016	12667
378	12668
rp	12669
##sha	12670
rar	12671
##あなたに	12672
##きた	12673
840	12674
holiday	12675
##ュー	12676
373	12677
074	12678
##vg	12679
##nos	12680
##rail	12681
gartner	12682
gi	12683
6p	12684
##dium	12685
kit	12686
488	12687
b3	12688
eco	12689
##ろう	12690
20g	12691
sean	12692
##stone	12693
autocad	12694
nu	12695
##np	12696
f16	12697
write	12698
029	12699
m5	12700
##ias	12701
images	12702
atp	12703
##dk	12704
fsm	12705
504	12706
1350	12707
ve	12708
52kb	12709
##xxx	12710
##のに	12711
##cake	12712
414	12713
unit	12714
lim	12715
ru	12716
1v	12717
##ification	12718
published	12719
angela	12720
16g	12721
analytics	12722
ak	12723
##ｑ	12724
##nel	12725
gmt	12726
##icon	12727
again	12728
##₂	12729
##bby	12730
ios11	12731
445	12732
かこさいます	12733
waze	12734
いてす	12735
##ハ	12736
9985	12737
##ust	12738
##ティー	12739
framework	12740
##007	12741
iptv	12742
delete	12743
52sykb	12744
cl	12745
wwdc	12746
027	12747
30cm	12748
##fw	12749
##ての	12750
1389	12751
##xon	12752
brandt	12753
##ses	12754
##dragon	12755
tc	12756
vetements	12757
anne	12758
monte	12759
modern	12760
official	12761
##へて	12762
##ere	12763
##nne	12764
##oud	12765
もちろん	12766
５０	12767
etnews	12768
##a2	12769
##graphy	12770
421	12771
863	12772
##ちゃん	12773
444	12774
##rtex	12775
##てお	12776
l2	12777
##gma	12778
mount	12779
ccd	12780
たと	12781
archive	12782
morning	12783
tan	12784
ddos	12785
e7	12786
##ホ	12787
day4	12788
##ウ	12789
gis	12790
453	12791
its	12792
495	12793
factory	12794
bruce	12795
pg	12796
##ito	12797
ってくたさい	12798
guest	12799
cdma	12800
##lling	12801
536	12802
n3	12803
しかし	12804
3～4	12805
mega	12806
eyes	12807
ro	12808
１３	12809
women	12810
dac	12811
church	12812
##jun	12813
singapore	12814
##facebook	12815
6991	12816
starbucks	12817
##tos	12818
##stin	12819
##shine	12820
zen	12821
##mu	12822
tina	12823
20℃	12824
1893	12825
##たけて	12826
503	12827
465	12828
request	12829
##gence	12830
qt	12831
##っ	12832
1886	12833
347	12834
363	12835
q7	12836
##zzi	12837
diary	12838
##tore	12839
409	12840
##ead	12841
468	12842
cst	12843
##osa	12844
canada	12845
agent	12846
va	12847
##jiang	12848
##ちは	12849
##ーク	12850
##lam	12851
sg	12852
##nix	12853
##sday	12854
##よって	12855
g6	12856
##master	12857
bing	12858
##zl	12859
charlie	12860
１６	12861
8mm	12862
nb40	12863
##ーン	12864
thai	12865
##ルフ	12866
ln284ct	12867
##itz	12868
##2f	12869
bonnie	12870
##food	12871
##lent	12872
originals	12873
##stro	12874
##lts	12875
418	12876
∟∣	12877
##bscribe	12878
children	12879
ntd	12880
yesstyle	12881
##かも	12882
hmv	12883
##tment	12884
d5	12885
2cm	12886
arts	12887
sms	12888
##pn	12889
##я	12890
##いい	12891
topios9	12892
539	12893
lifestyle	12894
virtual	12895
##ague	12896
xz	12897
##deo	12898
muji	12899
024	12900
unt	12901
##nnis	12902
##ᅩ	12903
faq1	12904
1884	12905
396	12906
##ette	12907
fly	12908
64㎡	12909
はしめまして	12910
441	12911
curry	12912
##pop	12913
のこ	12914
release	12915
##←	12916
##◆◆	12917
##cast	12918
073	12919
ありな	12920
500ml	12921
##ews	12922
5c	12923
##stle	12924
ios7	12925
##ima	12926
787	12927
dog	12928
lenovo	12929
##r4	12930
roger	12931
013	12932
cbs	12933
vornado	12934
100m	12935
417	12936
##desk	12937
##クok	12938
##ald	12939
1867	12940
9595	12941
2900	12942
##van	12943
oil	12944
##ｘ	12945
some	12946
break	12947
common	12948
##jy	12949
##lines	12950
g7	12951
twice	12952
419	12953
ella	12954
nano	12955
belle	12956
にこ	12957
##mes	12958
##self	12959
##note	12960
jb	12961
##ことかてきます	12962
benz	12963
##との	12964
##ova	12965
451	12966
save	12967
##wing	12968
##ますのて	12969
kai	12970
りは	12971
##hua	12972
##rect	12973
rainer	12974
##unge	12975
448	12976
##0m	12977
adsl	12978
##かな	12979
guestname	12980
##uma	12981
##kins	12982
##zu	12983
tokichoi	12984
##price	12985
county	12986
##med	12987
##mus	12988
rmk	12989
391	12990
address	12991
vm	12992
えて	12993
openload	12994
##group	12995
##hin	12996
##iginal	12997
amg	12998
urban	12999
##oz	13000
jobs	13001
emi	13002
##public	13003
beautiful	13004
##sch	13005
album	13006
##dden	13007
##bell	13008
jerry	13009
works	13010
hostel	13011
miller	13012
##drive	13013
##rmin	13014
##１０	13015
376	13016
boot	13017
828	13018
##370	13019
##fx	13020
##cm～	13021
1885	13022
##nome	13023
##ctionary	13024
##oman	13025
##lish	13026
##cr	13027
##hm	13028
433	13029
##how	13030
432	13031
francis	13032
xi	13033
c919	13034
b5	13035
evernote	13036
##uc	13037
vga	13038
##3000	13039
coupe	13040
##urg	13041
##cca	13042
##uality	13043
019	13044
6g	13045
れる	13046
multi	13047
##また	13048
##ett	13049
em	13050
hey	13051
##ani	13052
##tax	13053
##rma	13054
inside	13055
than	13056
740	13057
leonnhurt	13058
##jin	13059
ict	13060
れた	13061
bird	13062
notes	13063
200mm	13064
くの	13065
##dical	13066
##lli	13067
result	13068
442	13069
iu	13070
ee	13071
438	13072
smap	13073
gopro	13074
##last	13075
yin	13076
pure	13077
998	13078
32g	13079
けた	13080
5kg	13081
##dan	13082
##rame	13083
mama	13084
##oot	13085
bean	13086
marketing	13087
##hur	13088
2l	13089
bella	13090
sync	13091
xuite	13092
##ground	13093
515	13094
discuz	13095
##getrelax	13096
##ince	13097
##bay	13098
##5s	13099
cj	13100
##イス	13101
gmat	13102
apt	13103
##pass	13104
jing	13105
##rix	13106
c4	13107
rich	13108
##とても	13109
niusnews	13110
##ello	13111
bag	13112
770	13113
##eting	13114
##mobile	13115
１８	13116
culture	13117
015	13118
##のてすか	13119
377	13120
1020	13121
area	13122
##ience	13123
616	13124
details	13125
gp	13126
universal	13127
silver	13128
dit	13129
はお	13130
private	13131
ddd	13132
u11	13133
kanshu	13134
##ified	13135
fung	13136
##nny	13137
dx	13138
##520	13139
tai	13140
475	13141
023	13142
##fr	13143
##lean	13144
3s	13145
##pin	13146
429	13147
##rin	13148
25000	13149
ly	13150
rick	13151
##bility	13152
usb3	13153
banner	13154
##baru	13155
##gion	13156
metal	13157
dt	13158
vdf	13159
1871	13160
karl	13161
qualcomm	13162
bear	13163
1010	13164
oldid	13165
ian	13166
jo	13167
##tors	13168
population	13169
##ernel	13170
1882	13171
mmorpg	13172
##mv	13173
##bike	13174
603	13175
##©	13176
ww	13177
friend	13178
##ager	13179
exhibition	13180
##del	13181
##pods	13182
fpx	13183
structure	13184
##free	13185
##tings	13186
kl	13187
##rley	13188
##copyright	13189
##mma	13190
california	13191
3400	13192
orange	13193
yoga	13194
4l	13195
canmake	13196
honey	13197
##anda	13198
##コメント	13199
595	13200
nikkie	13201
##ルハイト	13202
dhl	13203
publishing	13204
##mall	13205
##gnet	13206
20cm	13207
513	13208
##クセス	13209
##┅	13210
e88	13211
970	13212
##dog	13213
fishbase	13214
##£	13215
##¤	13216
##¥	13217
##±	13218
##³	13219
##µ	13220
##¹	13221
##º	13222
##¼	13223
##ß	13224
##æ	13225
##÷	13226
##ø	13227
##đ	13228
##ŋ	13229
##ɔ	13230
##ə	13231
##ɡ	13232
##ʰ	13233
##ˇ	13234
##ˈ	13235
##ˊ	13236
##ˋ	13237
##ˍ	13238
##ː	13239
##˙	13240
##˚	13241
##ˢ	13242
##α	13243
##β	13244
##γ	13245
##δ	13246
##ε	13247
##η	13248
##θ	13249
##ι	13250
##κ	13251
##λ	13252
##μ	13253
##ν	13254
##ο	13255
##π	13256
##ρ	13257
##ς	13258
##σ	13259
##τ	13260
##υ	13261
##φ	13262
##χ	13263
##ψ	13264
##б	13265
##в	13266
##г	13267
##д	13268
##е	13269
##ж	13270
##з	13271
##к	13272
##л	13273
##м	13274
##н	13275
##о	13276
##п	13277
##р	13278
##с	13279
##т	13280
##у	13281
##ф	13282
##х	13283
##ц	13284
##ч	13285
##ш	13286
##ы	13287
##ь	13288
##і	13289
##ا	13290
##ب	13291
##ة	13292
##ت	13293
##د	13294
##ر	13295
##س	13296
##ع	13297
##ل	13298
##م	13299
##ن	13300
##ه	13301
##و	13302
##ي	13303
##۩	13304
##ก	13305
##ง	13306
##น	13307
##ม	13308
##ย	13309
##ร	13310
##อ	13311
##า	13312
##เ	13313
##๑	13314
##ღ	13315
##ᄀ	13316
##ᄁ	13317
##ᄂ	13318
##ᄃ	13319
##ᄅ	13320
##ᄆ	13321
##ᄇ	13322
##ᄈ	13323
##ᄉ	13324
##ᄋ	13325
##ᄌ	13326
##ᄎ	13327
##ᄏ	13328
##ᄐ	13329
##ᄑ	13330
##ᄒ	13331
##ᅢ	13332
##ᅣ	13333
##ᅥ	13334
##ᅦ	13335
##ᅧ	13336
##ᅨ	13337
##ᅪ	13338
##ᅬ	13339
##ᅭ	13340
##ᅮ	13341
##ᅯ	13342
##ᅲ	13343
##ᅳ	13344
##ᅴ	13345
##ᆷ	13346
##ᆸ	13347
##ᆺ	13348
##ᆻ	13349
##ᗜ	13350
##ᵃ	13351
##ᵉ	13352
##ᵍ	13353
##ᵏ	13354
##ᵐ	13355
##ᵒ	13356
##ᵘ	13357
##	13358
##⁄	13359
##ⁱ	13360
##⁺	13361
##ⁿ	13362
##₁	13363
##₃	13364
##₄	13365
##€	13366
##№	13367
##ⅰ	13368
##ⅱ	13369
##ⅲ	13370
##ⅳ	13371
##ⅴ	13372
##↔	13373
##↗	13374
##↘	13375
##⇒	13376
##∀	13377
##−	13378
##∕	13379
##∙	13380
##√	13381
##∞	13382
##∟	13383
##∠	13384
##∣	13385
##∩	13386
##∮	13387
##∶	13388
##∼	13389
##∽	13390
##≈	13391
##≒	13392
##≡	13393
##≤	13394
##≥	13395
##≦	13396
##≧	13397
##≪	13398
##≫	13399
##⊙	13400
##⋅	13401
##⋈	13402
##⋯	13403
##⌒	13404
##①	13405
##②	13406
##③	13407
##④	13408
##⑤	13409
##⑥	13410
##⑦	13411
##⑧	13412
##⑨	13413
##⑩	13414
##⑴	13415
##⑵	13416
##⑶	13417
##⑷	13418
##⑸	13419
##⒈	13420
##⒉	13421
##⒊	13422
##⒋	13423
##ⓒ	13424
##ⓔ	13425
##ⓘ	13426
##━	13427
##┃	13428
##┆	13429
##┊	13430
##┌	13431
##└	13432
##├	13433
##┣	13434
##═	13435
##║	13436
##╚	13437
##╞	13438
##╠	13439
##╭	13440
##╮	13441
##╯	13442
##╰	13443
##╱	13444
##╳	13445
##▂	13446
##▃	13447
##▅	13448
##▇	13449
##▉	13450
##▋	13451
##▌	13452
##▍	13453
##▎	13454
##□	13455
##▪	13456
##▫	13457
##▬	13458
##△	13459
##▶	13460
##►	13461
##▽	13462
##◇	13463
##◕	13464
##◠	13465
##◢	13466
##◤	13467
##☀	13468
##☕	13469
##☞	13470
##☺	13471
##☼	13472
##♀	13473
##♂	13474
##♠	13475
##♡	13476
##♣	13477
##♦	13478
##♫	13479
##♬	13480
##✈	13481
##✔	13482
##✕	13483
##✖	13484
##✦	13485
##✨	13486
##✪	13487
##✰	13488
##✿	13489
##❀	13490
##➜	13491
##➤	13492
##⦿	13493
##々	13494
##〇	13495
##〓	13496
##ぃ	13497
##ぇ	13498
##ぬ	13499
##ふ	13500
##ほ	13501
##む	13502
##ゃ	13503
##ゅ	13504
##ゆ	13505
##ょ	13506
##゜	13507
##ゝ	13508
##ァ	13509
##ゥ	13510
##エ	13511
##ォ	13512
##ケ	13513
##サ	13514
##セ	13515
##ソ	13516
##ッ	13517
##ニ	13518
##ヌ	13519
##ネ	13520
##ノ	13521
##ヘ	13522
##モ	13523
##ャ	13524
##ヤ	13525
##ュ	13526
##ユ	13527
##ョ	13528
##ヨ	13529
##ワ	13530
##ヲ	13531
##ヽ	13532
##ㄅ	13533
##ㄆ	13534
##ㄇ	13535
##ㄉ	13536
##ㄋ	13537
##ㄌ	13538
##ㄍ	13539
##ㄎ	13540
##ㄏ	13541
##ㄒ	13542
##ㄚ	13543
##ㄛ	13544
##ㄞ	13545
##ㄟ	13546
##ㄢ	13547
##ㄤ	13548
##ㄥ	13549
##ㄧ	13550
##ㄨ	13551
##ㆍ	13552
##㈦	13553
##㊣	13554
##＄	13555
##＜	13556
##＾	13557
##｀	13558
##ｆ	13559
##ｈ	13560
##ｊ	13561
##ｕ	13562
##ｗ	13563
##ｚ	13564
##ｯ	13565
##ｰ	13566
##ｲ	13567
##ｸ	13568
##ｼ	13569
##ｽ	13570
##ﾄ	13571
##ﾉ	13572
##ﾌ	13573
##ﾗ	13574
##ﾙ	13575
##ﾝ	13576
##ﾞ	13577
##ﾟ	13578
##￣	13579
##￥	13580
##👍	13581
##🔥	13582
##😂	13583
##😎	13584
一个	13585
中国	13586
我们	13587
他们	13588
自己	13589
没有	13590
国家	13591
可以	13592
发展	13593
工作	13594
这个	13595
什么	13596
主要	13597
问题	13598
进行	13599
地方	13600
已经	13601
这样	13602
全国	13603
经济	13604
这些	13605
不是	13606
公司	13607
人民	13608
社会	13609
知道	13610
这种	13611
起来	13612
地区	13613
如果	13614
开始	13615
技术	13616
重要	13617
美国	13618
成为	13619
因为	13620
通过	13621
研究	13622
文化	13623
企业	13624
北京	13625
历史	13626
世界	13627
其中	13628
现在	13629
天安门	13630
不能	13631
一些	13632
时间	13633
生产	13634
情况	13635
代表	13636
决定	13637
湖北	13638
关系	13639
领导	13640
生活	13641
时候	13642
一种	13643
可能	13644
出来	13645
学生	13646
以及	13647
石首	13648
一般	13649
同时	13650
认为	13651
由于	13652
所以	13653
不同	13654
这里	13655
学院	13656
两个	13657
作为	13658
会议	13659
但是	13660
部分	13661
活动	13662
需要	13663
怎么	13664
管理	13665
方面	13666
市场	13667
组织	13668
工业	13669
建设	13670
形成	13671
其他	13672
出现	13673
许多	13674
日本	13675
之间	13676
一定	13677
具有	13678
城市	13679
人民代表大会	13680
以上	13681
政治	13682
人们	13683
委员会	13684
发现	13685
记者	13686
国际	13687
规定	13688
机关	13689
武汉	13690
虽然	13691
根据	13692
法律	13693
影响	13694
包括	13695
发生	13696
使用	13697
中心	13698
教育	13699
要求	13700
政府	13701
因此	13702
人口	13703
建立	13704
参加	13705
产品	13706
武汉市	13707
而且	13708
一样	13709
面积	13710
各种	13711
提出	13712
我国	13713
作用	13714
皇帝	13715
必须	13716
行政	13717
编辑	13718
职业	13719
制度	13720
以后	13721
你们	13722
说道	13723
世纪	13724
为了	13725
应该	13726
之一	13727
之后	13728
主席	13729
系统	13730
有关	13731
组成	13732
民族	13733
基本	13734
增长	13735
自然	13736
大学	13737
如何	13738
政体	13739
各级	13740
人员	13741
计划	13742
不会	13743
产生	13744
时期	13745
最后	13746
一次	13747
表示	13748
机构	13749
当时	13750
大家	13751
特别	13752
改革	13753
长江	13754
那么	13755
这么	13756
东西	13757
能力	13758
湖北省	13759
革命	13760
一直	13761
基础	13762
还有	13763
得到	13764
进入	13765
运动	13766
目前	13767
对于	13768
过程	13769
方法	13770
举行	13771
群众	13772
第一	13773
单位	13774
如此	13775
孩子	13776
所有	13777
资源	13778
过去	13779
不过	13780
条件	13781
学校	13782
提高	13783
工程	13784
环境	13785
提供	13786
方式	13787
百科	13788
报告	13789
或者	13790
下来	13791
军事	13792
部门	13793
分别	13794
十分	13795
上海	13796
完成	13797
一切	13798
那些	13799
最大	13800
然后	13801
农业	13802
经过	13803
专业	13804
准备	13805
增加	13806
获得	13807
旅游	13808
一声	13809
觉得	13810
一起	13811
理论	13812
今天	13813
非常	13814
中央	13815
比较	13816
表现	13817
价值	13818
国务院	13819
科技	13820
完全	13821
亿元	13822
有些	13823
存在	13824
达到	13825
内容	13826
实行	13827
思想	13828
事情	13829
实现	13830
甚至	13831
人民政府	13832
任务	13833
选举	13834
形式	13835
原来	13836
有人	13837
突然	13838
不断	13839
咱们	13840
变化	13841
心中	13842
直接	13843
战争	13844
可是	13845
不知	13846
政策	13847
不要	13848
资本	13849
继续	13850
年代	13851
期间	13852
位于	13853
任何	13854
权力	13855
那个	13856
执行	13857
先生	13858
解决	13859
建筑	13860
能够	13861
自治区	13862
称为	13863
结构	13864
一点	13865
成立	13866
英国	13867
社会主义	13868
统一	13869
先进	13870
结果	13871
投资	13872
后来	13873
一下	13874
水平	13875
保护	13876
主任	13877
关于	13878
负责	13879
制定	13880
艺术	13881
利用	13882
于是	13883
学习	13884
合作	13885
科学	13886
看到	13887
项目	13888
不敢	13889
襄阳	13890
几个	13891
那里	13892
公里	13893
服务	13894
精神	13895
人大	13896
全省	13897
当然	13898
个人	13899
超过	13900
重点	13901
很多	13902
原因	13903
及其	13904
公民	13905
锛	13906
希望	13907
新闻	13908
设计	13909
相关	13910
国内	13911
分布	13912
最高	13913
部队	13914
它们	13915
集团	13916
信息	13917
采用	13918
重大	13919
回来	13920
范围	13921
引起	13922
实际	13923
其实	13924
不仅	13925
取得	13926
丰富	13927
农民	13928
整个	13929
为主	13930
了解	13931
价格	13932
甚么	13933
地位	13934
紝	13935
这时	13936
劳动	13937
按照	13938
控制	13939
目标	13940
基地	13941
农村	13942
传统	13943
受到	13944
全部	13945
法国	13946
比赛	13947
军队	13948
土地	13949
规模	13950
荆州	13951
眼睛	13952
左右	13953
选择	13954
批准	13955
身上	13956
专家	13957
分析	13958
统治	13959
加强	13960
不到	13961
铁路	13962
百度	13963
每年	13964
告诉	13965
支持	13966
交通	13967
明白	13968
处理	13969
本级	13970
作战	13971
时代	13972
皇上	13973
实施	13974
只要	13975
成功	13976
办法	13977
随着	13978
之中	13979
进一步	13980
心里	13981
终于	13982
大量	13983
人物	13984
共同	13985
全国人民代表大会	13986
下去	13987
多少	13988
来说	13989
严重	13990
词条	13991
接受	13992
收入	13993
以来	13994
城邦	13995
声音	13996
意见	13997
过来	13998
保持	13999
今日	14000
一条	14001
发言人	14002
另外	14003
坚持	14004
工人	14005
汽车	14006
而是	14007
敌人	14008
商品	14009
说话	14010
改变	14011
先后	14012
力量	14013
事业	14014
开发	14015
看见	14016
战略	14017
标准	14018
是否	14019
中华人民共和国	14020
出去	14021
今年	14022
报道	14023
程度	14024
国民党	14025
平均	14026
消息	14027
还是	14028
安全	14029
独立	14030
注意	14031
机会	14032
韦小宝	14033
父亲	14034
此外	14035
这次	14036
经验	14037
采取	14038
喜欢	14039
根本	14040
领域	14041
具体	14042
联系	14043
几乎	14044
干部	14045
印度	14046
如今	14047
大会	14048
不可	14049
兄弟	14050
德国	14051
阶段	14052
为什么	14053
感到	14054
无法	14055
宪法	14056
似乎	14057
原则	14058
真正	14059
法规	14060
斗争	14061
人类	14062
目的	14063
造成	14064
一位	14065
反对	14066
儿子	14067
相同	14068
以前	14069
著名	14070
众人	14071
建议	14072
迅速	14073
全面	14074
正是	14075
明显	14076
就是	14077
欧洲	14078
作品	14079
首先	14080
集中	14081
正式	14082
朋友	14083
第二	14084
召开	14085
材料	14086
帮助	14087
飞机	14088
委员	14089
行动	14090
保证	14091
现象	14092
特点	14093
现代	14094
实际上	14095
资料	14096
毛泽东	14097
同志	14098
行为	14099
结束	14100
直辖市	14101
介绍	14102
只见	14103
胜利	14104
认识	14105
人数	14106
姑娘	14107
积极	14108
家庭	14109
之前	14110
更加	14111
回答	14112
武器	14113
那样	14114
应用	14115
市长	14116
来到	14117
设立	14118
产业	14119
公路	14120
人才	14121
意义	14122
台湾	14123
容易	14124
长期	14125
一句	14126
大道	14127
扩大	14128
官员	14129
调整	14130
考虑	14131
联合	14132
并且	14133
自由	14134
仍然	14135
拥有	14136
民主	14137
专门	14138
附近	14139
一天	14140
师父	14141
结合	14142
清楚	14143
说明	14144
稳定	14145
古代	14146
三个	14147
此时	14148
物质	14149
电话	14150
网络	14151
利益	14152
然而	14153
很大	14154
不少	14155
中学	14156
开放	14157
调查	14158
人家	14159
重新	14160
广泛	14161
分为	14162
知识	14163
别人	14164
综合	14165
出口	14166
动物	14167
速度	14168
总理	14169
脸上	14170
用于	14171
设备	14172
女人	14173
股东	14174
作出	14175
展开	14176
措施	14177
通常	14178
电子	14179
方向	14180
导弹	14181
小时	14182
平民	14183
行业	14184
特色	14185
货币	14186
完善	14187
地理	14188
功能	14189
香港	14190
巨大	14191
发表	14192
性质	14193
母亲	14194
质量	14195
命令	14196
和平	14197
监督	14198
一年	14199
身体	14200
面前	14201
武功	14202
位置	14203
体系	14204
越来越	14205
逐渐	14206
指出	14207
安排	14208
权利	14209
训练	14210
考试	14211
指挥	14212
却是	14213
指导	14214
发布	14215
除了	14216
从而	14217
感觉	14218
努力	14219
机场	14220
业务	14221
植物	14222
同样	14223
状态	14224
人民代表大会常务委员会	14225
二人	14226
银行	14227
书记	14228
治疗	14229
一阵	14230
所谓	14231
这位	14232
反应	14233
语言	14234
忽然	14235
当年	14236
以下	14237
找到	14238
青年	14239
宣布	14240
恢复	14241
离开	14242
困难	14243
事件	14244
哪里	14245
实在	14246
见到	14247
装备	14248
某些	14249
其它	14250
问道	14251
万元	14252
检察院	14253
平原	14254
经营	14255
多年	14256
往往	14257
苏联	14258
广场	14259
解释	14260
因素	14261
队伍	14262
教授	14263
医院	14264
怎样	14265
男人	14266
双方	14267
减少	14268
考生	14269
当地	14270
多种	14271
经常	14272
各地	14273
生物	14274
平方千米	14275
南京	14276
海军	14277
外交部	14278
真是	14279
心想	14280
外国	14281
财产	14282
全市	14283
本来	14284
两种	14285
有效	14286
尤其	14287
一边	14288
用户	14289
方案	14290
进攻	14291
常委会	14292
机械	14293
参与	14294
充分	14295
从事	14296
尽管	14297
特殊	14298
又称	14299
一块	14300
手段	14301
生命	14302
銆	14303
便是	14304
体育	14305
居民	14306
天安门广场	14307
生长	14308
内部	14309
立即	14310
简单	14311
一片	14312
全国人大常委会	14313
数量	14314
有时	14315
开展	14316
文学	14317
进来	14318
决议	14319
显示	14320
属于	14321
也许	14322
中国共产党	14323
气候	14324
一只	14325
来自	14326
还要	14327
相信	14328
确定	14329
投入	14330
一面	14331
普通	14332
看着	14333
公元	14334
去年	14335
文章	14336
手中	14337
心理	14338
女儿	14339
封建	14340
图片	14341
创造	14342
总统	14343
促进	14344
大型	14345
带来	14346
教师	14347
竟然	14348
较大	14349
看来	14350
若干	14351
反映	14352
每个	14353
每天	14354
食品	14355
坐在	14356
文明	14357
相当	14358
变成	14359
资金	14360
放在	14361
毫米	14362
中间	14363
夫人	14364
相对	14365
大陆	14366
职权	14367
西方	14368
不再	14369
第一次	14370
导致	14371
对方	14372
应当	14373
人民法院	14374
讨论	14375
即使	14376
金融	14377
爱国	14378
证明	14379
制造	14380
构成	14381
老师	14382
担任	14383
区域	14384
一座	14385
殑	14386
院长	14387
计算机	14388
家里	14389
错误	14390
曾经	14391
保障	14392
天安门城楼	14393
创作	14394
强调	14395
连续	14396
运输	14397
看看	14398
分钟	14399
主张	14400
商业	14401
高速	14402
有限公司	14403
真的	14404
只能	14405
天下	14406
贸易	14407
不得	14408
境内	14409
体制	14410
因而	14411
例如	14412
财政	14413
肯定	14414
成绩	14415
一件	14416
音乐	14417
建成	14418
回去	14419
难道	14420
接着	14421
正确	14422
现代化	14423
石首市	14424
以为	14425
处于	14426
大臣	14427
高度	14428
复杂	14429
社区	14430
身子	14431
回到	14432
媒体	14433
俄罗斯	14434
地面	14435
分子	14436
总是	14437
意思	14438
东北	14439
销售	14440
弟子	14441
未来	14442
等等	14443
重视	14444
压力	14445
良好	14446
到底	14447
各个	14448
最终	14449
战斗	14450
航空	14451
之下	14452
一级	14453
里面	14454
数学	14455
全国人民代表大会常务委员会	14456
毕业	14457
竞争	14458
宗教	14459
比例	14460
健康	14461
适应	14462
她们	14463
出版	14464
故事	14465
责任	14466
面对	14467
将军	14468
粮食	14469
政权	14470
各国	14471
鐨	14472
类型	14473
发挥	14474
听说	14475
遗址	14476
南北	14477
立刻	14478
亚洲	14479
正常	14480
女子	14481
培养	14482
就业	14483
大小	14484
秘书长	14485
明确	14486
优势	14487
好像	14488
一场	14489
至少	14490
人士	14491
晚上	14492
特征	14493
确实	14494
贡献	14495
实验	14496
高级	14497
想到	14498
关键	14499
一眼	14500
周围	14501
难以	14502
样子	14503
本报	14504
帝国主义	14505
自治州	14506
一张	14507
相互	14508
是不是	14509
部长	14510
身边	14511
广州	14512
三年	14513
之外	14514
蒙古	14515
发出	14516
只有	14517
比如	14518
理解	14519
刚才	14520
不足	14521
南部	14522
程序	14523
加上	14524
西北	14525
父母	14526
一中	14527
适当	14528
留下	14529
李自成	14530
研制	14531
省级	14532
发达	14533
东部	14534
全国人大	14535
品种	14536
愿意	14537
道路	14538
类似	14539
空军	14540
行使	14541
细胞	14542
空间	14543
形势	14544
西部	14545
小说	14546
妇女	14547
股份	14548
维护	14549
公布	14550
名称	14551
只好	14552
检查	14553
化学	14554
任期	14555
儿童	14556
矛盾	14557
本身	14558
规划	14559
状况	14560
一家	14561
实践	14562
成长	14563
需求	14564
分配	14565
多次	14566
一致	14567
西南	14568
一时	14569
既然	14570
贵族	14571
高兴	14572
全体	14573
美元	14574
统计	14575
事务	14576
体现	14577
名字	14578
不了	14579
产量	14580
始终	14581
最近	14582
长安	14583
英雄	14584
从此	14585
同意	14586
一步	14587
海拔	14588
掌握	14589
普遍	14590
宜昌	14591
招生	14592
攻击	14593
天然	14594
不错	14595
亲自	14596
一旦	14597
相应	14598
观点	14599
实力	14600
中部	14601
听到	14602
再次	14603
更是	14604
突出	14605
全球	14606
条例	14607
人大代表	14608
公元前	14609
经历	14610
进步	14611
上述	14612
抗日	14613
绝对	14614
修改	14615
优秀	14616
至于	14617
河流	14618
发动	14619
审议	14620
计算	14621
数据	14622
关注	14623
女性	14624
职工	14625
资本主义	14626
必要	14627
朝廷	14628
不肯	14629
表明	14630
委员长	14631
主持	14632
常常	14633
遇到	14634
在于	14635
消费	14636
欢迎	14637
想起	14638
日子	14639
条约	14640
协议	14641
公开	14642
行政区划	14643
限制	14644
现实	14645
武昌	14646
强烈	14647
早已	14648
的话	14649
衣服	14650
太阳	14651
河南	14652
广大	14653
正在	14654
胖子	14655
很快	14656
态度	14657
不好	14658
交流	14659
万吨	14660
前面	14661
森林	14662
显然	14663
有所	14664
闯王	14665
一部分	14666
撤销	14667
千米	14668
破坏	14669
双手	14670
江南	14671
阅读	14672
上面	14673
工资	14674
纷纷	14675
北部	14676
种类	14677
无论	14678
深入	14679
推进	14680
石油	14681
进去	14682
地上	14683
效果	14684
团体	14685
倘若	14686
年轻	14687
核心	14688
电影	14689
纺织	14690
形象	14691
果然	14692
意识	14693
常务	14694
垸	14695
显得	14696
规律	14697
平等	14698
山东	14699
加工	14700
只是	14701
洪山区	14702
两侧	14703
列为	14704
加入	14705
大部分	14706
解放	14707
新华社	14708
逐步	14709
担心	14710
下降	14711
电视	14712
表面	14713
工具	14714
第三	14715
网站	14716
制作	14717
设施	14718
天津	14719
成果	14720
各项	14721
预算	14722
寡头	14723
紧张	14724
手机	14725
令狐冲	14726
一系列	14727
势力	14728
记载	14729
外交	14730
搜狐	14731
众多	14732
一把	14733
年底	14734
文物	14735
宣传	14736
日常	14737
检察长	14738
一名	14739
高中	14740
严格	14741
令人	14742
不管	14743
领导人	14744
满足	14745
推动	14746
下午	14747
地下	14748
昨天	14749
随后	14750
认真	14751
大声	14752
生于	14753
成员	14754
明代	14755
创新	14756
不久	14757
遭到	14758
培训	14759
持续	14760
数字	14761
游客	14762
试验	14763
阶级	14764
似的	14765
发射	14766
文字	14767
天门	14768
来看	14769
城楼	14770
公园	14771
空中	14772
软件	14773
习惯	14774
事实	14775
地球	14776
浠	14777
一半	14778
刚刚	14779
手里	14780
武装	14781
不但	14782
任免	14783
张居正	14784
不想	14785
意大利	14786
距离	14787
永远	14788
年间	14789
互相	14790
人大常委会	14791
一段	14792
妻子	14793
妈妈	14794
眼前	14795
元年	14796
对象	14797
听见	14798
四个	14799
变得	14800
彻底	14801
毕竟	14802
快速	14803
朝鲜	14804
失败	14805
临时	14806
一批	14807
利润	14808
多数	14809
那时	14810
路线	14811
其余	14812
划分	14813
唯一	14814
坦克	14815
尚书	14816
概念	14817
来源	14818
充满	14819
降低	14820
四大	14821
慢慢	14822
老人	14823
符合	14824
发布会	14825
小姐	14826
哲学	14827
轻轻	14828
北平	14829
老板	14830
这件	14831
同学	14832
校名	14833
山地	14834
美军	14835
那种	14836
办公室	14837
率领	14838
录取	14839
矿产	14840
当下	14841
别的	14842
咨询	14843
小龙	14844
几天	14845
伸手	14846
五年	14847
各自	14848
自身	14849
判断	14850
哥哥	14851
失去	14852
危机	14853
后面	14854
配合	14855
大事	14856
增强	14857
卫生	14858
金属	14859
成本	14860
文件	14861
加以	14862
丈夫	14863
必然	14864
财富	14865
首都	14866
此后	14867
购买	14868
东南	14869
公共	14870
医生	14871
素质	14872
打击	14873
改善	14874
生态	14875
广东	14876
人生	14877
一带	14878
改为	14879
方针	14880
红色	14881
承认	14882
英语	14883
象征	14884
少数	14885
设置	14886
爆发	14887
飞行	14888
具备	14889
学者	14890
否则	14891
对外	14892
性命	14893
故道	14894
疾病	14895
随即	14896
不禁	14897
大明	14898
百姓	14899
缺乏	14900
院校	14901
功夫	14902
成分	14903
伟大	14904
投票	14905
闭会	14906
完整	14907
机制	14908
起义	14909
几年	14910
国民经济	14911
打开	14912
屽	14913
村委会	14914
考察	14915
皇城	14916
答应	14917
演出	14918
相比	14919
最早	14920
观念	14921
营养	14922
运用	14923
行者	14924
职务	14925
本人	14926
面临	14927
第一个	14928
吸收	14929
流通	14930
现场	14931
协调	14932
抓住	14933
海洋	14934
对手	14935
承担	14936
交易	14937
原料	14938
自治县	14939
邓小平	14940
是从	14941
针对	14942
外面	14943
争取	14944
发育	14945
桃花	14946
事物	14947
风险	14948
奴隶	14949
少年	14950
召集	14951
叫做	14952
推出	14953
教学	14954
鏄	14955
作者	14956
化工	14957
论坛	14958
出席	14959
贷款	14960
东方	14961
再也	14962
理想	14963
游行	14964
究竟	14965
下面	14966
危险	14967
年均	14968
上来	14969
平衡	14970
清代	14971
大规模	14972
寻找	14973
非洲	14974
和尚	14975
不必	14976
兴趣	14977
温度	14978
团结	14979
转移	14980
国民	14981
省长	14982
患者	14983
机器	14984
中共中央	14985
病人	14986
宝玉	14987
威胁	14988
而言	14989
两次	14990
奇怪	14991
相反	14992
厘米	14993
估计	14994
情绪	14995
密切	14996
出发	14997
招聘	14998
一道	14999
大学生	15000
传播	15001
合理	15002
民间	15003
主人	15004
点头	15005
大约	15006
长江大桥	15007
依据	15008
放心	15009
国外	15010
江夏区	15011
北方	15012
厉害	15013
本行政区域	15014
改造	15015
明朝	15016
固定	15017
太监	15018
停止	15019
移动	15020
一支	15021
强大	15022
秘密	15023
前提	15024
避免	15025
休息	15026
街道	15027
高校	15028
推荐	15029
夏天	15030
伊朗	15031
产值	15032
并非	15033
模式	15034
年龄	15035
性能	15036
演习	15037
感情	15038
审判	15039
维持	15040
费用	15041
志愿	15042
太庙	15043
客户	15044
尚未	15045
已有	15046
极大	15047
适合	15048
王朝	15049
一页	15050
校长	15051
一口	15052
更新	15053
这儿	15054
首次	15055
宫廷	15056
整体	15057
自治	15058
四川	15059
区别	15060
资产阶级	15061
及时	15062
地方性	15063
门外	15064
左手	15065
风格	15066
巴黎	15067
江陵	15068
早期	15069
员工	15070
上升	15071
版本	15072
成熟	15073
几句	15074
南方	15075
涉及	15076
两年	15077
空气	15078
国防	15079
旁边	15080
操作	15081
药物	15082
近年来	15083
负责人	15084
方便	15085
全身	15086
门口	15087
候选人	15088
有点	15089
不在	15090
局面	15091
银子	15092
突破	15093
由此	15094
建造	15095
各类	15096
士兵	15097
一份	15098
康熙	15099
两位	15100
转化	15101
议会	15102
开发区	15103
槸	15104
心情	15105
回头	15106
帝国	15107
十年	15108
县级	15109
独特	15110
湖南	15111
公斤	15112
依然	15113
微笑	15114
标志	15115
棉花	15116
战士	15117
十堰	15118
大多数	15119
规范	15120
平台	15121
成就	15122
升级	15123
新型	15124
交换	15125
拒绝	15126
证券	15127
大人	15128
合同	15129
直播	15130
日期	15131
战场	15132
高考	15133
统治者	15134
喝道	15135
崇祯	15136
股权	15137
渐渐	15138
军警	15139
明清	15140
一番	15141
废除	15142
走向	15143
从来	15144
反而	15145
平时	15146
多个	15147
举办	15148
算是	15149
简称	15150
装置	15151
公主	15152
此次	15153
沿海	15154
痛苦	15155
重庆	15156
加速	15157
不行	15158
主动	15159
损失	15160
转变	15161
共产党	15162
市民	15163
杩	15164
之上	15165
平方公里	15166
劳动力	15167
发行	15168
接近	15169
备案	15170
重建	15171
一生	15172
医疗	15173
使得	15174
国有	15175
湖泊	15176
加快	15177
审查	15178
生存	15179
评价	15180
规则	15181
记录	15182
澶	15183
工厂	15184
脸色	15185
累计	15186
大大	15187
祖国	15188
阳光	15189
右手	15190
时刻	15191
著作	15192
客人	15193
以外	15194
医学	15195
给予	15196
原始	15197
学科	15198
典型	15199
仪式	15200
电脑	15201
上去	15202
医药	15203
满意	15204
到处	15205
做法	15206
立场	15207
害怕	15208
进口	15209
补充	15210
运行	15211
北京市	15212
地址	15213
支付	15214
资格	15215
优良	15216
日军	15217
韩国	15218
国家级	15219
博士	15220
传说	15221
少数民族	15222
居住	15223
采访	15224
目光	15225
食物	15226
动力	15227
占领	15228
另一方面	15229
防止	15230
太太	15231
土壤	15232
异常	15233
依照	15234
作家	15235
民族乡	15236
行情	15237
恐怕	15238
某种	15239
人马	15240
接触	15241
总结	15242
有着	15243
动作	15244
种种	15245
幸福	15246
背景	15247
原种	15248
江苏	15249
死亡	15250
理由	15251
部署	15252
集体	15253
大概	15254
同一	15255
毕业生	15256
至今	15257
年纪	15258
人体	15259
武当山	15260
国王	15261
年度	15262
观察	15263
吸引	15264
所说	15265
做出	15266
手术	15267
案件	15268
道理	15269
全年	15270
初步	15271
解放军	15272
最佳	15273
小学	15274
总人口	15275
相似	15276
大桥	15277
极为	15278
仅仅	15279
可惜	15280
总额	15281
男子	15282
博物馆	15283
签订	15284
不由得	15285
此刻	15286
很少	15287
原理	15288
点亮	15289
引用	15290
明天	15291
高原	15292
大门	15293
关心	15294
等于	15295
邀请	15296
转身	15297
授予	15298
陆军	15299
两者	15300
水产	15301
一大	15302
允许	15303
角度	15304
大多	15305
早就	15306
上级	15307
资产	15308
赶快	15309
道德	15310
黄河	15311
剩下	15312
眼见	15313
改进	15314
说法	15315
春秋	15316
电力	15317
亿美元	15318
值得	15319
海上	15320
真实	15321
职能	15322
改称	15323
吩咐	15324
学术	15325
品牌	15326
交给	15327
科研	15328
低声	15329
分类	15330
季节	15331
一会儿	15332
上市	15333
系列	15334
回家	15335
日益	15336
色彩	15337
房子	15338
河北	15339
微微	15340
设有	15341
放弃	15342
之所以	15343
一会	15344
冠军	15345
居然	15346
此事	15347
万亩	15348
选民	15349
坚决	15350
研究所	15351
远远	15352
同年	15353
打算	15354
登时	15355
依靠	15356
皇后	15357
协会	15358
这场	15359
适用	15360
谈判	15361
消费者	15362
云南	15363
队员	15364
中共	15365
太子	15366
通知	15367
当即	15368
个别	15369
仿佛	15370
仙桃	15371
命运	15372
小组	15373
基金	15374
永乐	15375
到达	15376
颜色	15377
不得不	15378
头发	15379
三峡	15380
投降	15381
第四	15382
分享	15383
陕西	15384
十堰市	15385
上午	15386
表演	15387
访问	15388
黄金	15389
地图	15390
而已	15391
种植	15392
建国	15393
一股	15394
动手	15395
吃饭	15396
荆州市	15397
华北	15398
有利于	15399
保存	15400
走出	15401
罗马	15402
周恩来	15403
消失	15404
抗战	15405
网页	15406
再说	15407
追求	15408
大哥	15409
露出	15410
卫星	15411
动态	15412
熟悉	15413
取消	15414
人均	15415
今后	15416
流行	15417
取出	15418
合法	15419
竴	15420
趋势	15421
地势	15422
本次	15423
用来	15424
美丽	15425
过渡	15426
屾	15427
第二次	15428
深刻	15429
向前	15430
繁殖	15431
风味	15432
浙江	15433
奶奶	15434
地质	15435
每次	15436
这般	15437
小子	15438
犯罪	15439
午门	15440
老婆	15441
表达	15442
家长	15443
等待	15444
通信	15445
仔细	15446
最初	15447
遗产	15448
老百姓	15449
八年	15450
头上	15451
鱼类	15452
要是	15453
听取	15454
一部	15455
风景	15456
鍙	15457
将领	15458
联合国	15459
衙门	15460
批评	15461
侵略	15462
人民币	15463
结婚	15464
正义	15465
所在地	15466
社稷	15467
后者	15468
门前	15469
前进	15470
提名	15471
决策	15472
爹爹	15473
初期	15474
官兵	15475
顺利	15476
一方面	15477
最为	15478
公众	15479
袁承志	15480
首页	15481
高速公路	15482
包含	15483
演员	15484
礼部	15485
秩序	15486
自动	15487
根据地	15488
鍦	15489
称号	15490
雷达	15491
广告	15492
含量	15493
编制	15494
客观	15495
股票	15496
更为	15497
贯彻	15498
一路	15499
只得	15500
合并	15501
秘书	15502
当选	15503
前来	15504
游戏	15505
注重	15506
两岸	15507
议案	15508
激烈	15509
一类	15510
太后	15511
港口	15512
主意	15513
多么	15514
文艺	15515
据说	15516
模型	15517
埃及	15518
西班牙	15519
银鱼	15520
主管	15521
潜艇	15522
药品	15523
反复	15524
或是	15525
航线	15526
大军	15527
荣誉	15528
观众	15529
一项	15530
无人	15531
刺激	15532
未必	15533
前后	15534
自然保护区	15535
黄冈	15536
申请	15537
摇头	15538
宋江	15539
最新	15540
宜昌市	15541
含有	15542
大师	15543
笔架	15544
本科	15545
主体	15546
绿色	15547
哪些	15548
得名	15549
忍不住	15550
一套	15551
防御	15552
气温	15553
不用	15554
商人	15555
有限	15556
中原	15557
流域	15558
大清	15559
红军	15560
热情	15561
将来	15562
自我	15563
人工	15564
蒋介石	15565
山区	15566
各部	15567
味道	15568
想着	15569
杭州	15570
制成	15571
推广	15572
深圳	15573
片刻	15574
立法	15575
途径	15576
公安	15577
屼	15578
所在	15579
好吃	15580
笉	15581
次数	15582
省内	15583
诗人	15584
享受	15585
积累	15586
科学家	15587
流动	15588
四周	15589
战役	15590
授权	15591
没想到	15592
一招	15593
一根	15594
其次	15595
成都	15596
一齐	15597
预计	15598
享有	15599
地处	15600
治理	15601
课程	15602
暂时	15603
皮肤	15604
一层	15605
经理	15606
马克思主义	15607
发明	15608
白色	15609
战术	15610
事实上	15611
县长	15612
执政	15613
对付	15614
江湖	15615
君主	15616
出于	15617
姐姐	15618
走进	15619
万公顷	15620
内阁	15621
出身	15622
党中央	15623
冲突	15624
排列	15625
战国	15626
骑兵	15627
夫妇	15628
军人	15629
少女	15630
袁世凯	15631
全世界	15632
太平洋	15633
显著	15634
之际	15635
投诉	15636
报纸	15637
婚姻	15638
校园	15639
人人	15640
落后	15641
基本上	15642
物理	15643
黄石	15644
就算	15645
长沙	15646
商量	15647
路上	15648
只怕	15649
不许	15650
激动	15651
大街	15652
山西	15653
古老	15654
政协	15655
读者	15656
企图	15657
工艺	15658
污染	15659
能量	15660
身份	15661
声明	15662
做到	15663
协定	15664
大典	15665
纪念	15666
这话	15667
总面积	15668
现有	15669
养殖	15670
主题	15671
新疆	15672
海外	15673
伊拉克	15674
简介	15675
扩展	15676
准确	15677
到来	15678
汉白玉	15679
盆地	15680
地震	15681
正好	15682
降水量	15683
天气	15684
四年	15685
联盟	15686
一度	15687
探索	15688
富有	15689
不够	15690
函数	15691
主力	15692
即将	15693
图案	15694
胡秉宸	15695
万岁	15696
面试	15697
中华民族	15698
好好	15699
学会	15700
保险	15701
学位	15702
指示	15703
王国	15704
信心	15705
储量	15706
眼泪	15707
要素	15708
俄国	15709
调节	15710
情形	15711
感受	15712
气氛	15713
呼吸	15714
半天	15715
李鸿章	15716
修建	15717
供应	15718
挑战	15719
建有	15720
钢铁	15721
气体	15722
组合	15723
爱情	15724
自主	15725
丝毫	15726
佸	15727
赶紧	15728
地带	15729
抵触	15730
提醒	15731
紧急	15732
透露	15733
参考	15734
西藏	15735
佛教	15736
江西	15737
洞庭湖	15738
坐下	15739
测量	15740
进程	15741
延伸	15742
文化大革命	15743
十五	15744
发动机	15745
热带	15746
禁止	15747
继承	15748
有力	15749
第二天	15750
领袖	15751
西安	15752
兴奋	15753
循环	15754
资本家	15755
武昌区	15756
事项	15757
沟通	15758
近代	15759
初中	15760
表决	15761
友好	15762
可见	15763
两只	15764
做好	15765
希腊	15766
总数	15767
足够	15768
男性	15769
常见	15770
形态	15771
想法	15772
后期	15773
大叫	15774
无不	15775
讲话	15776
连接	15777
收费	15778
提到	15779
差不多	15780
截止	15781
症状	15782
吴三桂	15783
记得	15784
检察	15785
东京	15786
哊	15787
颁布	15788
高新技术	15789
几次	15790
详细	15791
前往	15792
返回	15793
司法	15794
大力	15795
优质	15796
开国	15797
怀疑	15798
战斗机	15799
酒店	15800
与其	15801
性格	15802
影片	15803
不如	15804
大批	15805
快乐	15806
手指	15807
司令	15808
总量	15809
提升	15810
码头	15811
总体	15812
构造	15813
最高人民法院	15814
场所	15815
网上	15816
朱元璋	15817
一回	15818
看法	15819
房间	15820
不让	15821
说完	15822
毫无	15823
顺治	15824
黑暗	15825
职位	15826
丘陵	15827
自从	15828
随时	15829
之类	15830
临床	15831
之内	15832
正门	15833
政党	15834
任职	15835
指标	15836
留在	15837
悠久	15838
更好	15839
董事会	15840
市区	15841
县市	15842
爸爸	15843
兵力	15844
总产值	15845
辐射	15846
杂志	15847
确立	15848
光绪	15849
总督	15850
中华	15851
保留	15852
测试	15853
效率	15854
相继	15855
私人	15856
变革	15857
小心	15858
局部	15859
沉重	15860
景点	15861
谈话	15862
乾隆	15863
木材	15864
中央人民政府	15865
所属	15866
当前	15867
予以	15868
最低	15869
合适	15870
当真	15871
此人	15872
镇压	15873
灵魂	15874
扩张	15875
分裂	15876
选手	15877
两天	15878
主义	15879
生气	15880
鈥	15881
江泽民	15882
将士	15883
出售	15884
结论	15885
密度	15886
忘记	15887
曹操	15888
轨道	15889
一对	15890
无数	15891
个体	15892
李高成	15893
姑姑	15894
决心	15895
高手	15896
草原	15897
出入	15898
信号	15899
受伤	15900
无产阶级	15901
品德	15902
教主	15903
一遍	15904
伸出	15905
老爷	15906
上涨	15907
共和国	15908
像是	15909
迎接	15910
尊重	15911
安装	15912
腐败	15913
引进	15914
不论	15915
把握	15916
鼓励	15917
人群	15918
搜索	15919
最高人民检察院	15920
随州	15921
专题	15922
差别	15923
外资	15924
千万	15925
有没有	15926
依法	15927
地点	15928
命名	15929
国家机关	15930
简直	15931
始建	15932
何况	15933
慈禧	15934
有机	15935
较为	15936
被迫	15937
读书	15938
各省	15939
行政区	15940
倾向	15941
领土	15942
有权	15943
英文	15944
战胜	15945
频率	15946
布局	15947
病毒	15948
传来	15949
生成	15950
黑色	15951
一处	15952
言语	15953
输出	15954
军阀	15955
一下子	15956
荷兰	15957
怎么样	15958
黄石市	15959
洛阳	15960
想象	15961
二年	15962
在内	15963
就要	15964
特产	15965
陛下	15966
周期	15967
自行	15968
科学技术	15969
鍚	15970
军官	15971
实验室	15972
岗位	15973
城乡	15974
办事	15975
沉默	15976
退出	15977
宇宙	15978
法院	15979
当中	15980
指数	15981
分离	15982
诏书	15983
鍒	15984
单独	15985
剩余价值	15986
原子	15987
如同	15988
工作人员	15989
消除	15990
马上	15991
照片	15992
意味着	15993
一顿	15994
接待	15995
鄂西	15996
竟是	15997
组成部分	15998
胸口	15999
民政	16000
牺牲	16001
选出	16002
婆婆	16003
文库	16004
流通股	16005
身后	16006
布置	16007
一身	16008
有利	16009
嘉靖	16010
他人	16011
描述	16012
与此同时	16013
混合	16014
原有	16015
顿时	16016
感染	16017
障碍	16018
桌上	16019
一日	16020
神色	16021
签署	16022
基督教	16023
收拾	16024
大厅	16025
加大	16026
占有	16027
故意	16028
下岗	16029
唐代	16030
院子	16031
亚热带	16032
合成	16033
脑袋	16034
城里	16035
代替	16036
五一	16037
历代	16038
两条	16039
般的	16040
常用	16041
正阳门	16042
不见	16043
排名	16044
目录	16045
示威	16046
询问	16047
伦敦	16048
长老	16049
同事	16050
哪儿	16051
住房	16052
球队	16053
分成	16054
半个	16055
反抗	16056
反动	16057
旅行社	16058
能源	16059
转过	16060
批判	16061
昨日	16062
冷笑	16063
得以	16064
思维	16065
好处	16066
那天	16067
落实	16068
为何	16069
思考	16070
攻关	16071
夫妻	16072
遭受	16073
教训	16074
适宜	16075
大夫	16076
展示	16077
武林	16078
门户	16079
三分	16080
投资者	16081
千步	16082
意外	16083
愤怒	16084
差异	16085
深处	16086
起身	16087
城镇	16088
当局	16089
沙漠	16090
指着	16091
提前	16092
郧阳	16093
紧紧	16094
青岛	16095
消灭	16096
见面	16097
评论	16098
效益	16099
节目	16100
赋予	16101
懂得	16102
水中	16103
只不过	16104
物资	16105
正当	16106
内地	16107
宫女	16108
尽量	16109
福建	16110
戏剧	16111
转向	16112
一门	16113
土司	16114
孙中山	16115
策略	16116
中期	16117
体内	16118
以便	16119
反正	16120
彼此	16121
急忙	16122
夺取	16123
普查	16124
江汉平原	16125
引导	16126
创办	16127
尸体	16128
麋鹿	16129
局长	16130
照顾	16131
暗暗	16132
模样	16133
口味	16134
城门	16135
如下	16136
抗日战争	16137
无疑	16138
陆续	16139
荆门	16140
妹妹	16141
林区	16142
请求	16143
不变	16144
兴建	16145
主持人	16146
说出	16147
日前	16148
城内	16149
上下	16150
争夺	16151
办理	16152
汉子	16153
名叫	16154
耳朵	16155
施工	16156
释放	16157
得知	16158
水面	16159
同比	16160
的确	16161
乡村	16162
人力	16163
发起	16164
鍏	16165
高等	16166
开辟	16167
口径	16168
明星	16169
通道	16170
主权	16171
大都	16172
战机	16173
凡是	16174
群岛	16175
老子	16176
车程	16177
防空	16178
刑部	16179
鎴	16180
效应	16181
既有	16182
黄色	16183
义和团	16184
宫殿	16185
神农架	16186
联赛	16187
没什么	16188
侦察	16189
一方	16190
神秘	16191
走上	16192
京城	16193
前者	16194
导演	16195
节日	16196
鏉	16197
服从	16198
官军	16199
官吏	16200
一代	16201
国土	16202
孝感	16203
以北	16204
低于	16205
整顿	16206
蛋白质	16207
示范区	16208
经典	16209
考研	16210
考核	16211
又名	16212
当初	16213
脚步	16214
棋盘	16215
光荣	16216
阿哥	16217
南海	16218
陈家洛	16219
季度	16220
蔬菜	16221
连忙	16222
也好	16223
黑鱼	16224
内心	16225
繁荣	16226
下令	16227
印象	16228
历来	16229
缓缓	16230
覆盖	16231
爷爷	16232
鱼肚	16233
会上	16234
上年	16235
即便	16236
不免	16237
权威	16238
进士	16239
庄严	16240
长剑	16241
全都	16242
聪明	16243
加拿大	16244
中华人民共和国中央军事委员会	16245
特定	16246
围绕	16247
本质	16248
小小的	16249
义务	16250
逻辑	16251
麻烦	16252
平面	16253
床上	16254
论述	16255
航海	16256
随便	16257
一个个	16258
一颗	16259
北京大学	16260
澳大利亚	16261
线路	16262
代码	16263
表情	16264
剅	16265
精彩	16266
桌子	16267
南京市	16268
诞生	16269
收购	16270
课题	16271
河道	16272
足球	16273
以色列	16274
意志	16275
旅游区	16276
种子	16277
概况	16278
一群	16279
不停	16280
万美元	16281
回族	16282
瞧瞧	16283
正要	16284
生产力	16285
近日	16286
仅次于	16287
想要	16288
当日	16289
不下	16290
舞蹈	16291
中国队	16292
声响	16293
干涉	16294
汉族	16295
岩石	16296
入侵	16297
辛亥革命	16298
双眼	16299
职司	16300
总部	16301
不住	16302
并未	16303
沿革	16304
派出	16305
热闹	16306
进展	16307
为首	16308
部落	16309
翻译	16310
创建	16311
巩固	16312
预防	16313
形状	16314
所长	16315
祭祀	16316
便宜	16317
改名	16318
预测	16319
各位	16320
等级	16321
相连	16322
眼光	16323
取代	16324
海藻	16325
东汉	16326
宣告	16327
汉口	16328
评为	16329
混乱	16330
列入	16331
嘴里	16332
名牌	16333
极其	16334
庆典	16335
支援	16336
老太太	16337
太空	16338
基层	16339
爆炸	16340
王琦瑶	16341
神经	16342
更名	16343
深深	16344
业绩	16345
大致	16346
天地	16347
信任	16348
冲击	16349
基因	16350
玻璃	16351
部位	16352
场合	16353
平方米	16354
遵守	16355
人选	16356
舞台	16357
满脸	16358
出生	16359
打破	16360
轻松	16361
参观	16362
万平方米	16363
委托	16364
悬挂	16365
师傅	16366
研发	16367
局势	16368
任命	16369
赶到	16370
步兵	16371
确保	16372
市委	16373
带有	16374
热烈	16375
神情	16376
三级	16377
光华	16378
南路	16379
学说	16380
航运	16381
血液	16382
依次	16383
精品	16384
俱乐部	16385
图册	16386
城墙	16387
损害	16388
鲜血	16389
李莫愁	16390
石头	16391
平日	16392
集合	16393
以往	16394
剑法	16395
水力	16396
缺少	16397
侍卫	16398
全长	16399
兴起	16400
可怕	16401
理性	16402
共和	16403
负担	16404
那儿	16405
代理	16406
平静	16407
特性	16408
直升机	16409
知识分子	16410
频繁	16411
州长	16412
手臂	16413
话题	16414
人间	16415
不良	16416
每日	16417
会见	16418
手上	16419
日月	16420
配套	16421
生产总值	16422
不该	16423
号称	16424
街头	16425
拿出	16426
一口气	16427
这时候	16428
维生素	16429
整理	16430
边缘	16431
深度	16432
城中	16433
屋里	16434
为止	16435
大气	16436
姓名	16437
眼下	16438
原本	16439
宋代	16440
年轻人	16441
观看	16442
却说	16443
推行	16444
漂亮	16445
通往	16446
对待	16447
广播	16448
携带	16449
画家	16450
公告	16451
那位	16452
家族	16453
帝王	16454
本地	16455
法制	16456
一副	16457
一头	16458
负责制	16459
明日	16460
元素	16461
法庭	16462
说不定	16463
山脉	16464
视为	16465
侵略者	16466
澳门	16467
聚集	16468
车辆	16469
支配	16470
上海市	16471
信仰	16472
炮弹	16473
可怜	16474
相当于	16475
陷入	16476
前辈	16477
面向	16478
大米	16479
无比	16480
渔业	16481
经费	16482
清朝	16483
总经理	16484
省直	16485
带领	16486
关闭	16487
回国	16488
抬头	16489
沿岸	16490
请愿	16491
情报	16492
国内外	16493
摆脱	16494
外贸	16495
承诺	16496
藏族	16497
两名	16498
事儿	16499
手法	16500
送到	16501
宫中	16502
绘画	16503
利害	16504
心头	16505
装甲	16506
贫困	16507
不满	16508
纤维	16509
世上	16510
亲兵	16511
伊斯兰教	16512
湖南省	16513
街上	16514
何必	16515
服装	16516
火箭	16517
论文	16518
哪个	16519
射击	16520
江夏	16521
党员	16522
协助	16523
媳妇	16524
那边	16525
房屋	16526
器官	16527
角色	16528
东湖	16529
抵抗	16530
哈哈	16531
安徽	16532
二级	16533
省委	16534
不幸	16535
增加值	16536
恩施	16537
通用	16538
五个	16539
工匠	16540
干净	16541
改建	16542
水系	16543
阿拉伯	16544
十八年	16545
当作	16546
天天	16547
当今	16548
渠道	16549
遭遇	16550
我军	16551
视频	16552
古墓	16553
接过	16554
达成	16555
什么样	16556
天空	16557
岃	16558
或许	16559
才能	16560
中外	16561
名城	16562
市场经济	16563
管辖	16564
子女	16565
扩建	16566
能否	16567
马朝旭	16568
采购	16569
个个	16570
职责	16571
兵刃	16572
议事	16573
首领	16574
感动	16575
舰队	16576
鱼苗	16577
光芒	16578
老者	16579
封锁	16580
食用	16581
可用	16582
疼痛	16583
买卖	16584
尽快	16585
选拔	16586
武装力量	16587
舆论	16588
人为	16589
南京长江大桥	16590
重复	16591
回过	16592
大学士	16593
欣赏	16594
律师	16595
号召	16596
行省	16597
名单	16598
定义	16599
收到	16600
财务	16601
一辈子	16602
不利	16603
景观	16604
十五年	16605
宣言	16606
莫斯科	16607
研究生	16608
经济特区	16609
边界	16610
比重	16611
互联网	16612
人民公社	16613
政治部	16614
总裁	16615
群体	16616
阵地	16617
一个月	16618
内外	16619
内战	16620
强度	16621
免费	16622
启动	16623
登记	16624
脖子	16625
十三	16626
点点头	16627
司令部	16628
美术	16629
孝感市	16630
立时	16631
复习	16632
奠定	16633
公子	16634
地形	16635
对抗	16636
技艺	16637
树立	16638
黄冈市	16639
匾额	16640
增多	16641
自觉	16642
递增	16643
伤害	16644
杀人	16645
演变	16646
指挥部	16647
屋子	16648
皇家	16649
民众	16650
船舶	16651
乃是	16652
代表团	16653
生理	16654
查看	16655
力度	16656
鼻子	16657
出土	16658
其间	16659
危害	16660
上游	16661
列车	16662
截至	16663
基于	16664
呈现	16665
过于	16666
领先	16667
军民	16668
时机	16669
球员	16670
情景	16671
工部	16672
测定	16673
物体	16674
野生	16675
事故	16676
后果	16677
高于	16678
健全	16679
兵团	16680
封闭	16681
胡同	16682
决赛	16683
变动	16684
治安	16685
一双	16686
犯人	16687
背上	16688
差距	16689
紫禁城	16690
纽约	16691
微软	16692
肿瘤	16693
低头	16694
建筑群	16695
答案	16696
中文	16697
月份	16698
刘备	16699
火山	16700
蒙古族	16701
权益	16702
桥梁	16703
正中	16704
鍑	16705
初级	16706
官方	16707
弟兄	16708
提议	16709
添加	16710
全党	16711
风光	16712
信用	16713
家中	16714
抑制	16715
施行	16716
第二次世界大战	16717
地主	16718
饮食	16719
开创	16720
大国	16721
大将	16722
胪	16723
边境	16724
几种	16725
境界	16726
晶体	16727
等候	16728
高大	16729
罢了	16730
肚子	16731
打倒	16732
自成	16733
五代	16734
瀹	16735
辖区	16736
名额	16737
旁人	16738
睡觉	16739
商议	16740
肌肉	16741
这方面	16742
层次	16743
各人	16744
广西	16745
此处	16746
推翻	16747
半晌	16748
模拟	16749
毫不	16750
支柱	16751
收益	16752
不顾	16753
周边	16754
玉米	16755
奴才	16756
传递	16757
次日	16758
生意	16759
波斯	16760
精华	16761
出门	16762
占据	16763
口号	16764
南非	16765
年初	16766
公社	16767
华表	16768
张无忌	16769
诊断	16770
名片	16771
感谢	16772
标语	16773
善于	16774
必定	16775
景区	16776
脱离	16777
万平方公里	16778
何处	16779
老人家	16780
团长	16781
化石	16782
文献	16783
师兄	16784
输入	16785
会谈	16786
指定	16787
沿着	16788
引发	16789
无限	16790
眼里	16791
顾问	16792
开封	16793
各界	16794
丧失	16795
敏感	16796
生效	16797
穷人	16798
草案	16799
新鲜	16800
证书	16801
抬起	16802
运动员	16803
锻炼	16804
体验	16805
队长	16806
垄断	16807
八戒	16808
称之为	16809
履行	16810
工商	16811
城外	16812
小麦	16813
直径	16814
奋斗	16815
西北部	16816
道教	16817
化合物	16818
单纯	16819
送给	16820
千克	16821
正面	16822
维修	16823
议论	16824
警察	16825
宏观	16826
名义	16827
一一	16828
参数	16829
统帅	16830
区长	16831
格局	16832
一手	16833
教练	16834
钱谦益	16835
万历	16836
古城	16837
合格	16838
娱乐	16839
用力	16840
前景	16841
垜	16842
天子	16843
一夜	16844
土家族	16845
依赖	16846
鏃	16847
少林	16848
艰难	16849
上前	16850
变为	16851
海底	16852
行政区域	16853
佳肴	16854
动员	16855
大地	16856
派遣	16857
直至	16858
缁	16859
党委	16860
大体	16861
适才	16862
预期	16863
不易	16864
大队	16865
世界杯	16866
招呼	16867
难得	16868
不难	16869
丫头	16870
南湖	16871
小型	16872
江汉	16873
不算	16874
手续	16875
严肃	16876
定位	16877
流传	16878
当代	16879
东南亚	16880
转换	16881
总司令	16882
提起	16883
清政府	16884
湁	16885
非法	16886
公平	16887
淡水鱼	16888
苏州	16889
袭击	16890
看出	16891
总产量	16892
愿望	16893
打死	16894
数目	16895
院士	16896
花岗岩	16897
小人	16898
父子	16899
跪下	16900
黄宗羲	16901
火炮	16902
两边	16903
产卵	16904
十四	16905
网友	16906
六年	16907
固然	16908
勫	16909
装饰	16910
西汉	16911
两代	16912
中等	16913
外界	16914
汉人	16915
海峡	16916
产物	16917
巴西	16918
活跃	16919
思路	16920
打听	16921
水泥	16922
交往	16923
环节	16924
会长	16925
弟弟	16926
怎地	16927
画像	16928
王爷	16929
八国联军	16930
持有	16931
被捕	16932
海岸	16933
半年	16934
说起	16935
阻止	16936
一行	16937
力学	16938
十大	16939
多半	16940
头顶	16941
仍旧	16942
历时	16943
湪	16944
口中	16945
岛屿	16946
煤炭	16947
当天	16948
精细	16949
南阳	16950
身旁	16951
披露	16952
击败	16953
庆祝	16954
心思	16955
情感	16956
伙伴	16957
大幅	16958
汉语	16959
证实	16960
单行	16961
同期	16962
重量	16963
待遇	16964
生涯	16965
鄂州	16966
不怕	16967
以南	16968
例子	16969
包围	16970
諲	16971
咸宁	16972
报名	16973
温暖	16974
激素	16975
联邦	16976
赛季	16977
婴儿	16978
模范	16979
房地产	16980
收集	16981
清晰	16982
制约	16983
受命	16984
事先	16985
场面	16986
殖民地	16987
客运	16988
壮丽	16989
规矩	16990
棺材	16991
紧密	16992
半点	16993
去世	16994
检验	16995
海水	16996
配置	16997
小孩	16998
杀死	16999
北京城	17000
报考	17001
瑞士	17002
沔	17003
现行	17004
庞大	17005
智慧	17006
人口数	17007
以致	17008
冬季	17009
北大	17010
远处	17011
发掘	17012
建制	17013
贡献者	17014
下游	17015
和谐	17016
王公	17017
哈哈大笑	17018
黄州	17019
匆匆	17020
收回	17021
繖	17022
记忆	17023
波兰	17024
鱼种	17025
农产品	17026
可能性	17027
安陆	17028
概览	17029
白雪	17030
讲究	17031
防守	17032
民国	17033
兵器	17034
工程师	17035
诉讼	17036
确认	17037
创立	17038
团子	17039
往来	17040
感激	17041
无奈	17042
援助	17043
本事	17044
河口	17045
脚下	17046
一律	17047
保卫	17048
暗中	17049
征服	17050
注入	17051
深受	17052
技巧	17053
汇报	17054
品质	17055
墙上	17056
诗歌	17057
风景区	17058
主席团	17059
不料	17060
干扰	17061
脾气	17062
长城	17063
北纬	17064
广阔	17065
登上	17066
内力	17067
大为	17068
誉为	17069
溶液	17070
短期	17071
高峰	17072
丐帮	17073
旅客	17074
中华门	17075
燃烧	17076
鄂州市	17077
仙桃市	17078
协商	17079
荆门市	17080
凭借	17081
分支	17082
图书馆	17083
木工	17084
核武器	17085
垂直	17086
屈家岭	17087
对面	17088
一刀	17089
冰川	17090
垱	17091
碰到	17092
观测	17093
压迫	17094
可靠	17095
家伙	17096
怀里	17097
描写	17098
菩萨	17099
咸宁市	17100
节度使	17101
经济学	17102
齐声	17103
满洲	17104
现存	17105
命题	17106
必备	17107
百年	17108
长度	17109
增大	17110
相等	17111
华山	17112
大胆	17113
越是	17114
湖北省人民政府	17115
西晋	17116
勇气	17117
山上	17118
汉江	17119
匈奴	17120
天鹅洲	17121
综合性	17122
极端	17123
亿立方米	17124
用作	17125
周年	17126
物品	17127
越南	17128
不安	17129
个性	17130
写作	17131
制品	17132
可谓	17133
各族	17134
伤口	17135
创业	17136
甘肃	17137
鍐	17138
悄悄	17139
时辰	17140
一体	17141
祖先	17142
作业	17143
文武	17144
作风	17145
大众	17146
据悉	17147
大殿	17148
发言	17149
手工业	17150
每当	17151
海域	17152
防治	17153
鲜明	17154
半岛	17155
孤立	17156
简历	17157
雕刻	17158
石英	17159
要说	17160
设想	17161
大西洋	17162
欧盟	17163
从未	17164
付出	17165
城区	17166
总之	17167
省会	17168
精美	17169
难度	17170
零部件	17171
高温	17172
涌现	17173
登陆	17174
气象	17175
缓慢	17176
违反	17177
天主教	17178
欧阳锋	17179
眼中	17180
本月	17181
水果	17182
鎵	17183
今晚	17184
姊妹	17185
完美	17186
椅子	17187
第二个	17188
纠正	17189
打败	17190
鲁迅	17191
拆除	17192
减轻	17193
得罪	17194
水利	17195
起源	17196
粒子	17197
重伤	17198
冶金	17199
前去	17200
支撑	17201
造型	17202
全国政协	17203
县城	17204
山水	17205
提问	17206
穴道	17207
友谊	17208
流量	17209
满族	17210
这项	17211
不及	17212
大使	17213
长大	17214
以至	17215
地貌	17216
金殿	17217
三天	17218
枢纽	17219
浑身	17220
精力	17221
茶叶	17222
依旧	17223
国务委员	17224
知名	17225
万一	17226
想想	17227
人民解放军	17228
夏季	17229
泰国	17230
登基	17231
纳入	17232
侍郎	17233
接到	17234
本市	17235
终身	17236
一向	17237
夜晚	17238
沈阳	17239
液体	17240
特有	17241
勉强	17242
生产资料	17243
证据	17244
额外	17245
屋顶	17246
眼看	17247
强化	17248
试图	17249
故里	17250
次年	17251
货物	17252
长安街	17253
不妨	17254
方言	17255
用人	17256
纲领	17257
转头	17258
航班	17259
离子	17260
航母	17261
周伯通	17262
积极性	17263
斯巴达	17264
美好	17265
轻易	17266
会计	17267
克服	17268
通讯	17269
黑龙江	17270
有趣	17271
火车	17272
目的地	17273
元代	17274
地域	17275
手掌	17276
有益	17277
这份	17278
题材	17279
安慰	17280
浏览	17281
出手	17282
进城	17283
一本	17284
开口	17285
农作物	17286
设在	17287
一杯	17288
拿到	17289
认定	17290
力气	17291
恐怖	17292
增添	17293
岛上	17294
一幅	17295
促使	17296
全境	17297
学历	17298
否定	17299
夜里	17300
承受	17301
粬	17302
政治家	17303
白天	17304
笑容	17305
司机	17306
未能	17307
回顾	17308
得意	17309
武士	17310
组建	17311
这天	17312
莲子	17313
中午	17314
明永乐	17315
女士	17316
国会	17317
借口	17318
视察	17319
计划生育	17320
以此	17321
何以	17322
清醒	17323
面貌	17324
首辅	17325
出征	17326
消化	17327
灵活	17328
利率	17329
师哥	17330
幅度	17331
户部	17332
每人	17333
汉奸	17334
不能不	17335
人心	17336
已然	17337
皇宫	17338
尚无	17339
教材	17340
先前	17341
平安	17342
旧址	17343
主导	17344
喝酒	17345
展览	17346
水质	17347
穿过	17348
耕地	17349
驻地	17350
利息	17351
勇敢	17352
正文	17353
英勇	17354
高潮	17355
对话	17356
侵入	17357
分散	17358
分泌	17359
学派	17360
就此	17361
注册	17362
也就是说	17363
尴尬	17364
解放区	17365
过分	17366
龙头	17367
仪器	17368
至此	17369
菱花	17370
三层	17371
本国	17372
内蒙古	17373
深化	17374
论证	17375
几何	17376
支出	17377
腹部	17378
营销	17379
同胞	17380
检测	17381
三种	17382
春天	17383
制订	17384
手下	17385
昆明	17386
沿用	17387
笑脸	17388
评估	17389
中纺	17390
别说	17391
口气	17392
客气	17393
连连	17394
三月	17395
定律	17396
实用	17397
济南	17398
齐全	17399
义军	17400
开采	17401
北宋	17402
可不	17403
水运	17404
犹如	17405
声道	17406
生死	17407
心灵	17408
欢喜	17409
答复	17410
位居	17411
兑换	17412
中方	17413
二十	17414
回忆	17415
增设	17416
揭露	17417
綘	17418
新加坡	17419
黄金周	17420
故乡	17421
立法权	17422
罕见	17423
起到	17424
三次	17425
机动	17426
江北	17427
洪承畴	17428
致使	17429
开通	17430
阴谋	17431
调动	17432
处处	17433
实质	17434
叙述	17435
咖啡	17436
活着	17437
刘宗敏	17438
燕京	17439
疯狂	17440
一线	17441
夜间	17442
发放	17443
肩头	17444
零售	17445
两座	17446
十二	17447
少将	17448
恰好	17449
无论如何	17450
逮捕	17451
颁发	17452
珍贵	17453
美洲	17454
曲折	17455
联想	17456
迫使	17457
融合	17458
女孩	17459
第五	17460
体积	17461
笅	17462
定期	17463
期限	17464
用以	17465
伤心	17466
代表大会	17467
电信	17468
从不	17469
外汇	17470
亲王	17471
前期	17472
技能	17473
日后	17474
民事	17475
洪水	17476
逝世	17477
公务员	17478
残酷	17479
绝不	17480
名贵	17481
延安	17482
支流	17483
林彪	17484
中毒	17485
动静	17486
新生	17487
服役	17488
船长	17489
营造	17490
神话	17491
脑子	17492
村里	17493
琉璃瓦	17494
假定	17495
几位	17496
气息	17497
清兵	17498
人身	17499
用途	17500
八月	17501
本领	17502
瞬间	17503
昔日	17504
晓得	17505
历任	17506
民用	17507
进而	17508
湖广	17509
透明	17510
里程	17511
舰艇	17512
延续	17513
浓厚	17514
看作	17515
书写	17516
任何人	17517
探讨	17518
晚期	17519
矿物	17520
一流	17521
填报	17522
成人	17523
顾客	17524
卖国贼	17525
教堂	17526
最小	17527
西域	17528
分解	17529
县委	17530
心态	17531
偶尔	17532
公正	17533
几十年	17534
大业	17535
名胜古迹	17536
向来	17537
对外开放	17538
旗帜	17539
国民政府	17540
征集	17541
看上去	17542
概括	17543
寻求	17544
植被	17545
船上	17546
发达国家	17547
喜爱	17548
外部	17549
特种	17550
五月	17551
方才	17552
鸡蛋	17553
分化	17554
文书	17555
风波	17556
傛	17557
膨胀	17558
莫非	17559
温和	17560
师妹	17561
终究	17562
宗旨	17563
理会	17564
不觉	17565
信息化	17566
凤凰	17567
华夏	17568
嶅	17569
民族自治	17570
占地	17571
缩小	17572
从业	17573
围墙	17574
孩儿	17575
某个	17576
硕士	17577
下级	17578
全军	17579
军区	17580
变更	17581
辅助	17582
沉吟	17583
航天	17584
一小	17585
奥地利	17586
瑞典	17587
西周	17588
说来	17589
辛勤	17590
两类	17591
处长	17592
政务	17593
福临	17594
西南部	17595
高等教育	17596
假如	17597
补偿	17598
认得	17599
金银	17600
含义	17601
监察	17602
细节	17603
主场	17604
人事	17605
心脏	17606
李大钊	17607
上班	17608
争论	17609
就让	17610
平常	17611
洪湖	17612
威力	17613
完毕	17614
激光	17615
税收	17616
米粉	17617
古建筑	17618
泪水	17619
联合会	17620
逃走	17621
得出	17622
苹果	17623
死刑	17624
议员	17625
面子	17626
兵部	17627
便于	17628
人造	17629
星期	17630
阐述	17631
中叶	17632
分流	17633
念头	17634
挣扎	17635
中国人民解放军	17636
几步	17637
突击	17638
湿润	17639
全民	17640
鐪	17641
前线	17642
情节	17643
扬州	17644
期望	17645
反击	17646
多家	17647
盛产	17648
三藏	17649
玉石	17650
绝大多数	17651
航行	17652
剥削	17653
好生	17654
惊人	17655
昆虫	17656
罢工	17657
阐明	17658
丞相	17659
篘	17660
元大都	17661
一派	17662
杰出	17663
章程	17664
黄陂	17665
出台	17666
古怪	17667
拍摄	17668
自信	17669
资助	17670
停留	17671
党内	17672
灯光	17673
空前	17674
精确	17675
行事	17676
少量	17677
固体	17678
大笑	17679
排除	17680
水深	17681
偶然	17682
消耗	17683
近来	17684
两院制	17685
从前	17686
竞争力	17687
苗族	17688
闻名	17689
乃至	17690
帮主	17691
极了	17692
司令员	17693
旋转	17694
每月	17695
国防部	17696
笔架山	17697
获取	17698
转让	17699
随意	17700
打电话	17701
明明	17702
法定	17703
十八	17704
杜甫	17705
求职	17706
随州市	17707
头脑	17708
故宫	17709
时分	17710
优点	17711
开会	17712
乡长	17713
墨西哥	17714
文理学院	17715
寻思	17716
高级中学	17717
八个	17718
巡抚	17719
一封	17720
脂肪	17721
东南部	17722
勬	17723
台上	17724
对立	17725
细菌	17726
胡子	17727
集团公司	17728
早晨	17729
罢免	17730
锅巴	17731
须弥座	17732
通航	17733
高出	17734
不远	17735
天门市	17736
见于	17737
清军	17738
金额	17739
花园	17740
不宜	17741
干脆	17742
格外	17743
考验	17744
地中海	17745
审计长	17746
尊严	17747
春节	17748
通车	17749
应付	17750
六个	17751
夺得	17752
药材	17753
代价	17754
园林	17755
干燥	17756
有助于	17757
池河	17758
干线	17759
老头	17760
近期	17761
偏偏	17762
区分	17763
堝	17764
太原	17765
河床	17766
不准	17767
失业	17768
作物	17769
助理	17770
呼吁	17771
尖椒	17772
普及	17773
珍稀	17774
名为	17775
拉开	17776
暴露	17777
穆斯林	17778
侵犯	17779
后勤	17780
戏曲	17781
摄影	17782
造反	17783
原名	17784
安定	17785
乡镇	17786
古迹	17787
自然资源	17788
道人	17789
激情	17790
辞职	17791
电视台	17792
身材	17793
发作	17794
大片	17795
有意	17796
板块	17797
潜力	17798
处罚	17799
必需	17800
南宋	17801
图库	17802
答道	17803
东经	17804
古人	17805
商城	17806
回归	17807
干什么	17808
桂林	17809
长官	17810
真理	17811
跟随	17812
雅典	17813
大别山	17814
心理学	17815
长方形	17816
所知	17817
不然	17818
放松	17819
生动	17820
畅销	17821
社会学	17822
内河	17823
血管	17824
顺序	17825
二者	17826
天堂	17827
推开	17828
无力	17829
储备	17830
免疫	17831
前途	17832
武力	17833
谈到	17834
身穿	17835
河南省	17836
产业化	17837
反革命	17838
见长	17839
财物	17840
严厉	17841
出色	17842
切实	17843
柏林	17844
氧化	17845
沉积	17846
市政府	17847
射线	17848
流入	17849
道士	17850
鏂	17851
天上	17852
再度	17853
劳动者	17854
吏部	17855
彩绘	17856
有名	17857
苏维埃	17858
亲戚	17859
从小	17860
分明	17861
提倡	17862
身分	17863
通行	17864
阶层	17865
战后	17866
地租	17867
损伤	17868
王府	17869
设法	17870
字形	17871
矿山	17872
专制	17873
战线	17874
胳膊	17875
饭店	17876
可不是	17877
嘴唇	17878
运作	17879
寻常	17880
探明	17881
收藏	17882
佩服	17883
古典	17884
地下水	17885
奥运会	17886
法学	17887
中轴线	17888
掏出	17889
整整	17890
东侧	17891
此前	17892
严峻	17893
主峰	17894
坚定	17895
水流	17896
燃料	17897
现状	17898
着手	17899
行走	17900
炸弹	17901
出任	17902
大战	17903
巴基斯坦	17904
弯曲	17905
相见	17906
群雄	17907
联络	17908
欧元	17909
签字	17910
一分	17911
怀中	17912
政变	17913
有时候	17914
瀑布	17915
军马	17916
华中	17917
咳嗽	17918
水晶	17919
符号	17920
辉煌	17921
失望	17922
遗传	17923
丁能通	17924
博览会	17925
稳步	17926
中国政府	17927
印刷	17928
泊位	17929
纪录	17930
阴阳	17931
新月	17932
移民	17933
限度	17934
官家	17935
恐惧	17936
西边	17937
几下	17938
延长	17939
已知	17940
日报	17941
赶来	17942
二十年	17943
充足	17944
替代	17945
浓郁	17946
外地	17947
擅长	17948
热点	17949
老营	17950
鉴定	17951
本书	17952
好汉	17953
江山	17954
光辉	17955
当场	17956
纪律	17957
遵循	17958
青少年	17959
御道	17960
抗议	17961
探测	17962
谴责	17963
跟踪	17964
干旱	17965
气势	17966
辛苦	17967
面粉	17968
题目	17969
宋献策	17970
汇率	17971
高层	17972
光明	17973
景象	17974
军方	17975
前列	17976
向往	17977
天然气	17978
好事	17979
战斗力	17980
期待	17981
修缮	17982
光学	17983
各校	17984
家乡	17985
精心	17986
四月	17987
总会	17988
总队	17989
教育部	17990
赢得	17991
多久	17992
新兴	17993
粉碎	17994
超越	17995
即位	17996
国师	17997
理工学院	17998
营业	17999
违法	18000
半数	18001
在校	18002
均匀	18003
失误	18004
尚有	18005
手腕	18006
村民	18007
竞赛	18008
受理	18009
省份	18010
磕头	18011
隐藏	18012
摇摇头	18013
早上	18014
湴	18015
一间	18016
同盟	18017
如是	18018
政委	18019
盛行	18020
随之	18021
隧道	18022
利润率	18023
叶子	18024
契丹	18025
征求	18026
栽培	18027
浮雕	18028
灌溉	18029
特权	18030
道具	18031
优先	18032
审计	18033
屁股	18034
理念	18035
省区	18036
记住	18037
旅游业	18038
下属	18039
贵州	18040
高山	18041
世人	18042
主编	18043
操纵	18044
首席	18045
以免	18046
预付	18047
安静	18048
火力	18049
起点	18050
一剑	18051
例外	18052
常规	18053
致力	18054
高低	18055
官府	18056
惊讶	18057
盈盈	18058
神龙	18059
纵然	18060
肠子	18061
人民大会堂	18062
会员	18063
我会	18064
肩膀	18065
风暴	18066
回事	18067
忽视	18068
指点	18069
激发	18070
缔结	18071
住宅	18072
冬天	18073
开拓	18074
梦想	18075
湿地	18076
三面	18077
型号	18078
愉快	18079
鐗	18080
后代	18081
狮子	18082
猛地	18083
鍔	18084
使命	18085
师范学院	18086
特务	18087
纠纷	18088
考古	18089
股市	18090
举动	18091
犹豫	18092
董事	18093
起义军	18094
少林寺	18095
工人阶级	18096
供奉	18097
尝试	18098
牙齿	18099
电台	18100
难免	18101
体重	18102
余种	18103
外语	18104
密集	18105
执法	18106
掀起	18107
一丝	18108
图书	18109
大海	18110
水库	18111
报仇	18112
中山公园	18113
九年	18114
子口	18115
小弟	18116
百万	18117
十六	18118
厂商	18119
合乎	18120
孔明	18121
牛肉	18122
自杀	18123
骑马	18124
崇拜	18125
机遇	18126
转入	18127
低下	18128
判决	18129
物理学	18130
鍗	18131
县级市	18132
土耳其	18133
外长	18134
描绘	18135
途中	18136
荆江	18137
门下	18138
一体化	18139
两面	18140
开来	18141
来不及	18142
顺着	18143
名词	18144
培育	18145
新增	18146
俗称	18147
汉阳	18148
专线	18149
供给	18150
如果说	18151
对比	18152
苏维埃政府	18153
两地	18154
球迷	18155
窗口	18156
六部	18157
军舰	18158
节奏	18159
黄依依	18160
变量	18161
师长	18162
档案	18163
专利	18164
响应	18165
点滴	18166
上帝	18167
从中	18168
加重	18169
国徽	18170
夊	18171
认证	18172
运河	18173
先锋	18174
军中	18175
对此	18176
徒弟	18177
一笔	18178
奖励	18179
横贯	18180
傗	18181
内功	18182
优惠	18183
分工	18184
商务	18185
四下	18186
垃圾	18187
山坡	18188
总算	18189
打仗	18190
步伐	18191
避开	18192
工程学院	18193
赞成	18194
一辆	18195
全力	18196
危急	18197
多尔衮	18198
小声	18199
级别	18200
黄土	18201
不成	18202
出版社	18203
指责	18204
法子	18205
中东	18206
办事处	18207
应有	18208
公式	18209
军师	18210
消费品	18211
分数	18212
在外	18213
收获	18214
武松	18215
磁场	18216
建筑业	18217
水陆	18218
灭亡	18219
禀报	18220
遗憾	18221
分开	18222
寿命	18223
专政	18224
死去	18225
音乐堂	18226
军士	18227
史料	18228
警告	18229
一篇	18230
搞笑	18231
白嘉轩	18232
过度	18233
下载	18234
召见	18235
李逵	18236
漫长	18237
窗外	18238
第一次世界大战	18239
一刻	18240
方程	18241
笔者	18242
两届	18243
源于	18244
习俗	18245
固定资产	18246
想不到	18247
疲劳	18248
考证	18249
难题	18250
建筑物	18251
魦	18252
坚强	18253
墨镜	18254
惩罚	18255
激起	18256
乐器	18257
倾斜	18258
国旗	18259
监管	18260
舒服	18261
隐隐	18262
升高	18263
国防委员会	18264
深远	18265
算了	18266
过年	18267
刊物	18268
间接	18269
一再	18270
亏损	18271
岳不群	18272
船只	18273
西欧	18274
主观	18275
传入	18276
成效	18277
艰苦	18278
高效	18279
出名	18280
带动	18281
底下	18282
沙市	18283
深厚	18284
神仙	18285
追赶	18286
上司	18287
俘虏	18288
早年	18289
结成	18290
致富	18291
部类	18292
刺史	18293
种族	18294
脚本	18295
一团	18296
不仅仅	18297
亿吨	18298
发展中国家	18299
当事人	18300
浪费	18301
回报	18302
抱住	18303
先行	18304
约束	18305
不同于	18306
所用	18307
旅行	18308
直到	18309
谨慎	18310
自带	18311
艾滋病	18312
试点	18313
太康	18314
廷杖	18315
打扮	18316
洪七公	18317
西侧	18318
河谷	18319
超出	18320
三位	18321
办学	18322
地铁	18323
自有	18324
这部	18325
不等	18326
娘子	18327
解除	18328
部属	18329
子弹	18330
弹性	18331
日历	18332
北约	18333
石破天	18334
背后	18335
称赞	18336
年份	18337
渴望	18338
演奏	18339
高呼	18340
大汉	18341
弹药	18342
混凝土	18343
热量	18344
金钱	18345
下达	18346
洪山	18347
起伏	18348
射程	18349
配备	18350
首脑	18351
我家	18352
精神文明	18353
中山	18354
创建者	18355
火车站	18356
这会儿	18357
乘机	18358
内陆	18359
十一	18360
削弱	18361
县政府	18362
来回	18363
上马	18364
书法	18365
休闲	18366
娃娃	18367
座谈会	18368
军用	18369
太平	18370
好看	18371
常委	18372
礼物	18373
名人	18374
嗗	18375
法令	18376
福利	18377
识别	18378
响起	18379
引入	18380
杀害	18381
李太后	18382
研究员	18383
缓解	18384
五分	18385
日志	18386
策划	18387
陆地	18388
隶属	18389
飞行员	18390
始于	18391
工业化	18392
水稻	18393
经济效益	18394
华中科技大学	18395
小小	18396
革新	18397
必读	18398
求知	18399
中药	18400
代表作	18401
争议	18402
大局	18403
辽东	18404
一脚	18405
亲切	18406
嘴巴	18407
总书记	18408
五间	18409
几分	18410
叔叔	18411
变迁	18412
团队	18413
多名	18414
孔子	18415
学士	18416
骨干	18417
冷静	18418
容量	18419
活力	18420
通称	18421
鲜花	18422
元朝	18423
先是	18424
全会	18425
申报	18426
绝大部分	18427
内涵	18428
反射	18429
太和殿	18430
甘泉	18431
那末	18432
中华人民共和国宪法	18433
是非	18434
陕西省	18435
饲养	18436
信奉	18437
清洁	18438
长江流域	18439
除非	18440
一碗	18441
下辖	18442
妇人	18443
祖宗	18444
一八	18445
后世	18446
师弟	18447
模糊	18448
比分	18449
七年	18450
地层	18451
蓝色	18452
辽宁	18453
不便	18454
保健	18455
图像	18456
尽可能	18457
水下	18458
相距	18459
转动	18460
预定	18461
不小	18462
云集	18463
同情	18464
天体	18465
殿试	18466
礼仪	18467
随手	18468
牌坊	18469
独自	18470
落下	18471
四方	18472
在场	18473
奇特	18474
接连	18475
水域	18476
谢谢	18477
青春	18478
人民日报	18479
以东	18480
对应	18481
称呼	18482
笑话	18483
蛋白	18484
电器	18485
汽水	18486
原先	18487
接收	18488
等到	18489
组织法	18490
下列	18491
份额	18492
剧烈	18493
在线	18494
处置	18495
楼上	18496
欢乐	18497
科长	18498
袁崇焕	18499
谁知	18500
两句	18501
生怕	18502
门洞	18503
宽阔	18504
山河	18505
新华网	18506
歌曲	18507
生平	18508
首位	18509
中亚	18510
招收	18511
掌管	18512
直隶	18513
着重	18514
豆腐	18515
这块	18516
万年	18517
南岳	18518
沼泽	18519
褰	18520
鎶	18521
华侨	18522
此间	18523
装有	18524
集会	18525
万家	18526
东风	18527
优美	18528
毛泽东思想	18529
温带	18530
激励	18531
鄂东	18532
以内	18533
山谷	18534
山顶	18535
文华	18536
震惊	18537
鳙	18538
优越	18539
宝贝	18540
拼命	18541
退休	18542
铁矿	18543
户口	18544
虽说	18545
赔偿	18546
一枚	18547
不曾	18548
取决	18549
地步	18550
嶆	18551
白领	18552
董事长	18553
通衢	18554
推送	18555
死者	18556
不已	18557
两家	18558
整齐	18559
猛烈	18560
造林	18561
国民革命军	18562
无线电	18563
着急	18564
第一批	18565
遗迹	18566
拍卖	18567
整合	18568
睡眠	18569
诸葛亮	18570
上层	18571
强迫	18572
曹汝霖	18573
自称	18574
各家	18575
教会	18576
家属	18577
物价	18578
老公	18579
三国	18580
上空	18581
兘	18582
兼备	18583
庭长	18584
老大	18585
统一战线	18586
自由人	18587
行政公署	18588
市辖区	18589
影子	18590
沔阳	18591
私信	18592
编辑者	18593
防务	18594
陶器	18595
定为	18596
看过	18597
自治机关	18598
莲蓬	18599
不吃	18600
刑事	18601
运气	18602
麻城	18603
一点儿	18604
首相	18605
叫作	18606
往前	18607
清华	18608
爆米花	18609
睡着	18610
同步	18611
改装	18612
皇太后	18613
书籍	18614
主流	18615
拦截	18616
珍品	18617
淘汰	18618
现已	18619
共产国际	18620
即可	18621
喇嘛	18622
对不起	18623
打着	18624
相差	18625
红旗	18626
绿化	18627
进化	18628
大展宏图	18629
注视	18630
神圣	18631
进军	18632
狭窄	18633
镇长	18634
印度洋	18635
国情	18636
比利时	18637
省辖市	18638
紧闭	18639
送来	18640
制止	18641
菜系	18642
二路	18643
伤亡	18644
子孙	18645
有害	18646
电流	18647
人文	18648
壁画	18649
大爷	18650
好象	18651
状元	18652
监利	18653
闃	18654
环保	18655
悲剧	18656
搜狗	18657
时尚	18658
竭力	18659
诸多	18660
下马	18661
浓度	18662
表态	18663
豪华	18664
东交民巷	18665
便利	18666
学院路	18667
官职	18668
匕首	18669
只管	18670
台阶	18671
宝贵	18672
走来	18673
传媒	18674
加紧	18675
千年	18676
极少	18677
大伙儿	18678
常设	18679
油料	18680
熷	18681
运营	18682
哪怕	18683
幻想	18684
潵	18685
鄂南	18686
向东	18687
封建王朝	18688
恩施市	18689
月亮	18690
清理	18691
二月	18692
同一个	18693
晚年	18694
债务	18695
后人	18696
很小	18697
调控	18698
鮠	18699
专科	18700
中医	18701
大连	18702
官僚	18703
自幼	18704
自行车	18705
大于	18706
大吃一惊	18707
中小学	18708
体会	18709
四处	18710
帽子	18711
林业	18712
重重	18713
一同	18714
免得	18715
康有为	18716
暗器	18717
潜江市	18718
芯片	18719
这家	18720
一贯	18721
九曲回肠	18722
五四运动	18723
十月	18724
火炬计划	18725
瓙	18726
眼神	18727
奖金	18728
审理	18729
朱翊钧	18730
温柔	18731
王室	18732
现金	18733
病情	18734
练习	18735
叛乱	18736
树木	18737
生日	18738
示范县	18739
置于	18740
共产主义	18741
得分	18742
撰写	18743
灾难	18744
中年	18745
假设	18746
制药	18747
千公顷	18748
小孩子	18749
常有	18750
烦恼	18751
留学	18752
诗文	18753
万多亩	18754
刘少奇	18755
宛如	18756
李鸿忠	18757
监视	18758
纵身	18759
美食	18760
腰间	18761
艺术家	18762
丹麦	18763
南环路	18764
原种场	18765
气味	18766
白沙洲	18767
菲律宾	18768
起飞	18769
频道	18770
体力	18771
厨房	18772
实习	18773
恰恰	18774
西夏	18775
解开	18776
进球	18777
密码	18778
桥头堡	18779
自古	18780
递给	18781
中路	18782
大赛	18783
着实	18784
中游	18785
家务	18786
欎	18787
武艺	18788
科举	18789
伴随	18790
康复	18791
放到	18792
料到	18793
跟着	18794
中央军事委员会	18795
困境	18796
小事	18797
在家	18798
火光	18799
类别	18800
反帝	18801
强盗	18802
揭示	18803
易于	18804
此举	18805
交涉	18806
鲜美	18807
专用	18808
大炮	18809
躬身	18810
鎯	18811
亲人	18812
人格	18813
开支	18814
张献忠	18815
据此	18816
氏族	18817
菜肴	18818
中南部	18819
实事求是	18820
担负	18821
笑声	18822
取胜	18823
学府	18824
手脚	18825
拱手	18826
接下来	18827
恶劣	18828
步枪	18829
纵横	18830
头部	18831
心上	18832
海南	18833
清晨	18834
诧异	18835
顺便	18836
淡水	18837
理智	18838
鱼雷	18839
光泽	18840
审判员	18841
数学家	18842
融资	18843
一旁	18844
中日	18845
加热	18846
单一	18847
改编	18848
暴力	18849
管道	18850
兼任	18851
勋章	18852
合金	18853
惨案	18854
所得	18855
僧人	18856
圆形	18857
挥手	18858
放开	18859
月光	18860
机枪	18861
天府	18862
度假	18863
殖民	18864
监测	18865
一趟	18866
学员	18867
攻占	18868
红墙	18869
印尼	18870
新建	18871
翻身	18872
乐园	18873
嘱咐	18874
招数	18875
民兵	18876
波动	18877
移植	18878
剥夺	18879
变形	18880
叹息	18881
天色	18882
心目	18883
放入	18884
机体	18885
潮流	18886
室内	18887
维吾尔族	18888
自此	18889
魅力	18890
两层	18891
口袋	18892
塑料	18893
战友	18894
姿态	18895
汉中	18896
变换	18897
壮族	18898
灰色	18899
破产	18900
笂	18901
购物	18902
一周	18903
围攻	18904
恒星	18905
投产	18906
振动	18907
未免	18908
沙滩	18909
缺陷	18910
美女	18911
北上	18912
学问	18913
审核	18914
拥护	18915
钢琴	18916
做饭	18917
帮忙	18918
惟一	18919
药用	18920
趋向	18921
折磨	18922
纯粹	18923
一架	18924
可爱	18925
提示	18926
时报	18927
校区	18928
获奖	18929
远程	18930
后悔	18931
哈尔滨	18932
抵达	18933
鼓舞	18934
不时	18935
遇上	18936
附属	18937
驱逐	18938
一倍	18939
否认	18940
尖锐	18941
科学院	18942
黑人	18943
不尽	18944
平行	18945
敌军	18946
面上	18947
二次	18948
产地	18949
分歧	18950
回避	18951
天文	18952
每周	18953
不堪	18954
奇迹	18955
运营商	18956
马克思	18957
动机	18958
扩散	18959
该市	18960
鹧鸪	18961
不止	18962
儒家	18963
充当	18964
公认	18965
工会	18966
师范	18967
狠狠	18968
真相	18969
示范	18970
连同	18971
万立方米	18972
下跌	18973
世纪末	18974
号码	18975
安徽省	18976
没法	18977
监狱	18978
航道	18979
写下	18980
南岸	18981
撤退	18982
王家	18983
行人	18984
重要性	18985
主办	18986
周刊	18987
要紧	18988
进出	18989
严密	18990
兀自	18991
十个	18992
厉声	18993
赵志敬	18994
万万	18995
名胜区	18996
届时	18997
提请	18998
村庄	18999
相貌	19000
缩短	19001
墙壁	19002
建于	19003
资费	19004
九月	19005
揭开	19006
儿女	19007
公使	19008
告别	19009
处分	19010
女孩子	19011
安娜	19012
审批	19013
干预	19014
直达	19015
娘娘	19016
汉代	19017
山麓	19018
传出	19019
保全	19020
半夜	19021
多于	19022
开门	19023
春季	19024
曲线	19025
两旁	19026
借助	19027
公公	19028
慢性	19029
战区	19030
模仿	19031
农业部	19032
流经	19033
黄药师	19034
画面	19035
西门	19036
诸如	19037
清末	19038
解放战争	19039
进出口	19040
一轮	19041
嘿嘿	19042
富人	19043
昨晚	19044
来源于	19045
缘故	19046
闂	19047
一出	19048
任教	19049
游泳	19050
部委	19051
闄	19052
阿根廷	19053
势头	19054
呼声	19055
指望	19056
降水	19057
两步	19058
封建社会	19059
指南	19060
正桥	19061
焦点	19062
走近	19063
共产党员	19064
委屈	19065
李先念	19066
海面	19067
皇权	19068
东亚	19069
南端	19070
服用	19071
子弟	19072
梅花	19073
淮南	19074
立方	19075
经贸	19076
花费	19077
原材料	19078
大理	19079
完备	19080
布朗	19081
生育	19082
赶上	19083
发光	19084
所有者	19085
清宫	19086
高尚	19087
两院	19088
倾听	19089
堪称	19090
男孩	19091
自动化	19092
东北部	19093
为期	19094
法西斯	19095
跳槽	19096
力求	19097
涨幅	19098
给出	19099
落地	19100
走廊	19101
青青	19102
首要	19103
嫂子	19104
工夫	19105
江苏省	19106
编写	19107
从来不	19108
优化	19109
华盛顿	19110
本土	19111
追加	19112
任意	19113
倡导	19114
参议院	19115
外商	19116
娌	19117
股价	19118
著称	19119
语气	19120
选区	19121
鉴于	19122
门人	19123
学费	19124
急性	19125
性别	19126
花生	19127
青铜	19128
代表性	19129
小伙子	19130
橡胶	19131
浼	19132
通商	19133
两级	19134
伯伯	19135
公约	19136
层面	19137
灿烂	19138
京师	19139
储存	19140
包袱	19141
发病	19142
圈子	19143
座位	19144
现今	19145
鐢	19146
阶级斗争	19147
大盘	19148
季风气候	19149
成吉思汗	19150
流派	19151
特区	19152
笼罩	19153
糊涂	19154
见识	19155
车站	19156
靠近	19157
何等	19158
外边	19159
妹子	19160
抱怨	19161
第六次	19162
赤壁	19163
与会	19164
明年	19165
火烧	19166
率先	19167
全书	19168
冲动	19169
厦门	19170
地表	19171
孙权	19172
宗室	19173
站立	19174
精度	19175
金牌	19176
专区	19177
介质	19178
南朝	19179
吃惊	19180
敢于	19181
来往	19182
电压	19183
背心	19184
都督	19185
高声	19186
岄	19187
民主集中制	19188
猛然	19189
第一部	19190
苏丹	19191
适于	19192
逃跑	19193
华人	19194
摧毁	19195
阻拦	19196
联名	19197
一二	19198
使者	19199
小吃	19200
交替	19201
必将	19202
收取	19203
核潜艇	19204
良久	19205
金水河	19206
北洋	19207
相通	19208
精巧	19209
增长率	19210
大哭	19211
宰相	19212
开设	19213
叩头	19214
大楼	19215
工商业	19216
眉头	19217
寄托	19218
挖掘	19219
查询	19220
煤矿	19221
进深	19222
岁月	19223
巧妙	19224
强制	19225
收复	19226
表决权	19227
青海	19228
五行	19229
存储	19230
智力	19231
树上	19232
上次	19233
别处	19234
度过	19235
笔记本	19236
被动	19237
额头	19238
万辆	19239
二位	19240
哲学家	19241
壮大	19242
环绕	19243
规格	19244
较量	19245
对称	19246
蜡烛	19247
口子	19248
牢牢	19249
皇室	19250
要么	19251
吉祥	19252
场景	19253
山南	19254
总长	19255
日趋	19256
火焰	19257
纯收入	19258
外来	19259
工作者	19260
统领	19261
范畴	19262
重组	19263
高压	19264
传奇	19265
复合	19266
广东省	19267
提交	19268
滃	19269
老实	19270
七月	19271
东海	19272
以西	19273
何时	19274
偅	19275
功率	19276
奴婢	19277
流体	19278
相公	19279
中旬	19280
制导	19281
布政使	19282
残疾人	19283
清华大学	19284
自然界	19285
饮酒	19286
中华人民共和国国务院	19287
科目	19288
统称	19289
代谢	19290
屠杀	19291
忽略	19292
空白	19293
下手	19294
冲破	19295
参谋	19296
向上	19297
衡量	19298
乡镇企业	19299
完好	19300
招待会	19301
掌门	19302
欲望	19303
毛主席纪念堂	19304
认可	19305
锦标赛	19306
中断	19307
宿舍	19308
水产品	19309
河水	19310
防范	19311
阵容	19312
隆重	19313
可变资本	19314
安置	19315
打断	19316
樻	19317
出国	19318
包裹	19319
大王	19320
张翠山	19321
野蛮	19322
亲信	19323
打量	19324
羊皮	19325
不语	19326
两湖	19327
书画	19328
手持	19329
此地	19330
相助	19331
色素	19332
预备	19333
水分	19334
汉字	19335
闲暇	19336
交付	19337
交代	19338
多谢	19339
扮演	19340
驾驶	19341
包装	19342
城北	19343
秀丽	19344
交谈	19345
尺寸	19346
痕迹	19347
离去	19348
南北朝	19349
发觉	19350
家人	19351
心意	19352
挑选	19353
苦笑	19354
霳	19355
佹	19356
使劲	19357
厕所	19358
战车	19359
末年	19360
村子	19361
极力	19362
汇集	19363
迁都	19364
仆人	19365
升起	19366
比如说	19367
葫芦	19368
图形	19369
报上	19370
轻轻地	19371
房中	19372
朱德	19373
焦急	19374
舌头	19375
追究	19376
修行	19377
峡谷	19378
怀着	19379
江淮	19380
清风	19381
这边	19382
黄昏	19383
全新	19384
琢磨	19385
示意	19386
经济学家	19387
羊肉	19388
走私	19389
部下	19390
周转	19391
突厥	19392
存款	19393
宣读	19394
害死	19395
崩溃	19396
巴勒斯坦	19397
绝望	19398
警惕	19399
人性	19400
制裁	19401
剧本	19402
推向	19403
施展	19404
明知	19405
福州	19406
象是	19407
越发	19408
过早	19409
一匹	19410
出面	19411
叶大鹰	19412
塑造	19413
岂能	19414
无声	19415
治所	19416
盈利	19417
全然	19418
台下	19419
征收	19420
界限	19421
准则	19422
审美	19423
山洞	19424
栖息	19425
一事	19426
全县	19427
兼并	19428
抽出	19429
时常	19430
第五次	19431
诸侯	19432
功力	19433
没收	19434
突发	19435
落入	19436
葡萄牙	19437
谈论	19438
传到	19439
小姑娘	19440
第三次	19441
臣民	19442
行李	19443
那条	19444
关节	19445
婚礼	19446
攻克	19447
衣衫	19448
该书	19449
驻华	19450
判处	19451
宁夏	19452
望去	19453
嗭	19454
邻近	19455
饮料	19456
名胜	19457
四肢	19458
总兵	19459
散文	19460
昼夜	19461
胆子	19462
违背	19463
鹿角	19464
名誉	19465
商店	19466
处境	19467
家具	19468
离婚	19469
都城	19470
限于	19471
万千瓦	19472
八路军	19473
地级市	19474
申诉	19475
雕塑	19476
其一	19477
内存	19478
尽力	19479
年产	19480
目睹	19481
面包	19482
关联	19483
外表	19484
烧烤	19485
矿床	19486
节约	19487
一堆	19488
不惜	19489
匈牙利	19490
和约	19491
收缩	19492
数额	19493
无意	19494
求助	19495
亲眼	19496
出路	19497
左良玉	19498
灯笼	19499
疑问	19500
研究院	19501
上学	19502
场上	19503
督察	19504
双目	19505
径流量	19506
这点	19507
鍘	19508
閮	19509
三合	19510
抵挡	19511
挪威	19512
李文秀	19513
树种	19514
节制	19515
高血压	19516
业余	19517
第一届	19518
中级	19519
元帅	19520
北美	19521
宫灯	19522
开工	19523
政治权利	19524
整天	19525
中国科学院	19526
列席	19527
历经	19528
小于	19529
意图	19530
游览	19531
疑惑	19532
通红	19533
邮政	19534
颤抖	19535
鸟类	19536
供养	19537
办公	19538
君王	19539
弹道导弹	19540
进门	19541
孙子	19542
日夜	19543
杭天醉	19544
直线	19545
缅甸	19546
各市	19547
形容	19548
通报	19549
陈友谅	19550
首府	19551
六月	19552
多样	19553
指令	19554
演练	19555
热爱	19556
趋于	19557
写道	19558
嗕	19559
土家	19560
应聘	19561
点燃	19562
畜牧业	19563
习性	19564
来访	19565
简化	19566
半导体	19567
左侧	19568
样式	19569
清除	19570
信念	19571
听听	19572
语音	19573
长征	19574
卖国	19575
拓展	19576
一心	19577
全家	19578
双拥	19579
同等	19580
名茶	19581
唐僧	19582
展现	19583
挽救	19584
杜鹃花	19585
雄壮	19586
雪山	19587
一灯	19588
大脑	19589
拿下	19590
沙发	19591
珍珠	19592
走过	19593
迟疑	19594
韩子奇	19595
产区	19596
决战	19597
叫声	19598
大败	19599
宝剑	19600
明成祖	19601
势必	19602
定向	19603
建都	19604
有如	19605
相互作用	19606
轰炸机	19607
中世纪	19608
仪仗	19609
会同	19610
传授	19611
出动	19612
反倒	19613
后边	19614
染料	19615
海湾	19616
陆无双	19617
面条	19618
决计	19619
发电	19620
启用	19621
瞄准	19622
花钱	19623
评选	19624
通向	19625
一艘	19626
上半场	19627
传输	19628
急于	19629
想必	19630
战乱	19631
抵御	19632
拳头	19633
稳定性	19634
缓和	19635
老汉	19636
胸前	19637
顾秋水	19638
冒险	19639
尤为	19640
广义	19641
果实	19642
海里	19643
清江	19644
湖水	19645
生前	19646
共产党人	19647
劳务	19648
山里	19649
打发	19650
看待	19651
禁区	19652
鏅	19653
一来	19654
围剿	19655
带到	19656
步骤	19657
侗族	19658
偷偷	19659
奖惩	19660
嶈	19661
思索	19662
组长	19663
修订	19664
到位	19665
密布	19666
找出	19667
滋味	19668
盲目	19669
一则	19670
上半年	19671
忍受	19672
成员国	19673
抢救	19674
提取	19675
骨头	19676
他妈的	19677
大圣	19678
天花	19679
打工	19680
执掌	19681
核桃	19682
虚假	19683
遍布	19684
面目	19685
预先	19686
上网	19687
侵占	19688
单个	19689
生出	19690
获胜	19691
金花	19692
一举	19693
万物	19694
字母	19695
工农	19696
恋爱	19697
架子	19698
红烧	19699
遥远	19700
一院制	19701
公报	19702
出自	19703
制造业	19704
君子	19705
宁可	19706
快步	19707
梍	19708
请教	19709
不致	19710
做成	19711
剧院	19712
协同	19713
四面	19714
埋伏	19715
杨嗣昌	19716
称帝	19717
芦花	19718
记述	19719
更换	19720
薄弱	19721
发扬	19722
猜测	19723
皇位	19724
耳边	19725
防线	19726
一拳	19727
决不能	19728
加剧	19729
弥补	19730
拦住	19731
籗	19732
联军	19733
防护	19734
姐妹	19735
明亮	19736
每逢	19737
毒性	19738
白衣	19739
蜿蜒	19740
四人帮	19741
屈原	19742
房县	19743
旅游局	19744
机械化	19745
牛金星	19746
篃	19747
缺口	19748
震动	19749
上山	19750
不一	19751
尊敬	19752
手足	19753
方丈	19754
无非	19755
裁判	19756
公务	19757
兴国	19758
叶莲子	19759
平稳	19760
文人	19761
犲	19762
立体	19763
翌年	19764
自家	19765
骑士	19766
下半年	19767
大名	19768
寒冷	19769
江青	19770
见解	19771
词典	19772
起初	19773
阴影	19774
三十年	19775
专项	19776
刘邦	19777
县境	19778
料想	19779
晚会	19780
犳	19781
筹备	19782
身影	19783
高等学校	19784
十一届三中全会	19785
房里	19786
火把	19787
还原	19788
入学率	19789
改组	19790
血腥	19791
龙门	19792
尽数	19793
急剧	19794
渗透	19795
蕴藏	19796
重修	19797
仓库	19798
对策	19799
怀抱	19800
抵制	19801
江水	19802
郑州	19803
高举	19804
合资	19805
强盛	19806
戝	19807
束缚	19808
纯碱	19809
东北大学	19810
南门	19811
头领	19812
字数	19813
建材	19814
晚饭	19815
段祺瑞	19816
傝	19817
出境	19818
带走	19819
文集	19820
条款	19821
质地	19822
不好意思	19823
南昌	19824
定居	19825
攻势	19826
来信	19827
书房	19828
夋	19829
新港	19830
无关	19831
机电	19832
繁华	19833
老山	19834
一品	19835
下半场	19836
中段	19837
乐观	19838
决不	19839
向着	19840
地理学	19841
误解	19842
难受	19843
中华民国	19844
了不起	19845
全国性	19846
出卖	19847
唐朝	19848
所致	19849
拟定	19850
机密	19851
河北省	19852
相传	19853
连夜	19854
一首	19855
主演	19856
人民英雄纪念碑	19857
国防部长	19858
用品	19859
邓小平理论	19860
顺手	19861
不服	19862
化肥	19863
号令	19864
同义词	19865
圆满	19866
想来	19867
救国	19868
新城	19869
硬件	19870
纯属	19871
远离	19872
增产	19873
我校	19874
斯大林	19875
耐心	19876
富裕	19877
无色	19878
未曾	19879
游击队	19880
重檐	19881
鍜	19882
实物	19883
控股	19884
框架	19885
英格兰	19886
不明	19887
京剧	19888
兵马	19889
染色体	19890
约定	19891
荒漠	19892
长篇小说	19893
马来西亚	19894
东边	19895
借鉴	19896
参谋长	19897
名副其实	19898
风俗	19899
上书	19900
九江	19901
古巴	19902
新石器	19903
清清楚楚	19904
镜子	19905
陌生	19906
万余	19907
例行	19908
加之	19909
同行	19910
来讲	19911
灾害	19912
铸造	19913
只顾	19914
史学	19915
客厅	19916
来临	19917
肥沃	19918
阿富汗	19919
周芷若	19920
报酬	19921
水电站	19922
生殖	19923
语文	19924
遍及	19925
顽强	19926
典礼	19927
接口	19928
政事	19929
筷子	19930
会场	19931
动摇	19932
天赋	19933
法官	19934
海关	19935
眼色	19936
走路	19937
修正	19938
清水	19939
虘	19940
讽刺	19941
锜	19942
长远	19943
各派	19944
后裔	19945
多万	19946
比武	19947
葡萄	19948
车上	19949
雪白	19950
介于	19951
内讧	19952
堆积	19953
实业	19954
爱好	19955
馒头	19956
黄鹤楼	19957
不变资本	19958
养成	19959
大部	19960
山珍	19961
索性	19962
一家人	19963
国家森林公园	19964
戒指	19965
暗示	19966
最长	19967
本性	19968
东岳	19969
他家	19970
毛病	19971
称作	19972
获悉	19973
辣味	19974
雄伟	19975
一圈	19976
一所	19977
世间	19978
何不	19979
宜都	19980
重庆市	19981
军长	19982
放出	19983
知府	19984
落叶	19985
鹿子霖	19986
万分	19987
万里	19988
心底	19989
打出	19990
数码	19991
肌肤	19992
胜迹	19993
衰落	19994
分割	19995
富于	19996
序列	19997
散发	19998
无可	19999
有的是	20000
结局	20001
造就	20002
一号	20003
光线	20004
古今	20005
摩擦	20006
有望	20007
来得及	20008
用心	20009
痛快	20010
外国人	20011
导航	20012
思潮	20013
政治局	20014
旨在	20015
牛奶	20016
珠江	20017
凌辱	20018
喃喃	20019
套餐	20020
背部	20021
这一下	20022
选票	20023
陈水扁	20024
隆中	20025
黄家	20026
做事	20027
本章	20028
洋芋	20029
一脸	20030
两支	20031
头陀	20032
强行	20033
是因为	20034
潜江	20035
炮兵	20036
遗留	20037
勮	20038
怀孕	20039
抽象	20040
时光	20041
朝着	20042
聚会	20043
车牌	20044
首长	20045
古希腊	20046
右派	20047
好转	20048
市内	20049
所有人	20050
担保	20051
拔出	20052
改制	20053
杀伤	20054
毁灭	20055
王夫人	20056
鲜卑	20057
不大	20058
单元	20059
奴役	20060
子宫	20061
消极	20062
演化	20063
熸	20064
各方	20065
市中心	20066
希特勒	20067
所指	20068
炮声	20069
进宫	20070
骄傲	20071
大侠	20072
山下	20073
舞美	20074
南面	20075
恒山	20076
惊奇	20077
拿来	20078
皇太极	20079
直言	20080
瞩目	20081
箢	20082
閭	20083
一队	20084
属性	20085
指向	20086
江面	20087
西岸	20088
险些	20089
高明	20090
五保	20091
前锋	20092
柱子	20093
超级	20094
间接选举	20095
中华鲟	20096
厂长	20097
守城	20098
工作日	20099
总管	20100
法王	20101
溶剂	20102
相救	20103
襄州	20104
豌豆	20105
鄂西北	20106
高涨	20107
公职	20108
司长	20109
嘴角	20110
四川省	20111
大洋	20112
改良	20113
此类	20114
流血	20115
这回	20116
领地	20117
华中师范大学	20118
复兴	20119
幼虫	20120
自学	20121
解答	20122
产于	20123
大举	20124
强劲	20125
特意	20126
糍粑	20127
美味	20128
较差	20129
长子	20130
一早	20131
几声	20132
崛起	20133
开出	20134
总队长	20135
数日	20136
明末	20137
确切	20138
碰上	20139
罗田	20140
阻碍	20141
驱逐舰	20142
侵蚀	20143
安乡	20144
山海关	20145
底部	20146
微生物	20147
现役	20148
经济作物	20149
勪	20150
变态	20151
山峰	20152
晚辈	20153
月球	20154
根源	20155
联合国教科文组织	20156
远安	20157
闈	20158
验证	20159
前夕	20160
服侍	20161
灭绝	20162
繁忙	20163
落到	20164
连声	20165
集团军	20166
风情	20167
中队	20168
内城	20169
均衡	20170
担忧	20171
捕捞	20172
火药	20173
第七	20174
精英	20175
阳新	20176
风水	20177
首批	20178
七个	20179
头儿	20180
带上	20181
恰当	20182
接见	20183
照例	20184
缺点	20185
角落	20186
譬如	20187
迹象	20188
勾结	20189
十七年	20190
坐标	20191
庢	20192
报复	20193
星火计划	20194
石桥	20195
国共	20196
嬫	20197
快照	20198
智能	20199
生产方式	20200
留给	20201
站长	20202
竞选	20203
逐年	20204
配件	20205
一等	20206
万公斤	20207
中密度	20208
可知	20209
大厦	20210
差额选举	20211
折腾	20212
接应	20213
江夏郡	20214
猪肉	20215
相处	20216
造纸	20217
其后	20218
北岸	20219
北门	20220
女郎	20221
报刊	20222
栏杆	20223
欢呼	20224
汇合	20225
泰山	20226
病变	20227
纸坊	20228
草丛	20229
营建	20230
讲述	20231
钟祥市	20232
静静地	20233
中专	20234
亲征	20235
傍晚	20236
劳动人民文化宫	20237
华东	20238
屋脊	20239
水电	20240
统率	20241
个股	20242
敦煌	20243
新华门	20244
清新	20245
请问	20246
国产	20247
天河机场	20248
拾荒	20249
珠宝	20250
中央委员会	20251
中洲	20252
倘使	20253
冷却	20254
华容县	20255
嗓子	20256
宏伟	20257
恩施土家族苗族自治州	20258
掩护	20259
滚滚	20260
项羽	20261
各处	20262
哭声	20263
星系	20264
罗清泉	20265
翰林院	20266
蓦地	20267
贾志杰	20268
赤道	20269
闪电	20270
一世	20271
创始人	20272
南极	20273
城郊	20274
终端	20275
英国人	20276
长春	20277
不中	20278
王国生	20279
蒋祝平	20280
贫苦	20281
跟前	20282
身为	20283
随机	20284
使馆	20285
傅德辉	20286
刘子华	20287
北面	20288
张湾区	20289
杨桥湖	20290
焦山河	20291
玩具	20292
珞狮	20293
看成	20294
襄城区	20295
走马岭	20296
选用	20297
透过	20298
隐蔽	20299
预警	20300
高基庙	20301
催促	20302
向下	20303
朝阳	20304
机能	20305
流露	20306
短信	20307
默默地	20308
下山	20309
况且	20310
行程	20311
被俘	20312
风声	20313
亚运会	20314
大刀	20315
徐州	20316
正统	20317
中枢	20318
其时	20319
写成	20320
噷	20321
妥协	20322
山头	20323
电报	20324
中将	20325
传达	20326
出兵	20327
场地	20328
宝库	20329
挫折	20330
观音	20331
转型	20332
长久	20333
陈述	20334
一味	20335
一路上	20336
上台	20337
体质	20338
保守	20339
历程	20340
处在	20341
寂寞	20342
老夫	20343
脱身	20344
荣获	20345
中央政治局	20346
之江	20347
命中	20348
长期以来	20349
阁下	20350
以示	20351
全球化	20352
提拔	20353
编成	20354
转为	20355
大幅度	20356
宦官	20357
对准	20358
山寨	20359
树枝	20360
正规	20361
话剧	20362
近似	20363
闪烁	20364
问世	20365
景色	20366
珊瑚	20367
繀	20368
绉	20369
阵法	20370
八角	20371
勯	20372
操作系统	20373
无穷	20374
自愿	20375
各路	20376
呻吟	20377
喜悦	20378
平定	20379
断裂	20380
显赫	20381
漕运	20382
迫切	20383
风气	20384
驱动	20385
大字	20386
性情	20387
持久	20388
掌门人	20389
本届	20390
糟糕	20391
芙蓉	20392
这笔	20393
举措	20394
事宜	20395
名将	20396
左边	20397
浪漫	20398
那日	20399
交叉	20400
今夜	20401
刑罚	20402
大红	20403
慕容	20404
或者说	20405
效力	20406
欺骗	20407
程灵素	20408
素有	20409
鐫	20410
催化剂	20411
头目	20412
私营	20413
词汇	20414
中型	20415
天星	20416
搞好	20417
真诚	20418
西洋	20419
会后	20420
军政	20421
啗	20422
躯体	20423
声势	20424
奉命	20425
并入	20426
流出	20427
闀	20428
中央军委	20429
低温	20430
可比	20431
差点	20432
木头	20433
演讲	20434
迎来	20435
三十	20436
亲手	20437
以至于	20438
动弹	20439
地毯	20440
声称	20441
感慨	20442
文武百官	20443
歼灭	20444
疑心	20445
罐子	20446
老鼠	20447
设计师	20448
閬	20449
陈独秀	20450
除去	20451
一响	20452
印第安人	20453
山中	20454
用不着	20455
再有	20456
启发	20457
案例	20458
点儿	20459
相近	20460
老头子	20461
芬兰	20462
讨厌	20463
丛林	20464
决定性	20465
器械	20466
地壳	20467
境外	20468
房门	20469
来历	20470
桥面	20471
禁地	20472
鑳	20473
一株	20474
埌	20475
干活	20476
恶化	20477
继位	20478
不仅如此	20479
严谨	20480
修筑	20481
千里	20482
变质	20483
月经	20484
直属	20485
积分	20486
维也纳	20487
一斤	20488
外出	20489
少爷	20490
电子书	20491
集成	20492
驻外	20493
加深	20494
局限	20495
帐篷	20496
排水	20497
放大	20498
歌剧	20499
活泼	20500
瀵	20501
相交	20502
相接	20503
第三批	20504
门槛	20505
难民	20506
鸳鸯	20507
保定	20508
公顷	20509
大纲	20510
忧虑	20511
段正淳	20512
水量	20513
汉水	20514
沉思	20515
锦衣卫	20516
陷于	20517
受过	20518
梁山	20519
炮塔	20520
薪水	20521
一端	20522
处理器	20523
手势	20524
朝代	20525
楼下	20526
石化	20527
贩卖	20528
共有	20529
态势	20530
洞口	20531
一点点	20532
一组	20533
三日	20534
列宁	20535
奉献	20536
小康	20537
强势	20538
果树	20539
潃	20540
补给	20541
语法	20542
链接	20543
交战	20544
宋朝	20545
尾巴	20546
彝族	20547
形制	20548
放下	20549
牌子	20550
默默	20551
不定	20552
侵略军	20553
参赛	20554
少于	20555
手工	20556
管家	20557
腐蚀	20558
起草	20559
集结	20560
入学	20561
创造性	20562
十足	20563
富户	20564
方位	20565
水位	20566
津贴	20567
王位	20568
老虎	20569
龢	20570
不多时	20571
垬	20572
有用	20573
眼镜	20574
神态	20575
罪恶	20576
迁移	20577
队友	20578
商场	20579
彩色	20580
志愿者	20581
癌症	20582
线索	20583
结晶	20584
驻扎	20585
鸦片	20586
一侧	20587
两件	20588
体育场	20589
南侧	20590
原油	20591
感叹	20592
来得	20593
璺	20594
背影	20595
语族	20596
遇见	20597
三路	20598
反之	20599
大妈	20600
归来	20601
猜想	20602
良心	20603
难怪	20604
面孔	20605
兰州	20606
外人	20607
契约	20608
搴	20609
摆在	20610
水上	20611
马匹	20612
一共	20613
上方	20614
东欧	20615
义务教育	20616
半空	20617
协作	20618
各种各样	20619
忽地	20620
苍白	20621
行驶	20622
阿里	20623
你好	20624
写出	20625
双喜	20626
实体	20627
斩首	20628
注射	20629
编钟	20630
跃起	20631
重型	20632
全局	20633
内在	20634
北洋军阀	20635
在位	20636
士气	20637
开玩笑	20638
记者会	20639
兴衰	20640
圣地	20641
挡住	20642
看不到	20643
经受	20644
谷地	20645
事迹	20646
吸取	20647
大权	20648
常绿	20649
弃权	20650
浙江省	20651
米格	20652
讲求	20653
亲属	20654
入境	20655
单刀	20656
好奇	20657
当做	20658
按时	20659
最好	20660
箱子	20661
赞同	20662
运算	20663
进驻	20664
钥匙	20665
饿死	20666
不由	20667
出击	20668
欏	20669
武警	20670
百分点	20671
致命	20672
往日	20673
沦为	20674
流贼	20675
现任	20676
稍微	20677
立足	20678
酒杯	20679
采集	20680
高产	20681
鼓吹	20682
压缩	20683
参见	20684
宣称	20685
山东省	20686
无霜期	20687
踏上	20688
告辞	20689
扶贫	20690
挥舞	20691
本省	20692
牲畜	20693
诏令	20694
轻工业	20695
中小企业	20696
定然	20697
握住	20698
知识产权	20699
遏制	20700
鏀	20701
功臣	20702
嗘	20703
新人	20704
沉着	20705
黑夜	20706
二哥	20707
你家	20708
勭	20709
哑巴	20710
垂体	20711
太和	20712
剧团	20713
柯镇恶	20714
秋天	20715
罗刹	20716
订立	20717
分辨	20718
深夜	20719
瞎子	20720
隐居	20721
义父	20722
外事	20723
女生	20724
孤独	20725
宋思明	20726
层层	20727
总监	20728
沿途	20729
索尼	20730
草地	20731
调解	20732
车子	20733
郑重	20734
金水桥	20735
支队	20736
攻破	20737
首饰	20738
万人次	20739
上将	20740
操练	20741
绿豆	20742
董小宛	20743
衙署	20744
还好	20745
也罢	20746
布什	20747
当面	20748
播种	20749
水土	20750
犹太人	20751
红花	20752
身份证	20753
躲避	20754
不理	20755
后宫	20756
直辖	20757
窗户	20758
管理者	20759
紊乱	20760
课堂	20761
负面	20762
勤劳	20763
大伙	20764
白马	20765
西向东	20766
轻工	20767
凝聚	20768
功劳	20769
脚步声	20770
认同	20771
野外	20772
陕北	20773
骆驼	20774
高档	20775
人影	20776
充实	20777
入口	20778
北侧	20779
大姐	20780
好多	20781
工地	20782
敌后	20783
管制	20784
聚居	20785
至尊	20786
裁决	20787
闪避	20788
鸟瞰	20789
八卦	20790
博客	20791
印度尼西亚	20792
救援	20793
文革	20794
胡说八道	20795
行星	20796
一时期	20797
凌晨	20798
几日	20799
利税	20800
器材	20801
大树	20802
幸好	20803
捷克	20804
流失	20805
疗法	20806
联手	20807
鏍	20808
饭菜	20809
入市	20810
分公司	20811
双边	20812
夸张	20813
妖精	20814
德军	20815
行礼	20816
迫害	20817
陶瓷	20818
下滑	20819
两端	20820
体操	20821
欐	20822
部件	20823
预报	20824
下落	20825
所有权	20826
无线	20827
来时	20828
紧接着	20829
胡说	20830
阶梯	20831
凶猛	20832
十三年	20833
十二年	20834
可笑	20835
新高	20836
浩浩荡荡	20837
盼望	20838
结算	20839
行径	20840
路桥	20841
金牙	20842
余地	20843
关怀	20844
反动派	20845
后退	20846
呐喊	20847
第六	20848
耽误	20849
路边	20850
进京	20851
乌克兰	20852
仇恨	20853
年末	20854
恶心	20855
警方	20856
谷物	20857
鐜	20858
震撼	20859
青睐	20860
不对	20861
交错	20862
力图	20863
多用	20864
对了	20865
所有制	20866
担子	20867
攻打	20868
林立	20869
沙僧	20870
涘	20871
牢固	20872
神奇	20873
糯米	20874
细致	20875
脉冲	20876
节省	20877
贝尔	20878
金星	20879
党组织	20880
应届	20881
灾区	20882
轮流	20883
主角	20884
境地	20885
增收	20886
外形	20887
电池	20888
纺织品	20889
终止	20890
绳子	20891
行列	20892
试试	20893
陵墓	20894
南亚	20895
四项	20896
墓室	20897
姿势	20898
寂静	20899
搜集	20900
浓缩	20901
甘蔗	20902
疗效	20903
自然科学	20904
计较	20905
都市	20906
前所未有	20907
品位	20908
坏人	20909
武汉大学	20910
注定	20911
耕作	20912
茫然	20913
谈谈	20914
难过	20915
驸马	20916
创制	20917
口腔	20918
坚守	20919
法人	20920
言论	20921
压制	20922
吴摩西	20923
国际化	20924
氛围	20925
照射	20926
罚款	20927
运转	20928
迷信	20929
今儿	20930
名列	20931
抗敌	20932
烟草	20933
神农	20934
隔离	20935
一串	20936
乘坐	20937
兼有	20938
可口	20939
朝政	20940
求得	20941
百花	20942
秦岭	20943
竣工	20944
走势	20945
下设	20946
伊斯兰	20947
兄长	20948
加班	20949
山路	20950
御史	20951
敌方	20952
明珠	20953
柔软	20954
洪武	20955
老家	20956
行军	20957
鐒	20958
长长的	20959
助手	20960
区划	20961
厚度	20962
告知	20963
外围	20964
师徒	20965
慕容复	20966
王子	20967
衣襟	20968
鄂豫皖	20969
中兴	20970
介入	20971
似地	20972
成化	20973
抛弃	20974
苏格拉底	20975
范蠡	20976
轰炸	20977
远销	20978
镇上	20979
陈瞎子	20980
格式	20981
每股	20982
版图	20983
诚信	20984
门类	20985
大块	20986
察看	20987
惭愧	20988
板栗	20989
游牧	20990
第二年	20991
羡慕	20992
贿赂	20993
过境	20994
选举权	20995
为名	20996
凝视	20997
刊登	20998
地板	20999
天大	21000
导师	21001
正月	21002
永不	21003
洞穴	21004
议程	21005
岳飞	21006
往事	21007
温泉	21008
溶于	21009
激战	21010
牵引	21011
破裂	21012
贫穷	21013
体格	21014
保住	21015
圣旨	21016
天山	21017
小孔	21018
惊呼	21019
未经	21020
生源	21021
荷叶	21022
贬值	21023
轮船	21024
实战	21025
当成	21026
楼梯	21027
水源	21028
注意力	21029
白宫	21030
研讨会	21031
营长	21032
该校	21033
都察院	21034
骡子	21035
上报	21036
农历	21037
出场	21038
热门	21039
生物学	21040
緱	21041
见证	21042
逼近	21043
长治久安	21044
隆庆	21045
静脉	21046
世袭	21047
东晋	21048
乡下	21049
千尺	21050
山石	21051
护士	21052
焦虑	21053
两手	21054
保密	21055
傣族	21056
反潜	21057
尽头	21058
带头	21059
李鹏	21060
短暂	21061
蒙古人	21062
赋税	21063
事务所	21064
开办	21065
下旬	21066
书面	21067
双臂	21068
啤酒	21069
排队	21070
绳索	21071
鸭子	21072
九个	21073
右边	21074
广布	21075
店铺	21076
忍耐	21077
慌忙	21078
掠夺	21079
搏斗	21080
无可奈何	21081
生产能力	21082
石门	21083
视觉	21084
身着	21085
马良	21086
二世	21087
刑法	21088
单词	21089
反共	21090
向阳	21091
壁上	21092
头痛	21093
女婿	21094
宾馆	21095
油画	21096
疑难	21097
第三个	21098
西亚	21099
西城	21100
迄今	21101
重用	21102
乘客	21103
传送	21104
南斯拉夫	21105
古都	21106
咽喉	21107
四通八达	21108
复制	21109
幸运	21110
成交	21111
诸位	21112
起兵	21113
黎明	21114
主教练	21115
卫士	21116
历史性	21117
司马	21118
困扰	21119
大大的	21120
察觉	21121
工序	21122
树林	21123
爱尔兰	21124
红外	21125
一棵	21126
亯	21127
党政	21128
大中型	21129
徐天宏	21130
秦始皇	21131
舍不得	21132
观赏	21133
造船	21134
郊区	21135
五四	21136
刚好	21137
呼唤	21138
圆柱	21139
家电	21140
市级	21141
芦苇	21142
诸国	21143
隐瞒	21144
餐厅	21145
主帅	21146
五十	21147
动荡	21148
同类	21149
嵩山	21150
性子	21151
治权	21152
痛哭	21153
英军	21154
顶端	21155
黑白	21156
以求	21157
共享	21158
喜事	21159
墓葬	21160
当晚	21161
当着	21162
抗击	21163
红娘子	21164
重镇	21165
重阳	21166
陈列	21167
不耐烦	21168
军费	21169
化为	21170
压抑	21171
布满	21172
建工	21173
戜	21174
教室	21175
显示器	21176
望远镜	21177
江西省	21178
破译	21179
裤子	21180
一隅	21181
三名	21182
三角洲	21183
两声	21184
云雾	21185
会晤	21186
宫城	21187
油田	21188
胸膛	21189
通高	21190
首座	21191
不知不觉	21192
举人	21193
先令	21194
双重	21195
嬩	21196
无偿	21197
残疾	21198
流水	21199
理财	21200
省政府	21201
胜地	21202
修炼	21203
十一五	21204
打造	21205
日渐	21206
波长	21207
胈	21208
英特尔	21209
魏忠贤	21210
作文	21211
外科	21212
客场	21213
导游	21214
总共	21215
水文	21216
用药	21217
鑷	21218
食堂	21219
马路	21220
三元	21221
两下	21222
两道	21223
党派	21224
吐蕃	21225
张英才	21226
愈来愈	21227
振兴	21228
汉文	21229
添加剂	21230
港澳	21231
莫名其妙	21232
菑	21233
通达	21234
中下游	21235
发抖	21236
商贸	21237
坚实	21238
引人注目	21239
泥沙	21240
胜过	21241
钻进	21242
三座门	21243
上线	21244
不当	21245
乐队	21246
互动	21247
侥幸	21248
倒退	21249
力争	21250
器物	21251
外文	21252
导向	21253
巡逻	21254
年级	21255
怒火	21256
洋人	21257
照样	21258
独具	21259
禰	21260
那年	21261
亮相	21262
对外贸易	21263
平生	21264
野战军	21265
不容	21266
乌云	21267
全国代表大会	21268
八一	21269
列强	21270
右倾	21271
四名	21272
增至	21273
天河	21274
常德	21275
房价	21276
拰	21277
玉器	21278
终年	21279
被子	21280
九间	21281
人民军队	21282
厂家	21283
周末	21284
庝	21285
意愿	21286
收支	21287
亲密	21288
体长	21289
余家	21290
名声	21291
四面八方	21292
平坦	21293
打下	21294
敞开	21295
新娘	21296
新浪	21297
木板	21298
畸形	21299
积温	21300
访谈	21301
赶回	21302
运送	21303
门票	21304
世界各地	21305
佷	21306
假装	21307
宁静	21308
往后	21309
攻入	21310
民主主义	21311
皮子	21312
簇拥	21313
倡议	21314
养老	21315
兼顾	21316
卫生部	21317
庡	21318
影响力	21319
杉木	21320
极度	21321
步行	21322
江中	21323
活塞	21324
相遇	21325
美誉	21326
而后	21327
舍得	21328
迈进	21329
防水	21330
顶上	21331
上课	21332
不可避免	21333
吸引力	21334
属下	21335
微波	21336
插入	21337
文官	21338
暗自	21339
气质	21340
熟练	21341
第一位	21342
风采	21343
债券	21344
券门	21345
前方	21346
动身	21347
天皇	21348
张召重	21349
时时	21350
气愤	21351
甘心	21352
石窟	21353
系数	21354
金轮	21355
一块儿	21356
前身	21357
劝说	21358
善人	21359
巡航导弹	21360
时说	21361
物理学家	21362
降落	21363
霍青桐	21364
专科学校	21365
且说	21366
华南	21367
容貌	21368
放射性	21369
新西兰	21370
假使	21371
击中	21372
别名	21373
变法	21374
城头	21375
天麻	21376
实录	21377
扭转	21378
政治委员	21379
机票	21380
爱心	21381
瑶族	21382
频频	21383
侧面	21384
冲出	21385
尺度	21386
战败	21387
摇晃	21388
杀手	21389
永安	21390
热心	21391
石膏	21392
阻力	21393
三类	21394
不至于	21395
服务器	21396
毫克	21397
略有	21398
纵贯	21399
绕过	21400
调和	21401
那次	21402
预言	21403
高空	21404
五色土	21405
叙利亚	21406
增殖	21407
朝鲜族	21408
木婉清	21409
精通	21410
蓝天	21411
部族	21412
一战	21413
上演	21414
亚太地区	21415
几经	21416
唯有	21417
排斥	21418
构件	21419
殖民者	21420
涵盖	21421
綋	21422
舒适	21423
解散	21424
露天	21425
一期	21426
俯身	21427
写信	21428
善良	21429
山口	21430
并肩	21431
弱点	21432
甲板	21433
赏赐	21434
驻足	21435
中书省	21436
公生桥	21437
北魏	21438
太守	21439
左翼	21440
打入	21441
无从	21442
王纬宇	21443
电磁	21444
相识	21445
看清	21446
罗马帝国	21447
金刚	21448
除外	21449
乐于	21450
无处	21451
无效	21452
日记	21453
贪污	21454
轻型	21455
归属	21456
折子	21457
拍拍	21458
暴动	21459
镇定	21460
书生	21461
任用	21462
借款	21463
后方	21464
御驾	21465
摔倒	21466
繁多	21467
纠缠	21468
绍兴	21469
若非	21470
规范化	21471
身形	21472
追溯	21473
里边	21474
两块	21475
军团	21476
利于	21477
数年	21478
梁启超	21479
电路	21480
胜负	21481
解体	21482
警官	21483
降价	21484
元首	21485
前边	21486
咸丰	21487
大山	21488
威严	21489
整治	21490
显出	21491
本版	21492
渤海	21493
衣裳	21494
师生	21495
昆仑	21496
柬埔寨	21497
武官	21498
渡过	21499
潇湘	21500
炸药	21501
碰撞	21502
篮球	21503
肩上	21504
胡乱	21505
诗篇	21506
赚钱	21507
信贷	21508
内政	21509
再生	21510
冷汗	21511
半径	21512
喜剧	21513
常年	21514
故城	21515
最高峰	21516
面色	21517
下次	21518
伤势	21519
侄儿	21520
台湾省	21521
排长	21522
照明	21523
狩猎	21524
使出	21525
假期	21526
台北	21527
成千上万	21528
自卫	21529
航空母舰	21530
输送	21531
选项	21532
都督府	21533
防卫	21534
魔教	21535
一员	21536
三千	21537
五岳	21538
伴生	21539
分量	21540
天亮	21541
妨碍	21542
市政	21543
归纳	21544
形似	21545
惯例	21546
战马	21547
精致	21548
趁机	21549
依托	21550
关系人	21551
剩余	21552
医师	21553
合计	21554
嚭	21555
安抚	21556
开业	21557
悬殊	21558
掠过	21559
数次	21560
水生	21561
犱	21562
生产者	21563
院内	21564
不忍	21565
关公	21566
再三	21567
农场	21568
教徒	21569
田伯光	21570
白族	21571
神功	21572
细细	21573
胎儿	21574
重任	21575
高僧	21576
修养	21577
全场	21578
几名	21579
十七	21580
喊声	21581
威风	21582
承包	21583
熊廷弼	21584
甲鱼	21585
看望	21586
神气	21587
罪名	21588
赶忙	21589
外观	21590
大选	21591
捕食	21592
氬	21593
两眼	21594
产权	21595
呕吐	21596
固有	21597
奋力	21598
寺院	21599
径直	21600
提防	21601
操心	21602
数据库	21603
比比皆是	21604
瞻仰	21605
突围	21606
站住	21607
通天	21608
金代	21609
黄连	21610
争执	21611
动力学	21612
宝石	21613
客店	21614
往年	21615
扶持	21616
有无	21617
服饰	21618
极限	21619
石器	21620
视野	21621
一月	21622
下班	21623
刀法	21624
剪刀	21625
宽广	21626
忙碌	21627
抚摸	21628
许可	21629
追问	21630
为着	21631
几条	21632
右侧	21633
彩陶	21634
数十年	21635
焕然一新	21636
血压	21637
为民	21638
仅供参考	21639
化解	21640
吆喝	21641
在职	21642
护卫	21643
日照	21644
槦	21645
气流	21646
穿越	21647
紫色	21648
初年	21649
千古	21650
呼叫	21651
圆圆	21652
天下第一	21653
小雨	21654
工场	21655
惊慌	21656
慷慨	21657
政制	21658
流氓	21659
蘑菇	21660
钢材	21661
陆游	21662
八旗	21663
官话	21664
恨不得	21665
旅馆	21666
明教	21667
查处	21668
骨骼	21669
中南	21670
关中	21671
农田	21672
卑职	21673
反攻	21674
围着	21675
奈何	21676
字体	21677
居多	21678
户籍	21679
抗生素	21680
朱红	21681
身心	21682
镜头	21683
三军	21684
不利于	21685
前一天	21686
剧目	21687
原谅	21688
吸烟	21689
尼姑	21690
排出	21691
早晚	21692
望见	21693
漆黑	21694
独立自主	21695
理应	21696
省外	21697
职员	21698
车间	21699
野心	21700
量子	21701
金丝	21702
驰名中外	21703
中国人民政治协商会议	21704
光电	21705
地狱	21706
城堡	21707
奔跑	21708
泡沫	21709
盛大	21710
赞扬	21711
近年	21712
雍正	21713
驻军	21714
回身	21715
官署	21716
崇高	21717
弹劾	21718
新风	21719
水底	21720
空运	21721
耳光	21722
请安	21723
销售额	21724
两点	21725
亡国	21726
分水岭	21727
务实	21728
学堂	21729
幽默	21730
推理	21731
摆手	21732
渔民	21733
点评	21734
看好	21735
空调	21736
统治阶级	21737
运输机	21738
里头	21739
金学曾	21740
鐩	21741
三角	21742
交易所	21743
仪表	21744
其他人	21745
勇士	21746
捕鱼	21747
李莲英	21748
洼地	21749
炒菜	21750
羁縻	21751
邻居	21752
中道	21753
全称	21754
冷冷的	21755
列举	21756
太师	21757
小船	21758
抓紧	21759
淮河	21760
湖面	21761
眉毛	21762
矿冶	21763
薪酬	21764
衣袖	21765
财经	21766
饲料	21767
减弱	21768
可行	21769
惊动	21770
新民主主义	21771
欧洲人	21772
潮湿	21773
王守仁	21774
病因	21775
祭天	21776
自治权	21777
过后	21778
二来	21779
修复	21780
国人	21781
坚固	21782
数十	21783
河段	21784
深山	21785
物流	21786
租界	21787
稍稍	21788
说服	21789
赌博	21790
选定	21791
锦州	21792
农奴	21793
初级阶段	21794
城池	21795
好不好	21796
常住	21797
弥漫	21798
忠诚	21799
情势	21800
愈合	21801
棉纺织	21802
歌舞	21803
潜水	21804
炎帝	21805
盛开	21806
两行	21807
取名	21808
媒介	21809
容纳	21810
紧急状态	21811
魏晋	21812
黎族	21813
临近	21814
寄生	21815
小儿	21816
积雪	21817
米兰	21818
被选举权	21819
解读	21820
起码	21821
过剩	21822
迎面	21823
退役	21824
适应性	21825
两头	21826
中介	21827
十五大	21828
园艺场	21829
庄重	21830
海军陆战队	21831
火炬	21832
门楼	21833
陈文洪	21834
一枝	21835
做人	21836
应急	21837
无须	21838
有限责任	21839
望望	21840
爱因斯坦	21841
调研	21842
野兽	21843
仲裁	21844
巨额	21845
感冒	21846
技术开发区	21847
旺盛	21848
犯规	21849
省城	21850
纪念馆	21851
辈出	21852
高等院校	21853
伺候	21854
冷战	21855
增进	21856
官场	21857
定价	21858
第一天	21859
轻声	21860
刺刀	21861
叫卖	21862
可可	21863
四级	21864
心疼	21865
油脂	21866
耗费	21867
规章	21868
觉醒	21869
训练班	21870
夎	21871
大专	21872
所学	21873
整修	21874
水路	21875
江河	21876
球场	21877
石碑	21878
而立	21879
腊肉	21880
诱惑	21881
选任	21882
几百年	21883
奋起	21884
布依族	21885
恭敬	21886
慎重	21887
战俘	21888
控制系统	21889
推测	21890
教导	21891
极好	21892
柴禾	21893
海岸线	21894
牛顿	21895
丘处机	21896
全文	21897
分院	21898
十几个	21899
富贵	21900
海内外	21901
烟雾	21902
知觉	21903
石壁	21904
赛事	21905
跨度	21906
这部分	21907
邮政编码	21908
重申	21909
仙人	21910
国家计划	21911
投机	21912
新河	21913
枕头	21914
潼关	21915
禁不住	21916
致远	21917
詹姆斯	21918
一新	21919
全权代表	21920
公寓	21921
唯独	21922
国立	21923
徘徊	21924
快快	21925
快要	21926
评审	21927
造诣	21928
雇佣	21929
企业家	21930
伦理	21931
修理	21932
卧室	21933
反思	21934
坏事	21935
多余	21936
夷陵	21937
定理	21938
开幕	21939
矿藏	21940
秦汉	21941
绿萼	21942
罗马尼亚	21943
全城	21944
刀子	21945
失利	21946
招商	21947
最先	21948
棰	21949
滀	21950
蜈蚣	21951
转念	21952
事变	21953
会议室	21954
兼职	21955
孙四海	21956
开头	21957
恶人	21958
数值	21959
电源	21960
秀才	21961
邵大侠	21962
东城	21963
京广铁路	21964
僵尸	21965
功效	21966
小时候	21967
我行	21968
杜绝	21969
武陵	21970
泉水	21971
营地	21972
轿子	21973
通讯社	21974
关头	21975
凝神	21976
半截	21977
卓越	21978
喉咙	21979
坚硬	21980
外援	21981
子公司	21982
惯性	21983
指导员	21984
文责自负	21985
渡江	21986
赵寄客	21987
一台	21988
一模一样	21989
不久前	21990
变异	21991
土特产	21992
掀开	21993
转运	21994
雨水	21995
餐馆	21996
饥饿	21997
公道	21998
动人	21999
国务	22000
培训班	22001
增值	22002
工农业	22003
开阔	22004
末期	22005
沙丘	22006
票价	22007
紟	22008
阿拉伯人	22009
院中	22010
两方	22011
住院	22012
促成	22013
城垣	22014
展出	22015
心愿	22016
拚命	22017
掩盖	22018
概率	22019
欺侮	22020
殡葬	22021
献策	22022
综合治理	22023
荒凉	22024
被统治者	22025
重力	22026
阔叶树	22027
鲜艳	22028
外交部长	22029
大顺	22030
季后赛	22031
烧饼	22032
独裁	22033
研讨	22034
移居	22035
群众性	22036
越国	22037
三家	22038
两栖	22039
中小	22040
中途	22041
健身	22042
四位	22043
团团	22044
填补	22045
尸首	22046
屏幕	22047
归于	22048
损坏	22049
数万	22050
无辜	22051
曹禺	22052
替换	22053
林中	22054
果断	22055
泥土	22056
肝脏	22057
蛋壳	22058
问起	22059
黄庭坚	22060
乳房	22061
倒霉	22062
共识	22063
劧	22064
大功	22065
新民主主义革命	22066
权限	22067
永久	22068
瓷器	22069
补贴	22070
退回	22071
黑龙江省	22072
光彩	22073
发送	22074
喊道	22075
嗐	22076
大河	22077
思念	22078
散布	22079
知晓	22080
社长	22081
签名	22082
算术	22083
苦难	22084
野人	22085
风雨	22086
飞舞	22087
公安局	22088
宝刀	22089
归还	22090
扩充	22091
抗争	22092
熶	22093
粮食作物	22094
观光	22095
阻挡	22096
体检	22097
奉行	22098
客车	22099
山珍海味	22100
总和	22101
星云	22102
电视剧	22103
身受	22104
遗体	22105
鎸	22106
长江三峡	22107
信件	22108
刻有	22109
危难	22110
回旋	22111
字样	22112
幸亏	22113
惊醒	22114
显露	22115
最深	22116
民主党派	22117
罪行	22118
过儿	22119
静止	22120
事例	22121
二氧化碳	22122
宏大	22123
岩浆	22124
平津	22125
拈阄	22126
捕捉	22127
有钱	22128
白莲	22129
紶	22130
腹地	22131
苦苦	22132
说实话	22133
赞赏	22134
二十七年	22135
党组	22136
大湖	22137
完工	22138
幕僚	22139
气派	22140
水泵	22141
牌楼	22142
脑海	22143
苏军	22144
袖子	22145
贫民	22146
乖乖	22147
光谱	22148
剧场	22149
发展观	22150
好不容易	22151
打架	22152
批量	22153
护卫舰	22154
断定	22155
派兵	22156
演唱	22157
狼狈	22158
畜牧	22159
而论	22160
预料	22161
关山	22162
关税	22163
北洋政府	22164
参赞	22165
圣水	22166
多条	22167
大江	22168
好歹	22169
姑妈	22170
州政府	22171
死伤	22172
点着	22173
老兄	22174
肥料	22175
腹中	22176
人民检察院	22177
几家	22178
南口	22179
微弱	22180
德意志	22181
悄悄地	22182
旗下	22183
欺负	22184
正说	22185
武术	22186
灌木	22187
留下来	22188
礼堂	22189
脸颊	22190
赞叹	22191
事后	22192
二战	22193
减小	22194
呰	22195
换上	22196
无异	22197
甚为	22198
田地	22199
背面	22200
蔓延	22201
一粒	22202
人次	22203
人民团体	22204
十二月	22205
十几年	22206
四品	22207
基金会	22208
小将	22209
庄稼	22210
故居	22211
民族主义	22212
诗集	22213
门内	22214
阻挠	22215
中产阶级	22216
争吵	22217
代理人	22218
公然	22219
南县	22220
声誉	22221
已成	22222
平地	22223
掩饰	22224
试题	22225
谣言	22226
走访	22227
零星	22228
俗名	22229
务必	22230
按摩	22231
筑城	22232
聚合	22233
西伯利亚	22234
跨越	22235
身高	22236
钢筋	22237
鬼子	22238
三中全会	22239
上周	22240
专著	22241
地里	22242
处死	22243
好几个	22244
守卫	22245
实事	22246
抓起	22247
灯火	22248
着眼	22249
翻修	22250
认出	22251
再生产	22252
十万	22253
发信	22254
大跃进	22255
失调	22256
宴会	22257
救济	22258
本能	22259
楀	22260
水准	22261
治国	22262
滆	22263
烹制	22264
糖尿病	22265
绵延	22266
针对性	22267
鳔	22268
一排	22269
五星红旗	22270
冤枉	22271
名优	22272
安心	22273
师团	22274
排水量	22275
新年	22276
智利	22277
毒蛇	22278
比作	22279
烧毁	22280
申花	22281
看重	22282
顶部	22283
一连	22284
交界	22285
停下	22286
分数线	22287
呼呼	22288
哈尼族	22289
平儿	22290
料理	22291
暂停	22292
看起来	22293
精锐	22294
转而	22295
陷阱	22296
不屈	22297
交锋	22298
厌恶	22299
图谋	22300
孙九爷	22301
怒气	22302
拉萨	22303
求职者	22304
清澈	22305
看似	22306
繁重	22307
职称	22308
要害	22309
跪倒	22310
世俗	22311
中和	22312
丰产	22313
为准	22314
会计师	22315
光谷	22316
同伴	22317
大面积	22318
最快	22319
朦胧	22320
自立	22321
西湖	22322
踁	22323
鍓	22324
高粱	22325
鼓乐	22326
仁兄	22327
剧社	22328
动用	22329
十九年	22330
天地会	22331
急流	22332
悲惨	22333
意味	22334
抉择	22335
晋升	22336
树干	22337
毒品	22338
熔点	22339
甜酒	22340
育才	22341
表述	22342
闻一多	22343
下锅	22344
伸展	22345
十一月	22346
家门	22347
撳	22348
整数	22349
早日	22350
未知	22351
特地	22352
石狮	22353
颗粒	22354
书本	22355
别墅	22356
国家博物馆	22357
婂	22358
海边	22359
纤维素	22360
飞扬	22361
一经	22362
云母	22363
出血	22364
大同	22365
奖学金	22366
持股	22367
烈士	22368
田福堂	22369
砂土	22370
秘鲁	22371
自尽	22372
蒲圻	22373
高新	22374
高高	22375
两根	22376
亲身	22377
住宿	22378
余下	22379
佺	22380
冲积平原	22381
发源地	22382
合力	22383
大革命	22384
天黑	22385
好人	22386
惟有	22387
杭汉	22388
气概	22389
童子	22390
粗大	22391
繁衍	22392
线性	22393
万向	22394
不由自主	22395
京广线	22396
史书	22397
喷出	22398
天生	22399
学联	22400
繁琐	22401
网民	22402
联队	22403
资讯	22404
问问	22405
香味	22406
不败	22407
中军	22408
亲热	22409
众将	22410
大肆	22411
彲	22412
徐秋斋	22413
心腹	22414
抽屉	22415
搭配	22416
流泪	22417
相会	22418
祝贺	22419
秭归	22420
空降	22421
聊天	22422
资深	22423
钱其琛	22424
非同小可	22425
右臂	22426
吃法	22427
国共合作	22428
大方	22429
师母	22430
强力	22431
慈善	22432
活性	22433
涂料	22434
现实主义	22435
眼球	22436
精密	22437
股本	22438
茫茫	22439
衔接	22440
貜	22441
人学	22442
借以	22443
品级	22444
大冶	22445
奔腾	22446
奔驰	22447
摘要	22448
暴雨	22449
比起	22450
民工	22451
纤维板	22452
胡锦涛	22453
营救	22454
互助	22455
哽咽	22456
大火	22457
改成	22458
核试验	22459
流亡	22460
清蒸	22461
湖西	22462
财政经济委员会	22463
质疑	22464
马来	22465
业内人士	22466
二中	22467
公积金	22468
外头	22469
夸特	22470
学到	22471
小学生	22472
招聘会	22473
班长	22474
白石	22475
看病	22476
笑嘻嘻	22477
簨	22478
自发	22479
邻国	22480
随身	22481
上边	22482
听众	22483
圣人	22484
孢子	22485
惊喜	22486
火器	22487
真空	22488
肆意	22489
阮大铖	22490
鸦片战争	22491
史记	22492
放声	22493
昏迷	22494
毒药	22495
法典	22496
电机	22497
短短	22498
被告	22499
领取	22500
东升	22501
参照	22502
失踪	22503
庑	22504
得来	22505
本世纪	22506
李肇星	22507
沿线	22508
深圳市	22509
班子	22510
用意	22511
严禁	22512
大石	22513
天鹅	22514
悲痛	22515
无记名	22516
耽搁	22517
自知	22518
辞去	22519
鏋	22520
驾驶员	22521
下部	22522
不平	22523
会合	22524
傀儡	22525
割据	22526
外皮	22527
工业部门	22528
弧形	22529
护送	22530
新纪元	22531
星宿	22532
有余	22533
森工	22534
河边	22535
注释	22536
混战	22537
独居石	22538
监督权	22539
亚历山大	22540
去过	22541
双腿	22542
应城	22543
思想家	22544
想像	22545
战事	22546
收敛	22547
李俊	22548
松树	22549
构建	22550
紧迫	22551
螺旋	22552
采纳	22553
高位	22554
亲近	22555
半决赛	22556
咬牙	22557
宁愿	22558
宽大	22559
州府	22560
左臂	22561
拥挤	22562
探花	22563
推举	22564
新华	22565
昨夜	22566
毛尖	22567
猴子	22568
端门	22569
翅膀	22570
诸州	22571
钟祥	22572
陙	22573
食性	22574
鱼池	22575
一幕	22576
军营	22577
净利润	22578
名家	22579
回应	22580
宜城	22581
峨嵋	22582
救人	22583
正值	22584
民航	22585
氨基酸	22586
海南省	22587
迦太基	22588
钦差	22589
霎时	22590
万股	22591
为数	22592
从没	22593
传世	22594
余万	22595
凶险	22596
劲力	22597
勾当	22598
化疗	22599
口音	22600
居于	22601
明洪武	22602
湅	22603
照料	22604
误会	22605
辽宁省	22606
鏁	22607
陪同	22608
黄陵	22609
中国历史博物馆	22610
兰花	22611
十天	22612
厢房	22613
口里	22614
山道	22615
常数	22616
惨重	22617
边防	22618
金台	22619
黑陶	22620
一发	22621
削减	22622
四中	22623
多媒体	22624
封面	22625
流芳	22626
美学	22627
贫富	22628
到时候	22629
宫门	22630
山前	22631
日元	22632
椂	22633
榨菜	22634
许家	22635
酸性	22636
间谍	22637
集体所有	22638
书院	22639
傻子	22640
哭泣	22641
张大	22642
愚蠢	22643
批次	22644
林冲	22645
消毒	22646
玩笑	22647
留意	22648
知县	22649
税务	22650
第一名	22651
落成	22652
藻井	22653
调剂	22654
防备	22655
隋唐	22656
鹿兆鹏	22657
三中	22658
不通	22659
丹江口	22660
单板	22661
各州	22662
夌	22663
当先	22664
数千	22665
用水	22666
积蓄	22667
立下	22668
第一种	22669
贵妃	22670
酒家	22671
重心	22672
閫	22673
门窗	22674
上任	22675
中国地质大学	22676
五大	22677
克里特	22678
大自然	22679
接管	22680
政治经济学	22681
明世宗	22682
歌声	22683
滥用	22684
舅舅	22685
荣禄	22686
解脱	22687
顽童	22688
个头	22689
余额	22690
初时	22691
将要	22692
德安	22693
新式	22694
无形	22695
武陵山	22696
民营	22697
汉川	22698
江陵县	22699
狮子山	22700
玫瑰	22701
琵琶	22702
监控	22703
第一步	22704
管理权	22705
绗	22706
著述	22707
长叹	22708
非凡	22709
发信人	22710
拿破仑	22711
母子	22712
箣	22713
苏格兰	22714
见得	22715
讨好	22716
逃出	22717
香料	22718
鲟鱼	22719
两路	22720
宁波	22721
官山	22722
年薪	22723
擅自	22724
此言	22725
流芳百世	22726
确有	22727
第二产业	22728
轻微	22729
陈贞慧	22730
五百	22731
人民解放战争	22732
住处	22733
军事法院	22734
双儿	22735
团城	22736
困惑	22737
埋怨	22738
大将军	22739
山镇	22740
无能	22741
早早	22742
榜眼	22743
沿江	22744
篮板	22745
边区	22746
长河	22747
鲜红	22748
五里	22749
利息率	22750
张学良	22751
房基	22752
抗拒	22753
掌声	22754
新四军	22755
殷素素	22756
淡淡	22757
溶解	22758
背叛	22759
自卫队	22760
舰船	22761
舵主	22762
药师	22763
阿曼	22764
降临	22765
举报	22766
关上	22767
千张	22768
受不了	22769
总称	22770
愤慨	22771
政局	22772
有毒	22773
服务业	22774
正直	22775
沮丧	22776
激昂	22777
神农架林区	22778
糯米饭	22779
路过	22780
运力	22781
先驱	22782
大都城	22783
尸身	22784
明儿	22785
朴实	22786
结实	22787
耕种	22788
超市	22789
退化	22790
通俗	22791
中南财经政法大学	22792
产能	22793
优异	22794
偏重	22795
关切	22796
军事检察院	22797
勘探	22798
反手	22799
吴汝义	22800
庐山	22801
手帕	22802
指引	22803
故障	22804
文科	22805
暗想	22806
月底	22807
有所不同	22808
洺	22809
清炖	22810
潜在	22811
矿石	22812
章宗祥	22813
群臣	22814
船头	22815
要死	22816
中新网	22817
优于	22818
卢俊义	22819
急速	22820
沙湖	22821
瓦屋	22822
逃避	22823
凯旋归来	22824
城下	22825
昂贵	22826
理学	22827
畏惧	22828
肢体	22829
趁着	22830
远征	22831
三户	22832
公有	22833
减肥	22834
北非	22835
土地革命	22836
坐落	22837
委内瑞拉	22838
岳父	22839
工作部门	22840
市容	22841
有益于	22842
[...]
