[PAD]
[UNK]
[CLS]
[SEP]
[MASK]
!
"
#
$
%
&
'
(
)
*
+
,
-
.
/
0
1
2
3
4
5
6
7
8
9
:
;
<
=
>
?
@
[
\
]
^
_
a
b
c
d
e
f
g
h
i
j
k
l
m
n
o
p
q
r
s
t
u
v
w
x
y
z
{
|
}
~
£
¤
¥
§
©
«
®
°
±
²
³
µ
·
¹
º
»
¼
×
ß
æ
÷
ø
đ
ŋ
ɔ
ə
ɡ
ʰ
ˇ
ˈ
ˊ
ˋ
ˍ
ː
˙
˚
ˢ
α
β
γ
δ
ε
η
θ
ι
κ
λ
μ
ν
ο
π
ρ
ς
σ
τ
υ
φ
χ
ψ
ω
а
б
в
г
д
е
ж
з
и
к
л
м
н
о
п
р
с
т
у
ф
х
ц
ч
ш
ы
ь
я
і
ا
ب
ة
ت
د
ر
س
ع
ل
م
ن
ه
و
ي
۩
ก
ง
น
ม
ย
ร
อ
า
เ
๑
་
ღ
ᄀ
ᄁ
ᄂ
ᄃ
ᄅ
ᄆ
ᄇ
ᄈ
ᄉ
ᄋ
ᄌ
ᄎ
ᄏ
ᄐ
ᄑ
ᄒ
ᅡ
ᅢ
ᅣ
ᅥ
ᅦ
ᅧ
ᅨ
ᅩ
ᅪ
ᅬ
ᅭ
ᅮ
ᅯ
ᅲ
ᅳ
ᅴ
ᅵ
ᆨ
ᆫ
ᆯ
ᆷ
ᆸ
ᆺ
ᆻ
ᆼ
ᗜ
ᵃ
ᵉ
ᵍ
ᵏ
ᵐ
ᵒ
ᵘ
‖
„
†
•
‥
‧

‰
′
″
‹
›
※
‿
⁄
ⁱ
⁺
ⁿ
₁
₂
₃
₄
€
℃
№
™
ⅰ
ⅱ
ⅲ
ⅳ
ⅴ
←
↑
→
↓
↔
↗
↘
⇒
∀
−
∕
∙
√
∞
∟
∠
∣
∥
∩
∮
∶
∼
∽
≈
≒
≡
≤
≥
≦
≧
≪
≫
⊙
⋅
⋈
⋯
⌒
①
②
③
④
⑤
⑥
⑦
⑧
⑨
⑩
⑴
⑵
⑶
⑷
⑸
⒈
⒉
⒊
⒋
ⓒ
ⓔ
ⓘ
─
━
│
┃
┅
┆
┊
┌
└
├
┣
═
║
╚
╞
╠
╭
╮
╯
╰
╱
╳
▂
▃
▅
▇
█
▉
▋
▌
▍
▎
■
□
▪
▫
▬
▲
△
▶
►
▼
▽
◆
◇
○
◎
●
◕
◠
◢
◤
☀
★
☆
☕
☞
☺
☼
♀
♂
♠
♡
♣
♥
♦
♪
♫
♬
✈
✔
✕
✖
✦
✨
✪
✰
✿
❀
❤
➜
➤
⦿
、
。
〃
々
〇
〈
〉
《
》
「
」
『
』
【
】
〓
〔
〕
〖
〗
〜
〝
〞
ぁ
あ
ぃ
い
う
ぇ
え
お
か
き
く
け
こ
さ
し
す
せ
そ
た
ち
っ
つ
て
と
な
に
ぬ
ね
の
は
ひ
ふ
へ
ほ
ま
み
む
め
も
ゃ
や
ゅ
ゆ
ょ
よ
ら
り
る
れ
ろ
わ
を
ん
゜
ゝ
ァ
ア
ィ
イ
ゥ
ウ
ェ
エ
ォ
オ
カ
キ
ク
ケ
コ
サ
シ
ス
セ
ソ
タ
チ
ッ
ツ
テ
ト
ナ
ニ
ヌ
ネ
ノ
ハ
ヒ
フ
ヘ
ホ
マ
ミ
ム
メ
モ
ャ
ヤ
ュ
ユ
ョ
ヨ
ラ
リ
ル
レ
ロ
ワ
ヲ
ン
ヶ
・
ー
ヽ
ㄅ
ㄆ
ㄇ
ㄉ
ㄋ
ㄌ
ㄍ
ㄎ
ㄏ
ㄒ
ㄚ
ㄛ
ㄞ
ㄟ
ㄢ
ㄤ
ㄥ
ㄧ
ㄨ
ㆍ
㈦
㊣
㎡
㗎
一
丁
七
万
丈
三
上
下
不
与
丐
丑
专
且
丕
世
丘
丙
业
丛
东
丝
丞
丟
両
丢
两
严
並
丧
丨
个
丫
中
丰
串
临
丶
丸
丹
为
主
丼
丽
举
丿
乂
乃
久
么
义
之
乌
乍
乎
乏
乐
乒
乓
乔
乖
乗
乘
乙
乜
九
乞
也
习
乡
书
乩
买
乱
乳
乾
亀
亂
了
予
争
事
二
于
亏
云
互
五
井
亘
亙
亚
些
亜
亞
亟
亡
亢
交
亥
亦
产
亨
亩
享
京
亭
亮
亲
亳
亵
人
亿
什
仁
仃
仄
仅
仆
仇
今
介
仍
从
仏
仑
仓
仔
仕
他
仗
付
仙
仝
仞
仟
代
令
以
仨
仪
们
仮
仰
仲
件
价
任
份
仿
企
伉
伊
伍
伎
伏
伐
休
伕
众
优
伙
会
伝
伞
伟
传
伢
伤
伦
伪
伫
伯
估
伴
伶
伸
伺
似
伽
佃
但
佇
佈
位
低
住
佐
佑
体
佔
何
佗
佘
余
佚
佛
作
佝
佞
佟
你
佢
佣
佤
佥
佩
佬
佯
佰
佳
併
佶
佻
佼
使
侃
侄
來
侈
例
侍
侏
侑
侖
侗
供
依
侠
価
侣
侥
侦
侧
侨
侬
侮
侯
侵
侶
侷
便
係
促
俄
俊
俎
俏
俐
俑
俗
俘
俚
保
俞
俟
俠
信
俨
俩
俪
俬
俭
修
俯
俱
俳
俸
俺
俾
倆
倉
個
倌
倍
倏
們
倒
倔
倖
倘
候
倚
倜
借
倡
値
倦
倩
倪
倫
倬
倭
倶
债
值
倾
偃
假
偈
偉
偌
偎
偏
偕
做
停
健
側
偵
偶
偷
偻
偽
偿
傀
傅
傍
傑
傘
備
傚
傢
傣
傥
储
傩
催
傭
傲
傳
債
傷
傻
傾
僅
働
像
僑
僕
僖
僚
僥
僧
僭
僮
僱
僵
價
僻
儀
儂
億
儆
儉
儋
儒
儕
儘
償
儡
優
儲
儷
儼
儿
兀
允
元
兄
充
兆
兇
先
光
克
兌
免
児
兑
兒
兔
兖
党
兜
兢
入
內
全
兩
八
公
六
兮
兰
共
兲
关
兴
兵
其
具
典
兹
养
兼
兽
冀
内
円
冇
冈
冉
冊
册
再
冏
冒
冕
冗
写
军
农
冠
冢
冤
冥
冨
冪
冬
冯
冰
冲
决
况
冶
冷
冻
冼
冽
冾
净
凄
准
凇
凈
凉
凋
凌
凍
减
凑
凛
凜
凝
几
凡
凤
処
凪
凭
凯
凰
凱
凳
凶
凸
凹
出
击
函
凿
刀
刁
刃
分
切
刈
刊
刍
刎
刑
划
列
刘
则
刚
创
初
删
判
別
刨
利
刪
别
刮
到
制
刷
券
刹
刺
刻
刽
剁
剂
剃
則
剉
削
剋
剌
前
剎
剐
剑
剔
剖
剛
剜
剝
剣
剤
剥
剧
剩
剪
副
割
創
剷
剽
剿
劃
劇
劈
劉
劊
劍
劏
劑
力
劝
办
功
加
务
劣
动
助
努
劫
劭
励
劲
劳
労
劵
効
劾
势
勁
勃
勇
勉
勋
勐
勒
動
勖
勘
務
勛
勝
勞
募
勢
勤
勧
勳
勵
勸
勺
勻
勾
勿
匀
包
匆
匈
匍
匐
匕
化
北
匙
匝
匠
匡
匣
匪
匮
匯
匱
匹
区
医
匾
匿
區
十
千
卅
升
午
卉
半
卍
华
协
卑
卒
卓
協
单
卖
南
単
博
卜
卞
卟
占
卡
卢
卤
卦
卧
卫
卮
卯
印
危
即
却
卵
卷
卸
卻
卿
厂
厄
厅
历
厉
压
厌
厕
厘
厚
厝
原
厢
厥
厦
厨
厩
厭
厮
厲
厳
去
县
叁
参
參
又
叉
及
友
双
反
収
发
叔
取
受
变
叙
叛
叟
叠
叡
叢
口
古
句
另
叨
叩
只
叫
召
叭
叮
可
台
叱
史
右
叵
叶
号
司
叹
叻
叼
叽
吁
吃
各
吆
合
吉
吊
吋
同
名
后
吏
吐
向
吒
吓
吕
吖
吗
君
吝
吞
吟
吠
吡
否
吧
吨
吩
含
听
吭
吮
启
吱
吳
吴
吵
吶
吸
吹
吻
吼
吽
吾
呀
呂
呃
呆
呈
告
呋
呎
呐
呓
呕
呗
员
呛
呜
呢
呤
呦
周
呱
呲
味
呵
呷
呸
呻
呼
命
咀
咁
咂
咄
咆
咋
和
咎
咏
咐
咒
咔
咕
咖
咗
咘
咙
咚
咛
咣
咤
咦
咧
咨
咩
咪
咫
咬
咭
咯
咱
咲
咳
咸
咻
咽
咿
哀
品
哂
哄
哆
哇
哈
哉
哋
哌
响
哎
哏
哐
哑
哒
哔
哗
哟
員
哥
哦
哧
哨
哩
哪
哭
哮
哲
哺
哼
哽
唁
唄
唆
唇
唉
唏
唐
唑
唔
唠
唤
唧
唬
售
唯
唰
唱
唳
唷
唸
唾
啃
啄
商
啉
啊
問
啓
啕
啖
啜
啞
啟
啡
啤
啥
啦
啧
啪
啫
啬
啮
啰
啱
啲
啵
啶
啷
啸
啻
啼
啾
喀
喂
喃
善
喆
喇
喉
喊
喋
喎
喏
喔
喘
喙
喚
喜
喝
喟
喧
喪
喫
喬
單
喰
喱
喲
喳
喵
営
喷
喹
喺
喻
喽
嗅
嗆
嗇
嗎
嗑
嗒
嗓
嗔
嗖
嗚
嗜
嗝
嗟
嗡
嗣
嗤
嗦
嗨
嗪
嗬
嗯
嗰
嗲
嗳
嗶
嗷
嗽
嘀
嘅
嘆
嘈
嘉
嘌
嘍
嘎
嘔
嘖
嘗
嘘
嘚
嘛
嘜
嘞
嘟
嘢
嘣
嘤
嘧
嘩
嘭
嘮
嘯
嘰
嘱
嘲
嘴
嘶
嘸
嘹
嘻
嘿
噁
噌
噎
噓
噔
噗
噙
噜
噠
噢
噤
器
噩
噪
噬
噱
噴
噶
噸
噹
噻
噼
嚀
嚇
嚎
嚏
嚐
嚓
嚕
嚟
嚣
嚥
嚨
嚮
嚴
嚷
嚼
囂
囉
囊
囍
囑
囔
囗
囚
四
囝
回
囟
因
囡
团
団
囤
囧
囪
囫
园
困
囱
囲
図
围
囹
固
国
图
囿
圃
圄
圆
圈
國
圍
圏
園
圓
圖
團
圜
土
圣
圧
在
圩
圭
地
圳
场
圻
圾
址
坂
均
坊
坍
坎
坏
坐
坑
块
坚
坛
坝
坞
坟
坠
坡
坤
坦
坨
坪
坯
坳
坵
坷
垂
垃
垄
型
垒
垚
垛
垠
垢
垣
垦
垩
垫
垭
垮
垵
埂
埃
埋
城
埔
埕
埗
域
埠
埤
埵
執
埸
培
基
埼
堀
堂
堃
堅
堆
堇
堑
堕
堙
堡
堤
堪
堯
堰
報
場
堵
堺
堿
塊
塌
塑
塔
塗
塘
塚
塞
塢
塩
填
塬
塭
塵
塾
墀
境
墅
墉
墊
墒
墓
増
墘
墙
墜
增
墟
墨
墩
墮
墳
墻
墾
壁
壅
壆
壇
壊
壑
壓
壕
壘
壞
壟
壢
壤
壩
士
壬
壮
壯
声
売
壳
壶
壹
壺
壽
处
备
変
复
夏
夔
夕
外
夙
多
夜
够
夠
夢
夥
大
天
太
夫
夭
央
夯
失
头
夷
夸
夹
夺
夾
奂
奄
奇
奈
奉
奋
奎
奏
奐
契
奔
奕
奖
套
奘
奚
奠
奢
奥
奧
奪
奬
奮
女
奴
奶
奸
她
好
如
妃
妄
妆
妇
妈
妊
妍
妒
妓
妖
妘
妙
妝
妞
妣
妤
妥
妨
妩
妪
妮
妲
妳
妹
妻
妾
姆
姉
姊
始
姍
姐
姑
姒
姓
委
姗
姚
姜
姝
姣
姥
姦
姨
姪
姫
姬
姹
姻
姿
威
娃
娄
娅
娆
娇
娉
娑
娓
娘
娛
娜
娟
娠
娣
娥
娩
娱
娲
娴
娶
娼
婀
婁
婆
婉
婊
婕
婚
婢
婦
婧
婪
婭
婴
婵
婶
婷
婺
婿
媒
媚
媛
媞
媧
媲
媳
媽
媾
嫁
嫂
嫉
嫌
嫑
嫔
嫖
嫘
嫚
嫡
嫣
嫦
嫩
嫲
嫵
嫻
嬅
嬉
嬌
嬗
嬛
嬢
嬤
嬪
嬰
嬴
嬷
嬸
嬿
孀
孃
子
孑
孔
孕
孖
字
存
孙
孚
孛
孜
孝
孟
孢
季
孤
学
孩
孪
孫
孬
孰
孱
孳
孵
學
孺
孽
孿
宁
它
宅
宇
守
安
宋
完
宏
宓
宕
宗
官
宙
定
宛
宜
宝
实
実
宠
审
客
宣
室
宥
宦
宪
宫
宮
宰
害
宴
宵
家
宸
容
宽
宾
宿
寂
寄
寅
密
寇
富
寐
寒
寓
寛
寝
寞
察
寡
寢
寥
實
寧
寨
審
寫
寬
寮
寰
寵
寶
寸
对
寺
寻
导
対
寿
封
専
射
将
將
專
尉
尊
尋
對
導
小
少
尔
尕
尖
尘
尚
尝
尤
尧
尬
就
尴
尷
尸
尹
尺
尻
尼
尽
尾
尿
局
屁
层
屄
居
屆
屈
屉
届
屋
屌
屍
屎
屏
屐
屑
展
屜
属
屠
屡
屢
層
履
屬
屯
山
屹
屿
岀
岁
岂
岌
岐
岑
岔
岖
岗
岘
岙
岚
岛
岡
岩
岫
岬
岭
岱
岳
岷
岸
峇
峋
峒
峙
峡
峤
峥
峦
峨
峪
峭
峯
峰
峴
島
峻
峽
崁
崂
崆
崇
崎
崑
崔
崖
崗
崙
崛
崧
崩
崭
崴
崽
嵇
嵊
嵋
嵌
嵐
嵘
嵩
嵬
嵯
嶂
嶄
嶇
嶋
嶙
嶺
嶼
嶽
巅
巍
巒
巔
巖
川
州
巡
巢
工
左
巧
巨
巩
巫
差
己
已
巳
巴
巷
巻
巽
巾
巿
币
市
布
帅
帆
师
希
帐
帑
帕
帖
帘
帚
帛
帜
帝
帥
带
帧
師
席
帮
帯
帰
帳
帶
帷
常
帼
帽
幀
幂
幄
幅
幌
幔
幕
幟
幡
幢
幣
幫
干
平
年
并
幸
幹
幺
幻
幼
幽
幾
广
庁
広
庄
庆
庇
床
序
庐
库
应
底
庖
店
庙
庚
府
庞
废
庠
度
座
庫
庭
庵
庶
康
庸
庹
庾
廁
廂
廃
廈
廉
廊
廓
廖
廚
廝
廟
廠
廢
廣
廬
廳
延
廷
建
廿
开
弁
异
弃
弄
弈
弊
弋
式
弑
弒
弓
弔
引
弗
弘
弛
弟
张
弥
弦
弧
弩
弭
弯
弱
張
強
弹
强
弼
弾
彅
彆
彈
彌
彎
归
当
录
彗
彙
彝
形
彤
彥
彦
彧
彩
彪
彫
彬
彭
彰
影
彷
役
彻
彼
彿
往
征
径
待
徇
很
徉
徊
律
後
徐
徑
徒
従
徕
得
徘
徙
徜
從
徠
御
徨
復
循
徬
微
徳
徴
徵
德
徹
徼
徽
心
必
忆
忌
忍
忏
忐
忑
忒
忖
志
忘
忙
応
忠
忡
忤
忧
忪
快
忱
念
忻
忽
忿
怀
态
怂
怅
怆
怎
怏
怒
怔
怕
怖
怙
怜
思
怠
怡
急
怦
性
怨
怪
怯
怵
总
怼
恁
恃
恆
恋
恍
恐
恒
恕
恙
恚
恢
恣
恤
恥
恨
恩
恪
恫
恬
恭
息
恰
恳
恵
恶
恸
恺
恻
恼
恿
悄
悅
悉
悌
悍
悔
悖
悚
悟
悠
患
悦
您
悩
悪
悬
悯
悱
悲
悴
悵
悶
悸
悻
悼
悽
情
惆
惇
惊
惋
惑
惕
惘
惚
惜
惟
惠
惡
惦
惧
惨
惩
惫
惬
惭
惮
惯
惰
惱
想
惴
惶
惹
惺
愁
愆
愈
愉
愍
意
愕
愚
愛
愜
感
愣
愤
愧
愫
愷
愿
慄
慈
態
慌
慎
慑
慕
慘
慚
慟
慢
慣
慧
慨
慫
慮
慰
慳
慵
慶
慷
慾
憂
憊
憋
憎
憐
憑
憔
憚
憤
憧
憨
憩
憫
憬
憲
憶
憾
懂
懇
懈
應
懊
懋
懑
懒
懦
懲
懵
懶
懷
懸
懺
懼
懾
懿
戀
戈
戊
戌
戍
戎
戏
成
我
戒
戕
或
战
戚
戛
戟
戡
戦
截
戬
戮
戰
戲
戳
戴
戶
户
戸
戻
戾
房
所
扁
扇
扈
扉
手
才
扎
扑
扒
打
扔
払
托
扛
扣
扦
执
扩
扪
扫
扬
扭
扮
扯
扰
扱
扳
扶
批
扼
找
承
技
抄
抉
把
抑
抒
抓
投
抖
抗
折
抚
抛
抜
択
抟
抠
抡
抢
护
报
抨
披
抬
抱
抵
抹
押
抽
抿
拂
拄
担
拆
拇
拈
拉
拋
拌
拍
拎
拐
拒
拓
拔
拖
拗
拘
拙
拚
招
拜
拟
拡
拢
拣
拥
拦
拧
拨
择
括
拭
拮
拯
拱
拳
拴
拷
拼
拽
拾
拿
持
挂
指
挈
按
挎
挑
挖
挙
挚
挛
挝
挞
挟
挠
挡
挣
挤
挥
挨
挪
挫
振
挲
挹
挺
挽
挾
捂
捅
捆
捉
捋
捌
捍
捎
捏
捐
捕
捞
损
捡
换
捣
捧
捨
捩
据
捱
捲
捶
捷
捺
捻
掀
掂
掃
掇
授
掉
掌
掏
掐
排
掖
掘
掙
掛
掠
採
探
掣
接
控
推
掩
措
掬
掰
掲
掳
掴
掷
掸
掺
揀
揃
揄
揆
揉
揍
描
提
插
揖
揚
換
握
揣
揩
揪
揭
揮
援
揶
揸
揹
揽
搀
搁
搂
搅
損
搏
搐
搓
搔
搖
搗
搜
搞
搡
搪
搬
搭
搵
搶
携
搽
摀
摁
摄
摆
摇
摈
摊
摒
摔
摘
摞
摟
摧
摩
摯
摳
摸
摹
摺
摻
撂
撃
撅
撇
撈
撐
撑
撒
撓
撕
撚
撞
撤
撥
撩
撫
撬
播
撮
撰
撲
撵
撷
撸
撻
撼
撿
擀
擁
擂
擄
擅
擇
擊
擋
操
擎
擒
擔
擘
據
擞
擠
擡
擢
擦
擬
擰
擱
擲
擴
擷
擺
擼
擾
攀
攏
攒
攔
攘
攙
攜
攝
攞
攢
攣
攤
攥
攪
攫
攬
支
收
攸
改
攻
放
政
故
效
敌
敍
敎
敏
救
敕
敖
敗
敘
教
敛
敝
敞
敢
散
敦
敬
数
敲
整
敵
敷
數
斂
斃
文
斋
斌
斎
斐
斑
斓
斗
料
斛
斜
斟
斡
斤
斥
斧
斩
斫
斬
断
斯
新
斷
方
於
施
旁
旃
旅
旋
旌
旎
族
旖
旗
无
既
日
旦
旧
旨
早
旬
旭
旮
旱
时
旷
旺
旻
昀
昂
昆
昇
昉
昊
昌
明
昏
易
昔
昕
昙
星
映
春
昧
昨
昭
是
昱
昴
昵
昶
昼
显
晁
時
晃
晉
晋
晌
晏
晒
晓
晔
晕
晖
晗
晚
晝
晞
晟
晤
晦
晨
晩
普
景
晰
晴
晶
晷
智
晾
暂
暄
暇
暈
暉
暌
暐
暑
暖
暗
暝
暢
暧
暨
暫
暮
暱
暴
暸
暹
曄
曆
曇
曉
曖
曙
曜
曝
曠
曦
曬
曰
曲
曳
更
書
曹
曼
曾
替
最
會
月
有
朋
服
朐
朔
朕
朗
望
朝
期
朦
朧
木
未
末
本
札
朮
术
朱
朴
朵
机
朽
杀
杂
权
杆
杈
杉
李
杏
材
村
杓
杖
杜
杞
束
杠
条
来
杨
杭
杯
杰
東
杳
杵
杷
杼
松
板
极
构
枇
枉
枋
析
枕
林
枚
果
枝
枢
枣
枪
枫
枭
枯
枰
枱
枳
架
枷
枸
柄
柏
某
柑
柒
染
柔
柘
柚
柜
柞
柠
柢
查
柩
柬
柯
柱
柳
柴
柵
査
柿
栀
栃
栄
栅
标
栈
栉
栋
栎
栏
树
栓
栖
栗
校
栩
株
样
核
根
格
栽
栾
桀
桁
桂
桃
桅
框
案
桉
桌
桎
桐
桑
桓
桔
桜
桠
桡
桢
档
桥
桦
桧
桨
桩
桶
桿
梁
梅
梆
梏
梓
梗
條
梟
梢
梦
梧
梨
梭
梯
械
梳
梵
梶
检
棂
棄
棉
棋
棍
棒
棕
棗
棘
棚
棟
棠
棣
棧
森
棱
棲
棵
棹
棺
椁
椅
椋
植
椎
椒
検
椪
椭
椰
椹
椽
椿
楂
楊
楓
楔
楚
楝
楞
楠
楣
楨
楫
業
楮
極
楷
楸
楹
楼
楽
概
榄
榆
榈
榉
榔
榕
榖
榛
榜
榨
榫
榭
榮
榱
榴
榷
榻
槁
槃
構
槌
槍
槎
槐
槓
様
槛
槟
槤
槭
槲
槳
槻
槽
槿
樁
樂
樊
樑
樓
標
樞
樟
模
樣
権
横
樫
樯
樱
樵
樸
樹
樺
樽
樾
橄
橇
橋
橐
橘
橙
機
橡
橢
橫
橱
橹
橼
檀
檄
檎
檐
檔
檗
檜
檢
檬
檯
檳
檸
檻
櫃
櫚
櫛
櫥
櫸
櫻
欄
權
欒
欖
欠
次
欢
欣
欧
欲
欸
欺
欽
款
歆
歇
歉
歌
歎
歐
歓
歙
歛
歡
止
正
此
步
武
歧
歩
歪
歯
歲
歳
歴
歷
歸
歹
死
歼
殁
殃
殆
殇
殉
殊
残
殒
殓
殖
殘
殞
殡
殤
殭
殯
殲
殴
段
殷
殺
殼
殿
毀
毁
毂
毅
毆
毋
母
毎
每
毒
毓
比
毕
毗
毘
毙
毛
毡
毫
毯
毽
氈
氏
氐
民
氓
气
氖
気
氙
氛
氟
氡
氢
氣
氤
氦
氧
氨
氪
氫
氮
氯
氰
氲
水
氷
永
氹
氾
汀
汁
求
汆
汇
汉
汎
汐
汕
汗
汙
汛
汝
汞
江
池
污
汤
汨
汩
汪
汰
汲
汴
汶
汹
決
汽
汾
沁
沂
沃
沅
沈
沉
沌
沏
沐
沒
沓
沖
沙
沛
沟
没
沢
沣
沥
沦
沧
沪
沫
沭
沮
沱
河
沸
油
治
沼
沽
沾
沿
況
泄
泉
泊
泌
泓
法
泗
泛
泞
泠
泡
波
泣
泥
注
泪
泫
泮
泯
泰
泱
泳
泵
泷
泸
泻
泼
泽
泾
洁
洄
洋
洒
洗
洙
洛
洞
津
洩
洪
洮
洱
洲
洵
洶
洸
洹
活
洼
洽
派
流
浃
浄
浅
浆
浇
浊
测
济
浏
浑
浒
浓
浔
浙
浚
浜
浣
浦
浩
浪
浬
浮
浯
浴
海
浸
涂
涅
涇
消
涉
涌
涎
涓
涔
涕
涙
涛
涝
涞
涟
涠
涡
涣
涤
润
涧
涨
涩
涪
涮
涯
液
涵
涸
涼
涿
淀
淄
淅
淆
淇
淋
淌
淑
淒
淖
淘
淙
淚
淞
淡
淤
淦
淨
淩
淪
淫
淬
淮
深
淳
淵
混
淹
淺
添
淼
清
済
渉
渊
渋
渍
渎
渐
渔
渗
渙
渚
減
渝
渠
渡
渣
渤
渥
渦
温
測
渭
港
渲
渴
游
渺
渾
湃
湄
湊
湍
湖
湘
湛
湟
湧
湫
湮
湯
湳
湾
湿
満
溃
溅
溉
溏
源
準
溜
溝
溟
溢
溥
溧
溪
溫
溯
溱
溴
溶
溺
溼
滁
滂
滄
滅
滇
滋
滌
滑
滓
滔
滕
滙
滚
滝
滞
滟
满
滢
滤
滥
滦
滨
滩
滬
滯
滲
滴
滷
滸
滾
滿
漁
漂
漆
漉
漏
漓
演
漕
漠
漢
漣
漩
漪
漫
漬
漯
漱
漲
漳
漸
漾
漿
潆
潇
潋
潍
潑
潔
潘
潛
潜
潞
潟
潢
潤
潦
潧
潭
潮
潰
潴
潸
潺
潼
澀
澄
澆
澈
澍
澎
澗
澜
澡
澤
澧
澱
澳
澹
激
濁
濂
濃
濑
濒
濕
濘
濛
濟
濠
濡
濤
濫
濬
濮
濯
濱
濺
濾
瀅
瀆
瀉
瀋
瀏
瀑
瀕
瀘
瀚
瀛
瀝
瀞
瀟
瀧
瀨
瀬
瀰
瀾
灌
灏
灑
灘
灝
灞
灣
火
灬
灭
灯
灰
灵
灶
灸
灼
災
灾
灿
炀
炁
炅
炉
炊
炎
炒
炔
炕
炖
炙
炜
炫
炬
炭
炮
炯
炳
炷
炸
点
為
炼
炽
烁
烂
烃
烈
烊
烏
烘
烙
烛
烟
烤
烦
烧
烨
烩
烫
烬
热
烯
烷
烹
烽
焉
焊
焕
焖
焗
焘
焙
焚
焜
無
焦
焯
焰
焱
然
焼
煅
煉
煊
煌
煎
煒
煖
煙
煜
煞
煤
煥
煦
照
煨
煩
煮
煲
煸
煽
熄
熊
熏
熒
熔
熙
熟
熠
熨
熬
熱
熵
熹
熾
燁
燃
燄
燈
燉
燊
燎
燒
燔
燕
燙
燜
營
燥
燦
燧
燭
燮
燴
燻
燼
燿
爆
爍
爐
爛
爪
爬
爭
爰
爱
爲
爵
父
爷
爸
爹
爺
爻
爽
爾
牆
片
版
牌
牍
牒
牙
牛
牝
牟
牠
牡
牢
牦
牧
物
牯
牲
牴
牵
特
牺
牽
犀
犁
犄
犊
犍
犒
犢
犧
犬
犯
状
犷
犸
犹
狀
狂
狄
狈
狎
狐
狒
狗
狙
狞
狠
狡
狩
独
狭
狮
狰
狱
狸
狹
狼
狽
猎
猕
猖
猗
猙
猛
猜
猝
猥
猩
猪
猫
猬
献
猴
猶
猷
猾
猿
獄
獅
獎
獐
獒
獗
獠
獣
獨
獭
獰
獲
獵
獷
獸
獺
獻
獼
獾
玄
率
玉
王
玑
玖
玛
玟
玠
玥
玩
玫
玮
环
现
玲
玳
玷
玺
玻
珀
珂
珅
珈
珉
珊
珍
珏
珐
珑
珙
珞
珠
珣
珥
珩
珪
班
珮
珲
珺
現
球
琅
理
琇
琉
琊
琍
琏
琐
琛
琢
琥
琦
琨
琪
琬
琮
琰
琲
琳
琴
琵
琶
琺
琼
瑀
瑁
瑄
瑋
瑕
瑗
瑙
瑚
瑛
瑜
瑞
瑟
瑠
瑣
瑤
瑩
瑪
瑯
瑰
瑶
瑾
璀
璁
璃
璇
璉
璋
璎
璐
璜
璞
璟
璧
璨
環
璽
璿
瓊
瓏
瓒
瓜
瓢
瓣
瓤
瓦
瓮
瓯
瓴
瓶
瓷
甄
甌
甕
甘
甙
甚
甜
生
產
産
甥
甦
用
甩
甫
甬
甭
甯
田
由
甲
申
电
男
甸
町
画
甾
畀
畅
界
畏
畑
畔
留
畜
畝
畢
略
畦
番
畫
異
畲
畳
畴
當
畸
畹
畿
疆
疇
疊
疏
疑
疔
疖
疗
疙
疚
疝
疟
疡
疣
疤
疥
疫
疮
疯
疱
疲
疳
疵
疸
疹
疼
疽
疾
痂
病
症
痈
痉
痊
痍
痒
痔
痕
痘
痙
痛
痞
痠
痢
痣
痤
痧
痨
痪
痫
痰
痱
痴
痹
痺
痼
痿
瘀
瘁
瘋
瘍
瘓
瘘
瘙
瘟
瘠
瘡
瘢
瘤
瘦
瘧
瘩
瘪
瘫
瘴
瘸
瘾
療
癇
癌
癒
癖
癜
癞
癡
癢
癣
癥
癫
癬
癮
癱
癲
癸
発
登
發
白
百
皂
的
皆
皇
皈
皋
皎
皑
皓
皖
皙
皚
皮
皰
皱
皴
皺
皿
盂
盃
盅
盆
盈
益
盎
盏
盐
监
盒
盔
盖
盗
盘
盛
盜
盞
盟
盡
監
盤
盥
盧
盪
目
盯
盱
盲
直
相
盹
盼
盾
省
眈
眉
看
県
眙
眞
真
眠
眦
眨
眩
眯
眶
眷
眸
眺
眼
眾
着
睁
睇
睏
睐
睑
睛
睜
睞
睡
睢
督
睥
睦
睨
睪
睫
睬
睹
睽
睾
睿
瞄
瞅
瞇
瞋
瞌
瞎
瞑
瞒
瞓
瞞
瞟
瞠
瞥
瞧
瞩
瞪
瞬
瞭
瞰
瞳
瞻
瞼
瞿
矇
矍
矗
矚
矛
矜
矢
矣
知
矩
矫
短
矮
矯
石
矶
矽
矾
矿
码
砂
砌
砍
砒
研
砖
砗
砚
砝
砣
砥
砧
砭
砰
砲
破
砷
砸
砺
砼
砾
础
硅
硐
硒
硕
硝
硫
硬
确
硯
硼
碁
碇
碉
碌
碍
碎
碑
碓
碗
碘
碚
碛
碟
碣
碧
碩
碰
碱
碳
碴
確
碼
碾
磁
磅
磊
磋
磐
磕
磚
磡
磨
磬
磯
磲
磷
磺
礁
礎
礙
礡
礦
礪
礫
礴
示
礼
社
祀
祁
祂
祇
祈
祉
祎
祐
祕
祖
祗
祚
祛
祜
祝
神
祟
祠
祢
祥
票
祭
祯
祷
祸
祺
祿
禀
禁
禄
禅
禍
禎
福
禛
禦
禧
禪
禮
禱
禹
禺
离
禽
禾
禿
秀
私
秃
秆
秉
秋
种
科
秒
秘
租
秣
秤
秦
秧
秩
秭
积
称
秸
移
秽
稀
稅
程
稍
税
稔
稗
稚
稜
稞
稟
稠
稣
種
稱
稲
稳
稷
稹
稻
稼
稽
稿
穀
穂
穆
穌
積
穎
穗
穢
穩
穫
穴
究
穷
穹
空
穿
突
窃
窄
窈
窍
窑
窒
窓
窕
窖
窗
窘
窜
窝
窟
窠
窥
窦
窨
窩
窪
窮
窯
窺
窿
竄
竅
竇
竊
立
竖
站
竜
竞
竟
章
竣
童
竭
端
競
竹
竺
竽
竿
笃
笆
笈
笋
笏
笑
笔
笙
笛
笞
笠
符
笨
第
笹
笺
笼
筆
等
筊
筋
筍
筏
筐
筑
筒
答
策
筛
筝
筠
筱
筲
筵
筷
筹
签
简
箇
箋
箍
箏
箐
箔
箕
算
箝
管
箩
箫
箭
箱
箴
箸
節
篁
範
篆
篇
築
篑
篓
篙
篝
篠
篡
篤
篩
篪
篮
篱
篷
簇
簌
簍
簡
簦
簧
簪
簫
簷
簸
簽
簾
簿
籁
籃
籌
籍
籐
籟
籠
籤
籬
籮
籲
米
类
籼
籽
粄
粉
粑
粒
粕
粗
粘
粟
粤
粥
粧
粪
粮
粱
粲
粳
粵
粹
粼
粽
精
粿
糅
糊
糍
糕
糖
糗
糙
糜
糞
糟
糠
糧
糬
糯
糰
糸
系
糾
紀
紂
約
紅
紉
紊
紋
納
紐
紓
純
紗
紘
紙
級
紛
紜
素
紡
索
紧
紫
紮
累
細
紳
紹
紺
終
絃
組
絆
経
結
絕
絞
絡
絢
給
絨
絮
統
絲
絳
絵
絶
絹
綁
綏
綑
經
継
続
綜
綠
綢
綦
綫
綬
維
綱
網
綴
綵
綸
綺
綻
綽
綾
綿
緊
緋
総
緑
緒
緘
線
緝
緞
締
緣
編
緩
緬
緯
練
緹
緻
縁
縄
縈
縛
縝
縣
縫
縮
縱
縴
縷
總
績
繁
繃
繆
繇
繋
織
繕
繚
繞
繡
繩
繪
繫
繭
繳
繹
繼
繽
纂
續
纍
纏
纓
纔
纖
纜
纠
红
纣
纤
约
级
纨
纪
纫
纬
纭
纯
纰
纱
纲
纳
纵
纶
纷
纸
纹
纺
纽
纾
线
绀
练
组
绅
细
织
终
绊
绍
绎
经
绑
绒
结
绔
绕
绘
给
绚
绛
络
绝
绞
统
绡
绢
绣
绥
绦
继
绩
绪
绫
续
绮
绯
绰
绳
维
绵
绶
绷
绸
绻
综
绽
绾
绿
缀
缄
缅
缆
缇
缈
缉
缎
缓
缔
缕
编
缘
缙
缚
缜
缝
缠
缢
缤
缥
缨
缩
缪
缭
缮
缰
缱
缴
缸
缺
缽
罂
罄
罌
罐
网
罔
罕
罗
罚
罡
罢
罩
罪
置
罰
署
罵
罷
罹
羁
羅
羈
羊
羌
美
羔
羚
羞
羟
羡
羣
群
羥
羧
羨
義
羯
羲
羸
羹
羽
羿
翁
翅
翊
翌
翎
習
翔
翘
翟
翠
翡
翦
翩
翰
翱
翳
翹
翻
翼
耀
老
考
耄
者
耆
耋
而
耍
耐
耒
耕
耗
耘
耙
耦
耨
耳
耶
耷
耸
耻
耽
耿
聂
聆
聊
聋
职
聒
联
聖
聘
聚
聞
聪
聯
聰
聲
聳
聴
聶
職
聽
聾
聿
肃
肄
肅
肆
肇
肉
肋
肌
肏
肓
肖
肘
肚
肛
肝
肠
股
肢
肤
肥
肩
肪
肮
肯
肱
育
肴
肺
肽
肾
肿
胀
胁
胃
胄
胆
背
胍
胎
胖
胚
胛
胜
胝
胞
胡
胤
胥
胧
胫
胭
胯
胰
胱
胳
胴
胶
胸
胺
能
脂
脅
脆
脇
脈
脉
脊
脍
脏
脐
脑
脓
脖
脘
脚
脛
脣
脩
脫
脯
脱
脲
脳
脸
脹
脾
腆
腈
腊
腋
腌
腎
腐
腑
腓
腔
腕
腥
腦
腩
腫
腭
腮
腰
腱
腳
腴
腸
腹
腺
腻
腼
腾
腿
膀
膈
膊
膏
膑
膘
膚
膛
膜
膝
膠
膦
膨
膩
膳
膺
膻
膽
膾
膿
臀
臂
臃
臆
臉
臊
臍
臓
臘
臟
臣
臥
臧
臨
自
臬
臭
至
致
臺
臻
臼
臾
舀
舂
舅
舆
與
興
舉
舊
舌
舍
舎
舐
舒
舔
舖
舗
舛
舜
舞
舟
航
舫
般
舰
舱
舵
舶
舷
舸
船
舺
舾
艇
艋
艘
艙
艦
艮
良
艰
艱
色
艳
艷
艹
艺
艾
节
芃
芈
芊
芋
芍
芎
芒
芙
芜
芝
芡
芥
芦
芩
芪
芫
芬
芭
芮
芯
花
芳
芷
芸
芹
芻
芽
芾
苁
苄
苇
苋
苍
苏
苑
苒
苓
苔
苕
苗
苛
苜
苞
苟
苡
苣
若
苦
苫
苯
英
苷
苹
苻
茁
茂
范
茄
茅
茉
茎
茏
茗
茜
茧
茨
茫
茬
茭
茯
茱
茲
茴
茵
茶
茸
茹
茼
荀
荃
荆
草
荊
荏
荐
荒
荔
荖
荘
荚
荞
荟
荠
荡
荣
荤
荥
荧
荨
荪
荫
药
荳
荷
荸
荻
荼
荽
莅
莆
莉
莊
莎
莒
莓
莖
莘
莞
莠
莢
莧
莪
莫
莱
莲
莴
获
莹
莺
莽
莿
菀
菁
菅
菇
菈
菊
菌
菏
菓
菖
菘
菜
菟
菠
菡
菩
華
菱
菲
菸
菽
萁
萃
萄
萊
萋
萌
萍
萎
萘
萝
萤
营
萦
萧
萨
萩
萬
萱
萵
萸
萼
落
葆
葉
著
葚
葛
葡
董
葦
葩
葫
葬
葭
葯
葱
葳
葵
葷
葺
蒂
蒋
蒐
蒔
蒙
蒜
蒞
蒟
蒡
蒨
蒲
蒸
蒹
蒻
蒼
蒿
蓁
蓄
蓆
蓉
蓋
蓑
蓓
蓖
蓝
蓟
蓦
蓬
蓮
蓼
蓿
蔑
蔓
蔔
蔗
蔘
蔚
蔡
蔣
蔥
蔫
蔬
蔭
蔵
蔷
蔺
蔻
蔼
蔽
蕁
蕃
蕈
蕉
蕊
蕎
蕙
蕤
蕨
蕩
蕪
蕭
蕲
蕴
蕻
蕾
薄
薅
薇
薈
薊
薏
薑
薔
薙
薛
薦
薨
薩
薪
薬
薯
薰
薹
藉
藍
藏
藐
藓
藕
藜
藝
藤
藥
藩
藹
藻
藿
蘆
蘇
蘊
蘋
蘑
蘚
蘭
蘸
蘼
蘿
虎
虏
虐
虑
虔
處
虚
虛
虜
虞
號
虢
虧
虫
虬
虱
虹
虻
虽
虾
蚀
蚁
蚂
蚊
蚌
蚓
蚕
蚜
蚝
蚣
蚤
蚩
蚪
蚯
蚱
蚵
蛀
蛆
蛇
蛊
蛋
蛎
蛐
蛔
蛙
蛛
蛟
蛤
蛭
蛮
蛰
蛳
蛹
蛻
蛾
蜀
蜂
蜃
蜆
蜇
蜈
蜊
蜍
蜒
蜓
蜕
蜗
蜘
蜚
蜜
蜡
蜢
蜥
蜱
蜴
蜷
蜻
蜿
蝇
蝈
蝉
蝌
蝎
蝕
蝗
蝙
蝟
蝠
蝦
蝨
蝴
蝶
蝸
蝼
螂
螃
融
螞
螢
螨
螯
螳
螺
蟀
蟄
蟆
蟋
蟎
蟑
蟒
蟠
蟬
蟲
蟹
蟻
蟾
蠅
蠍
蠔
蠕
蠛
蠟
蠡
蠢
蠣
蠱
蠶
蠹
蠻
血
衄
衅
衆
行
衍
術
衔
街
衙
衛
衝
衞
衡
衢
衣
补
表
衩
衫
衬
衮
衰
衲
衷
衹
衾
衿
袁
袂
袄
袅
袈
袋
袍
袒
袖
袜
袞
袤
袪
被
袭
袱
裁
裂
装
裆
裊
裏
裔
裕
裘
裙
補
裝
裟
裡
裤
裨
裱
裳
裴
裸
裹
製
裾
褂
複
褐
褒
褓
褔
褚
褥
褪
褫
褲
褶
褻
襁
襄
襟
襠
襪
襬
襯
襲
西
要
覃
覆
覇
見
規
覓
視
覚
覦
覧
親
覬
観
覷
覺
覽
觀
见
观
规
觅
视
览
觉
觊
觎
觐
觑
角
觞
解
觥
触
觸
言
訂
計
訊
討
訓
訕
訖
託
記
訛
訝
訟
訣
訥
訪
設
許
訳
訴
訶
診
註
証
詆
詐
詔
評
詛
詞
詠
詡
詢
詣
試
詩
詫
詬
詭
詮
詰
話
該
詳
詹
詼
誅
誇
誉
誌
認
誓
誕
誘
語
誠
誡
誣
誤
誥
誦
誨
說
説
読
誰
課
誹
誼
調
諄
談
請
諏
諒
論
諗
諜
諡
諦
諧
諫
諭
諮
諱
諳
諷
諸
諺
諾
謀
謁
謂
謄
謊
謎
謐
謔
謗
謙
講
謝
謠
謨
謬
謹
謾
譁
證
譎
譏
識
譙
譚
譜
警
譬
譯
議
譲
譴
護
譽
讀
變
讓
讚
讞
计
订
认
讥
讧
讨
让
讪
讫
训
议
讯
记
讲
讳
讴
讶
讷
许
讹
论
讼
讽
设
访
诀
证
诃
评
诅
识
诈
诉
诊
诋
词
诏
译
试
诗
诘
诙
诚
诛
话
诞
诟
诠
诡
询
诣
诤
该
详
诧
诩
诫
诬
语
误
诰
诱
诲
说
诵
诶
请
诸
诺
读
诽
课
诿
谀
谁
调
谄
谅
谆
谈
谊
谋
谌
谍
谎
谏
谐
谑
谒
谓
谔
谕
谗
谘
谙
谚
谛
谜
谟
谢
谣
谤
谥
谦
谧
谨
谩
谪
谬
谭
谯
谱
谲
谴
谶
谷
豁
豆
豇
豈
豉
豊
豌
豎
豐
豔
豚
象
豢
豪
豫
豬
豹
豺
貂
貅
貌
貓
貔
貘
貝
貞
負
財
貢
貧
貨
販
貪
貫
責
貯
貰
貳
貴
貶
買
貸
費
貼
貽
貿
賀
賁
賂
賃
賄
資
賈
賊
賑
賓
賜
賞
賠
賡
賢
賣
賤
賦
質
賬
賭
賴
賺
購
賽
贅
贈
贊
贍
贏
贓
贖
贛
贝
贞
负
贡
财
责
贤
败
账
货
质
贩
贪
贫
贬
购
贮
贯
贰
贱
贲
贴
贵
贷
贸
费
贺
贻
贼
贾
贿
赁
赂
赃
资
赅
赈
赊
赋
赌
赎
赏
赐
赓
赔
赖
赘
赚
赛
赝
赞
赠
赡
赢
赣
赤
赦
赧
赫
赭
走
赳
赴
赵
赶
起
趁
超
越
趋
趕
趙
趟
趣
趨
足
趴
趵
趸
趺
趾
跃
跄
跆
跋
跌
跎
跑
跖
跚
跛
距
跟
跡
跤
跨
跩
跪
路
跳
践
跷
跹
跺
跻
踉
踊
踌
踏
踐
踝
踞
踟
踢
踩
踪
踮
踱
踴
踵
踹
蹂
蹄
蹇
蹈
蹉
蹊
蹋
蹑
蹒
蹙
蹟
蹣
蹤
蹦
蹩
蹬
蹭
蹲
蹴
蹶
蹺
蹼
蹿
躁
躇
躉
躊
躋
躍
躏
躪
身
躬
躯
躲
躺
軀
車
軋
軌
軍
軒
軟
転
軸
軼
軽
軾
較
載
輒
輓
輔
輕
輛
輝
輟
輩
輪
輯
輸
輻
輾
輿
轄
轅
轆
轉
轍
轎
轟
车
轧
轨
轩
转
轭
轮
软
轰
轲
轴
轶
轻
轼
载
轿
较
辄
辅
辆
辇
辈
辉
辊
辍
辐
辑
输
辕
辖
辗
辘
辙
辛
辜
辞
辟
辣
辦
辨
辩
辫
辭
辮
辯
辰
辱
農
边
辺
辻
込
辽
达
迁
迂
迄
迅
过
迈
迎
运
近
返
还
这
进
远
违
连
迟
迢
迤
迥
迦
迩
迪
迫
迭
述
迴
迷
迸
迹
迺
追
退
送
适
逃
逅
逆
选
逊
逍
透
逐
递
途
逕
逗
這
通
逛
逝
逞
速
造
逢
連
逮
週
進
逵
逶
逸
逻
逼
逾
遁
遂
遅
遇
遊
運
遍
過
遏
遐
遑
遒
道
達
違
遗
遙
遛
遜
遞
遠
遢
遣
遥
遨
適
遭
遮
遲
遴
遵
遶
遷
選
遺
遼
遽
避
邀
邁
邂
邃
還
邇
邈
邊
邋
邏
邑
邓
邕
邛
邝
邢
那
邦
邨
邪
邬
邮
邯
邰
邱
邳
邵
邸
邹
邺
邻
郁
郅
郊
郎
郑
郜
郝
郡
郢
郤
郦
郧
部
郫
郭
郴
郵
郷
郸
都
鄂
鄉
鄒
鄔
鄙
鄞
鄢
鄧
鄭
鄰
鄱
鄲
鄺
酉
酊
酋
酌
配
酐
酒
酗
酚
酝
酢
酣
酥
酩
酪
酬
酮
酯
酰
酱
酵
酶
酷
酸
酿
醃
醇
醉
醋
醍
醐
醒
醚
醛
醜
醞
醣
醪
醫
醬
醮
醯
醴
醺
釀
釁
采
釉
释
釋
里
重
野
量
釐
金
釗
釘
釜
針
釣
釦
釧
釵
鈀
鈉
鈍
鈎
鈔
鈕
鈞
鈣
鈦
鈪
鈴
鈺
鈾
鉀
鉄
鉅
鉉
鉑
鉗
鉚
鉛
鉤
鉴
鉻
銀
銃
銅
銑
銓
銖
銘
銜
銬
銭
銮
銳
銷
銹
鋁
鋅
鋒
鋤
鋪
鋰
鋸
鋼
錄
錐
錘
錚
錠
錢
錦
錨
錫
錮
錯
録
錳
錶
鍊
鍋
鍍
鍛
鍥
鍰
鍵
鍺
鍾
鎂
鎊
鎌
鎏
鎔
鎖
鎗
鎚
鎧
鎬
鎮
鎳
鏈
鏖
鏗
鏘
鏞
鏟
鏡
鏢
鏤
鏽
鐘
鐮
鐲
鐳
鐵
鐸
鐺
鑄
鑊
鑑
鑒
鑣
鑫
鑰
鑲
鑼
鑽
鑾
鑿
针
钉
钊
钎
钏
钒
钓
钗
钙
钛
钜
钝
钞
钟
钠
钡
钢
钣
钤
钥
钦
钧
钨
钩
钮
钯
钰
钱
钳
钴
钵
钺
钻
钼
钾
钿
铀
铁
铂
铃
铄
铅
铆
铉
铎
铐
铛
铜
铝
铠
铡
铢
铣
铤
铨
铩
铬
铭
铮
铰
铲
铵
银
铸
铺
链
铿
销
锁
锂
锄
锅
锆
锈
锉
锋
锌
锏
锐
锑
错
锚
锟
锡
锢
锣
锤
锥
锦
锭
键
锯
锰
锲
锵
锹
锺
锻
镀
镁
镂
镇
镉
镌
镍
镐
镑
镕
镖
镗
镛
镜
镣
镭
镯
镰
镳
镶
長
长
門
閃
閉
開
閎
閏
閑
閒
間
閔
閘
閡
関
閣
閥
閨
閩
閱
閲
閹
閻
閾
闆
闇
闊
闌
闍
闔
闕
闖
闘
關
闡
闢
门
闪
闫
闭
问
闯
闰
闲
间
闵
闷
闸
闹
闺
闻
闽
闾
阀
阁
阂
阅
阆
阇
阈
阉
阎
阐
阑
阔
阕
阖
阙
阚
阜
队
阡
阪
阮
阱
防
阳
阴
阵
阶
阻
阿
陀
陂
附
际
陆
陇
陈
陋
陌
降
限
陕
陛
陝
陞
陟
陡
院
陣
除
陨
险
陪
陰
陲
陳
陵
陶
陷
陸
険
陽
隅
隆
隈
隊
隋
隍
階
随
隐
隔
隕
隘
隙
際
障
隠
隣
隧
隨
險
隱
隴
隶
隸
隻
隼
隽
难
雀
雁
雄
雅
集
雇
雉
雋
雌
雍
雎
雏
雑
雒
雕
雖
雙
雛
雜
雞
離
難
雨
雪
雯
雰
雲
雳
零
雷
雹
電
雾
需
霁
霄
霆
震
霈
霉
霊
霍
霎
霏
霑
霓
霖
霜
霞
霧
霭
霰
露
霸
霹
霽
霾
靂
靄
靈
青
靓
靖
静
靚
靛
靜
非
靠
靡
面
靥
靦
革
靳
靴
靶
靼
鞅
鞋
鞍
鞏
鞑
鞘
鞠
鞣
鞦
鞭
韆
韋
韌
韓
韜
韦
韧
韩
韬
韭
音
韵
韶
韻
響
頁
頂
頃
項
順
須
頌
預
頑
頒
頓
頗
領
頜
頡
頤
頫
頭
頰
頷
頸
頹
頻
頼
顆
題
額
顎
顏
顔
願
顛
類
顧
顫
顯
顱
顴
页
顶
顷
项
顺
须
顼
顽
顾
顿
颁
颂
预
颅
领
颇
颈
颉
颊
颌
颍
颐
频
颓
颔
颖
颗
题
颚
颛
颜
额
颞
颠
颡
颢
颤
颦
颧
風
颯
颱
颳
颶
颼
飄
飆
风
飒
飓
飕
飘
飙
飚
飛
飞
食
飢
飨
飩
飪
飯
飲
飼
飽
飾
餃
餅
餉
養
餌
餐
餒
餓
餘
餚
餛
餞
餡
館
餮
餵
餾
饅
饈
饋
饌
饍
饑
饒
饕
饗
饞
饥
饨
饪
饬
饭
饮
饯
饰
饱
饲
饴
饵
饶
饷
饺
饼
饽
饿
馀
馁
馄
馅
馆
馈
馋
馍
馏
馒
馔
首
馗
香
馥
馨
馬
馭
馮
馳
馴
駁
駄
駅
駆
駐
駒
駕
駛
駝
駭
駱
駿
騁
騎
騏
験
騙
騨
騰
騷
驀
驅
驊
驍
驒
驕
驗
驚
驛
驟
驢
驥
马
驭
驮
驯
驰
驱
驳
驴
驶
驷
驸
驹
驻
驼
驾
驿
骁
骂
骄
骅
骆
骇
骈
骊
骋
验
骏
骐
骑
骗
骚
骛
骜
骞
骠
骡
骤
骥
骧
骨
骯
骰
骶
骷
骸
骼
髂
髅
髋
髏
髒
髓
體
髖
高
髦
髪
髮
髯
髻
鬃
鬆
鬍
鬓
鬚
鬟
鬢
鬣
鬥
鬧
鬱
鬼
魁
魂
魄
魅
魇
魍
魏
魔
魘
魚
魯
魷
鮑
鮨
鮪
鮭
鮮
鯉
鯊
鯖
鯛
鯨
鯰
鯽
鰍
鰓
鰭
鰲
鰻
鰾
鱈
鱉
鱔
鱗
鱷
鱸
鱼
鱿
鲁
鲈
鲍
鲑
鲛
鲜
鲟
鲢
鲤
鲨
鲫
鲱
鲲
鲶
鲷
鲸
鳃
鳄
鳅
鳌
鳍
鳕
鳖
鳗
鳝
鳞
鳥
鳩
鳳
鳴
鳶
鴉
鴕
鴛
鴦
鴨
鴻
鴿
鵑
鵜
鵝
鵡
鵬
鵰
鵲
鶘
鶩
鶯
鶴
鷗
鷲
鷹
鷺
鸚
鸞
鸟
鸠
鸡
鸢
鸣
鸥
鸦
鸨
鸪
鸭
鸯
鸳
鸵
鸽
鸾
鸿
鹂
鹃
鹄
鹅
鹈
鹉
鹊
鹌
鹏
鹑
鹕
鹘
鹜
鹞
鹤
鹦
鹧
鹫
鹭
鹰
鹳
鹵
鹹
鹼
鹽
鹿
麂
麋
麒
麓
麗
麝
麟
麥
麦
麩
麴
麵
麸
麺
麻
麼
麽
麾
黃
黄
黍
黎
黏
黑
黒
黔
默
黛
黜
黝
點
黠
黨
黯
黴
鼋
鼎
鼐
鼓
鼠
鼬
鼹
鼻
鼾
齁
齊
齋
齐
齒
齡
齢
齣
齦
齿
龄
龅
龈
龊
龋
龌
龍
龐
龔
龕
龙
龚
龛
龜
龟
︰
︱
︶
︿
﹁
﹂
﹍
﹏
﹐
﹑
﹒
﹔
﹕
﹖
﹗
﹙
﹚
﹝
﹞
﹡
﹣
！
＂
＃
＄
％
＆
＇
（
）
＊
＋
，
－
．
／
０
１
２
３
４
５
６
７
８
９
：
；
＜
＝
＞
？
＠
［
＼
］
＾
＿
｀
ａ
ｂ
ｃ
ｄ
ｅ
ｆ
ｇ
ｈ
ｉ
ｊ
ｋ
ｌ
ｍ
ｎ
ｏ
ｐ
ｑ
ｒ
ｓ
ｔ
ｕ
ｖ
ｗ
ｘ
ｙ
ｚ
｛
｜
｝
～
｡
｢
｣
､
･
ｯ
ｰ
ｲ
ｸ
ｼ
ｽ
ﾄ
ﾉ
ﾌ
ﾗ
ﾙ
ﾝ
ﾞ
ﾟ
￣
￥
👍
🔥
😂
😎
yam
10
2017
12
11
2016
20
30
15
06
lofter
##s
2015
by
16
14
18
13
24
17
2014
21
##0
22
19
25
23
com
100
00
05
2013
##a
03
09
08
28
##2
50
01
04
##1
27
02
2012
##3
26
##e
07
##8
##5
##6
##4
##9
##7
29
2011
40
##t
2010
##o
##d
##i
2009
##n
app
www
the
##m
31
##c
##l
##y
##r
##g
2008
60
http
200
qq
##p
80
##f
google
pixnet
90
cookies
tripadvisor
500
##er
##k
35
##h
facebook
2007
2000
70
##b
of
##x
##u
45
300
iphone
32
1000
2006
48
ip
36
in
38
3d
##w
##ing
55
ctrip
##on
##v
33
##の
to
34
400
id
2005
it
37
windows
llc
top
99
42
39
000
led
at
##an
41
51
52
46
49
43
53
44
##z
android
58
and
59
2004
56
vr
##か
5000
2003
47
blogthis
twitter
54
##le
150
ok
2018
57
75
cn
no
ios
##in
##mm
##00
800
on
te
3000
65
2001
360
95
ig
lv
120
##ng
##を
##us
##に
pc
てす
──
600
##te
85
2002
88
##ed
html
ncc
wifi
email
64
blog
is
##10
##て
mail
online
##al
dvd
##ic
studio
##は
##℃
##ia
##と
line
vip
72
##q
98
##ce
##en
for
##is
##ra
##es
##j
usb
net
cp
1999
asia
4g
##cm
diy
new
3c
##お
ta
66
language
vs
apple
tw
86
web
##ne
ipad
62
you
##re
101
68
##tion
ps
de
bt
pony
atm
##2017
1998
67
##ch
ceo
##or
go
##na
av
pro
cafe
96
pinterest
97
63
pixstyleme3c
##ta
more
said
##2016
1997
mp3
700
##ll
nba
jun
##20
92
tv
1995
pm
61
76
nbsp
250
##ie
linux
##ma
cd
110
hd
##17
78
##ion
77
6000
am
##th
##st
94
##se
##et
69
180
gdp
my
105
81
abc
89
flash
79
one
93
1990
1996
##ck
gps
##も
##ly
web885
106
2020
91
##ge
4000
1500
xd
boss
isbn
1994
org
##ry
me
love
##11
0fork
73
##12
3g
##ter
##ar
71
82
##la
hotel
130
1970
pk
83
87
140
ie
##os
##30
##el
74
##50
seo
cpu
##ml
p2p
84
may
##る
sun
tue
internet
cc
posted
youtube
##at
##ン
##man
ii
##ル
##15
abs
nt
pdf
yahoo
ago
1980
##it
news
mac
104
##てす
##me
##り
java
1992
spa
##de
##nt
hk
all
plus
la
1993
##mb
##16
##ve
west
##da
160
air
##い
##ps
から
##to
1989
logo
htc
php
https
fi
momo
##son
sat
##ke
##80
ebd
suv
wi
day
apk
##88
##um
mv
galaxy
wiki
or
brake
##ス
1200
する
this
1991
mon
##こ
❤2017
po
##ない
javascript
life
home
june
##ss
system
900
##ー
##０
pp
1988
world
fb
4k
br
##as
ic
ai
leonardo
safari
##60
live
free
xx
wed
win7
kiehl
##co
lg
o2o
##go
us
235
1949
mm
しい
vfm
kanye
##90
##2015
##id
jr
##ey
123
rss
##sa
##ro
##am
##no
thu
fri
350
##sh
##ki
103
comments
name
##のて
##pe
##ine
max
1987
8000
uber
##mi
##ton
wordpress
office
1986
1985
##ment
107
bd
win10
##ld
##li
gmail
bb
dior
##rs
##ri
##rd
##ます
up
cad
##®
dr
して
read
##21
をお
##io
##99
url
1984
pvc
paypal
show
policy
##40
##ty
##18
with
##★
##01
txt
102
##ba
dna
from
post
mini
ar
taiwan
john
##ga
privacy
agoda
##13
##ny
word
##24
##22
##by
##ur
##hz
1982
##ang
265
cookie
netscape
108
##ka
##～
##ad
house
share
note
ibm
code
hello
nike
sim
survey
##016
1979
1950
wikia
##32
##017
5g
cbc
##tor
##kg
1983
##rt
##14
campaign
store
2500
os
##ct
##ts
##°
170
api
##ns
365
excel
##な
##ao
##ら
##し
～～
##nd
university
163
には
518
##70
##ya
##il
##25
pierre
ipo
0020
897
##23
hotels
##ian
のお
125
years
6606
##ers
##26
high
##day
time
##ay
bug
##line
##く
##す
##be
xp
talk2yam
yamservice
10000
coco
##dy
sony
##ies
1978
microsoft
david
people
##ha
1960
instagram
intel
その
##ot
iso
1981
##va
115
##mo
##land
xxx
man
co
ltxsw
##ation
baby
220
##pa
##ol
1945
7000
tag
450
##ue
msn
##31
oppo
##ト
##ca
control
##om
st
chrome
##ure
##ん
be
##き
lol
##19
した
##bo
240
lady
##100
##way
##から
4600
##ko
##do
##un
4s
corporation
168
##ni
herme
##28
ｃｐ
978
##up
##06
ui
##ds
ppt
admin
three
します
bbc
re
128
##48
ca
##015
##35
hp
##ee
tpp
##た
##ive
××
root
##cc
##ました
##ble
##ity
adobe
park
114
et
oled
city
##ex
##ler
##ap
china
##book
20000
view
##ice
global
##km
your
hong
##mg
out
##ms
ng
ebay
##29
menu
ubuntu
##cy
rom
##view
open
ktv
do
server
##lo
if
english
##ね
##５
##oo
1600
##02
step1
kong
club
135
july
inc
1976
mr
hi
##net
touch
##ls
##ii
michael
lcd
##05
##33
phone
james
step2
1300
ios9
##box
dc
##２
##ley
samsung
111
280
pokemon
css
##ent
##les
いいえ
##１
s8
atom
play
bmw
##said
sa
etf
ctrl
♥yoyo♥
##55
2025
##2014
##66
adidas
amazon
1958
##ber
##ner
visa
##77
##der
1800
connectivity
##hi
firefox
109
118
hr
so
style
mark
pop
ol
skip
1975
as
##27
##ir
##61
190
mba
##う
##ai
le
##ver
1900
cafe2017
lte
super
113
129
##ron
amd
like
##☆
are
##ster
we
##sk
paul
data
international
##ft
longchamp
ssd
good
##ート
##ti
reply
##my
↓↓↓
apr
star
##ker
source
136
js
112
get
force
photo
##one
126
##2013
##ow
link
bbs
1972
goods
##lin
python
119
##ip
game
##ics
##ません
blue
##●
520
##45
page
itunes
##03
1955
260
1968
gt
gif
618
##ff
##47
group
くたさい
about
bar
ganji
##nce
music
lee
not
1977
1971
1973
##per
an
faq
comment
##って
days
##ock
116
##bs
1974
1969
v1
player
1956
xbox
sql
fm
f1
139
##ah
210
##lv
##mp
##000
melody
1957
##３
550
17life
199
1966
xml
market
##au
##71
999
##04
what
gl
##95
##age
tips
##68
book
##ting
mysql
can
1959
230
##ung
wonderland
watch
10℃
##ction
9000
mar
mobile
1946
1962
article
##db
part
▲top
party
って
1967
1964
1948
##07
##ore
##op
この
dj
##78
##38
010
main
225
1965
##ong
art
320
ad
134
020
##73
117
pm2
japan
228
##08
ts
1963
##ica
der
sm
##36
2019
##wa
ct
##７
##や
##64
1937
homemesh
search
##85
##れは
##tv
##di
macbook
##９
##くたさい
service
##♥
type
った
750
##ier
##si
##75
##います
##ok
best
##ット
goris
lock
##った
cf
3m
big
##ut
ftp
carol
##vi
１０
1961
happy
sd
##ac
122
anti
pe
cnn
iii
1920
138
##ラ
1940
esp
jan
tags
##98
##51
august
vol
##86
154
##™
##fs
##れ
##sion
design
ac
##ム
press
jordan
ppp
that
key
check
##６
##tt
##㎡
1080p
##lt
power
##42
1952
##bc
vivi
##ック
he
133
121
jpg
##rry
201
175
3500
1947
nb
##ted
##rn
しています
1954
usd
##t00
master
##ンク
001
model
##58
al
##09
1953
##34
ram
goo
ても
##ui
127
1930
red
##ary
rpg
item
##pm
##41
270
##za
project
##2012
hot
td
blogabstract
##ger
##62
650
##44
gr2
##します
##ｍ
black
electronic
nfc
year
asus
また
html5
cindy
##hd
m3
132
esc
##od
booking
##53
fed
tvb
##81
##ina
mit
165
##いる
chan
192
distribution
next
になる
peter
bios
steam
cm
1941
にも
pk10
##ix
##65
##91
dec
nasa
##ana
icecat
00z
b1
will
##46
li
se
##ji
##み
##ard
oct
##ain
jp
##ze
##bi
cio
##56
smart
h5
##39
##port
curve
vpn
##nm
##dia
utc
##あり
12345678910
##52
rmvb
chanel
a4
miss
##and
##im
media
who
##63
she
girl
5s
124
vera
##して
class
vivo
king
##フ
##ei
national
ab
1951
5cm
888
145
ipod
ap
1100
5mm
211
ms
2756
##69
mp4
msci
##po
##89
131
mg
index
380
##bit
##out
##zz
##97
##67
158
apec
##８
photoshop
opec
￥799
ては
##96
##tes
##ast
2g
○○
##ール
￥2899
##ling
##よ
##ory
1938
##ical
kitty
content
##43
step3
##cn
win8
155
vc
1400
iphone7
robert
##した
tcl
137
beauty
##87
en
dollars
##ys
##oc
step
pay
yy
a1
##2011
##lly
##ks
##♪
1939
188
download
1944
sep
exe
ph
います
school
gb
center
pr
street
##board
uv
##37
##lan
winrar
##que
##ua
##com
1942
1936
480
gpu
##４
ettoday
fu
tom
##54
##ren
##via
149
##72
b2b
144
##79
##tch
rose
arm
mb
##49
##ial
##nn
nvidia
step4
mvp
00㎡
york
156
##イ
how
cpi
591
2765
gov
kg
joe
##xx
mandy
pa
##ser
copyright
fashion
1935
don
##け
ecu
##ist
##art
erp
wap
have
##lm
talk
##ek
##ning
##if
ch
##ite
video
1943
cs
san
iot
look
##84
##2010
##ku
october
##ux
trump
##hs
##ide
box
141
first
##ins
april
##ight
##83
185
angel
protected
aa
151
162
x1
m2
##fe
##×
##ho
size
143
min
ofo
fun
gomaji
ex
hdmi
food
dns
march
chris
kevin
##のか
##lla
##pp
##ec
ag
ems
6s
720p
##rm
##ham
off
##92
asp
team
fandom
ed
299
▌♥
##ell
info
されています
##82
sina
4066
161
##able
##ctor
330
399
315
dll
rights
ltd
idc
jul
3kg
1927
142
ma
surface
##76
##ク
～～～
304
mall
eps
146
green
##59
map
space
donald
v2
sodu
##light
1931
148
1700
まて
310
reserved
htm
##han
##57
2d
178
mod
##ise
##tions
152
ti
##shi
doc
1933
icp
055
wang
##ram
shopping
aug
##pi
##well
now
wam
b2
からお
##hu
236
1928
##gb
266
f2
##93
153
mix
##ef
##uan
bwl
##plus
##res
core
##ess
tea
5℃
hktvmall
nhk
##ate
list
##ese
301
feb
4m
inn
ての
nov
159
12345
daniel
##ci
pass
##bet
##nk
coffee
202
ssl
airbnb
##ute
fbi
woshipm
skype
ea
cg
sp
##fc
##www
yes
edge
alt
007
##94
fpga
##ght
##gs
iso9001
さい
##ile
##wood
##uo
image
lin
icon
american
##em
1932
set
says
##king
##tive
blogger
##74
なと
256
147
##ox
##zy
##red
##ium
##lf
nokia
claire
##リ
##ding
november
lohas
##500
##tic
##マ
##cs
##ある
##che
##ire
##gy
##ult
db
january
win
##カ
166
road
ptt
##ま
##つ
198
##fa
##mer
anna
pchome
はい
udn
ef
420
##time
##tte
2030
##ア
g20
white
かかります
1929
308
garden
eleven
di
##おります
chen
309b
777
172
young
cosplay
ちてない
4500
bat
##123
##tra
##ては
kindle
npc
steve
etc
##ern
##｜
call
xperia
ces
travel
sk
s7
##ous
1934
##int
みいたたけます
183
edu
file
cho
qr
##car
##our
186
##ant
##ｄ
eric
1914
rends
##jo
##する
mastercard
##2000
kb
##min
290
##ino
vista
##ris
##ud
jack
2400
##set
169
pos
1912
##her
##ou
taipei
しく
205
beta
##ませんか
232
##fi
express
255
body
##ill
aphojoy
user
december
meiki
##ick
tweet
richard
##av
##ᆫ
iphone6
##dd
ちてすか
views
##mark
321
pd
##００
times
##▲
level
##ash
10g
point
5l
##ome
208
koreanmall
##ak
george
q2
206
wma
tcp
##200
スタッフ
full
mlb
##lle
##watch
tm
run
179
911
smith
business
##und
1919
color
##tal
222
171
##less
moon
4399
##rl
update
pcb
shop
499
157
little
なし
end
##mhz
van
dsp
easy
660
##house
##key
history
##ｏ
oh
##001
##hy
##web
oem
let
was
##2009
##gg
review
##wan
182
##°c
203
uc
title
##val
united
233
2021
##ons
doi
trivago
overdope
sbs
##ance
##ち
grand
special
573032185
imf
216
wx17house
##so
##ーム
audi
##he
london
william
##rp
##ake
science
beach
cfa
amp
ps4
880
##800
##link
##hp
crm
ferragamo
bell
make
##eng
195
under
zh
photos
2300
##style
##ント
via
176
da
##gi
company
i7
##ray
thomas
370
ufo
i5
##max
plc
ben
back
research
8g
173
mike
##pc
##ッフ
september
189
##ace
vps
february
167
pantos
wp
lisa
1921
★★
jquery
night
long
offer
##berg
##news
1911
##いて
ray
fks
wto
せます
over
164
340
##all
##rus
1924
##888
##works
blogtitle
loftpermalink
##→
187
martin
test
ling
km
##め
15000
fda
v3
##ja
##ロ
ｗedding
かある
outlet
family
##ea
をこ
##top
story
##ness
salvatore
##lu
204
swift
215
room
している
oracle
##ul
1925
sam
b2c
week
pi
rock
##のは
##ａ
##けと
##ean
##300
##gle
cctv
after
chinese
##back
powered
x2
##tan
1918
##nes
##イン
canon
only
181
##zi
##las
say
##oe
184
##sd
221
##bot
##world
##zo
sky
made
top100
just
1926
pmi
802
234
gap
##vr
177
les
174
▲topoct
ball
vogue
vi
ing
ofweek
cos
##list
##ort
▲topmay
##なら
##lon
として
last
##tc
##of
##bus
##gen
real
eva
##コ
a3
nas
##lie
##ria
##coin
##bt
▲topapr
his
212
cat
nata
vive
health
⋯⋯
drive
sir
▲topmar
du
cup
##カー
##ook
##よう
##sy
alex
msg
tour
しました
3ce
##word
193
ebooks
r8
block
318
##より
2200
nice
pvp
207
months
1905
rewards
##ther
1917
0800
##xi
##チ
##sc
micro
850
gg
blogfp
op
1922
daily
m1
264
true
##bb
ml
##tar
##のお
##ky
anthony
196
253
##yo
state
218
##ara
##aa
##rc
##tz
##ston
より
gear
##eo
##ade
ge
see
1923
##win
##ura
ss
heart
##den
##ita
down
##sm
el
png
2100
610
rakuten
whatsapp
bay
dream
add
##use
680
311
pad
gucci
mpv
##ode
##fo
island
▲topjun
##▼
223
jason
214
chicago
##❤
しの
##hone
io
##れる
##ことか
sogo
be2
##ology
990
cloud
vcd
##con
2～3
##ford
##joy
##kb
##こさいます
##rade
but
##ach
docker
##ful
rfid
ul
##ase
hit
ford
##star
580
##○
１１
a2
sdk
reading
edited
##are
cmos
##mc
238
siri
light
##ella
##ため
bloomberg
##read
pizza
##ison
jimmy
##vm
college
node
journal
ba
18k
##play
245
##cer
２０
magic
##yu
191
jump
288
tt
##ings
asr
##lia
3200
step5
network
##cd
mc
いします
1234
pixstyleme
273
##600
2800
money
★★★★★
1280
１２
430
bl
みの
act
##tus
tokyo
##rial
##life
emba
##ae
saas
tcs
##rk
##wang
summer
##sp
ko
##ving
390
premium
##その
netflix
##ヒ
uk
mt
##lton
right
frank
two
209
える
##ple
##cal
021
##んな
##sen
##ville
hold
nexus
dd
##ius
てお
##mah
##なく
tila
zero
820
ce
##tin
resort
##ws
charles
old
p10
5d
report
##360
##ru
##には
bus
vans
lt
##est
pv
##レ
links
rebecca
##ツ
##dm
azure
##365
きな
limited
bit
4gb
##mon
1910
moto
##eam
213
1913
var
eos
なとの
226
blogspot
された
699
e3
dos
dm
fc
##ments
##ik
##kw
boy
##bin
##ata
960
er
##せ
219
##vin
##tu
##ula
194
##∥
station
##ろ
##ature
835
files
zara
hdr
top10
nature
950
magazine
s6
marriott
##シ
avira
case
##っと
tab
##ran
tony
##home
oculus
im
##ral
jean
saint
cry
307
rosie
##force
##ini
ice
##bert
のある
##nder
##mber
pet
2600
##◆
plurk
▲topdec
##sis
00kg
▲topnov
720
##ence
tim
##ω
##nc
##ても
##name
log
ips
great
ikea
malaysia
unix
##イト
3600
##ncy
##nie
12000
akb48
##ye
##oid
404
##chi
##いた
oa
xuehai
##1000
##orm
##rf
275
さん
##ware
##リー
980
ho
##pro
text
##era
560
bob
227
##ub
##2008
8891
scp
avi
##zen
2022
mi
wu
museum
qvod
apache
lake
jcb
▲topaug
★★★
ni
##hr
hill
302
ne
weibo
490
ruby
##ーシ
##ヶ
##row
4d
▲topjul
iv
##ish
github
306
mate
312
##スト
##lot
##ane
andrew
のハイト
##tina
t1
rf
ed2k
##vel
##900
way
final
りの
ns
5a
705
197
##メ
sweet
bytes
##ene
▲topjan
231
##cker
##2007
##px
100g
topapp
229
helpapp
rs
low
14k
g4g
care
630
ldquo
あり
##fork
leave
rm
edition
##gan
##zon
##qq
▲topsep
##google
##ism
gold
224
explorer
##zer
toyota
category
select
visual
##labels
restaurant
##md
posts
s1
##ico
もっと
angelababy
123456
217
sports
s3
mbc
1915
してくたさい
shell
x86
candy
##new
kbs
face
xl
470
##here
4a
swissinfo
v8
▲topfeb
dram
##ual
##vice
3a
##wer
sport
q1
ios10
public
int
card
##ｃ
ep
au
rt
##れた
1080
bill
##mll
kim
３０
460
wan
##uk
##ミ
x3
298
0t
scott
##ming
239
e5
##3d
h7n9
worldcat
brown
##あります
##vo
##led
##580
##ax
249
410
##ert
paris
##～6
polo
925
##lr
599
##ナ
capital
##hing
bank
cv
1g
##chat
##ｓ
##たい
adc
##ule
2m
##ｅ
digital
hotmail
268
##pad
870
bbq
quot
##ring
before
wali
##まて
mcu
2k
2b
という
costco
316
north
333
switch
##city
##ｐ
philips
##mann
management
panasonic
##cl
##vd
##ping
##rge
alice
##lk
##ましょう
css3
##ney
vision
alpha
##ular
##400
##tter
lz
にお
##ありません
mode
gre
1916
pci
##tm
237
1～2
##yan
##そ
について
##let
##キ
work
war
coach
ah
mary
##ᅵ
huang
##pt
a8
pt
follow
##berry
1895
##ew
a5
ghost
##ション
##wn
##og
south
##code
girls
##rid
action
villa
git
r11
table
games
##cket
error
##anonymoussaid
##ag
here
##ame
##gc
qa
##■
##lis
gmp
##gin
vmalife
##cher
yu
wedding
##tis
demo
dragon
530
soho
social
bye
##rant
river
orz
acer
325
##↑
##ース
##ats
261
del
##ven
440
ups
##ように
##ター
305
value
macd
yougou
##dn
661
##ano
ll
##urt
##rent
continue
script
##wen
##ect
paper
263
319
shift
##chel
##フト
##cat
258
x5
fox
243
##さん
car
aaa
##blog
loading
##yn
##tp
kuso
799
si
sns
イカせるテンマ
ヒンクテンマ3
rmb
vdc
forest
central
prime
help
ultra
##rmb
##ような
241
square
688
##しい
のないフロクに
##field
##reen
##ors
##ju
c1
start
510
##air
##map
cdn
##wo
cba
stephen
m8
100km
##get
opera
##base
##ood
vsa
com™
##aw
##ail
251
なのて
count
t2
##ᅡ
##een
2700
hop
##gp
vsc
tree
##eg
##ose
816
285
##ories
##shop
alphago
v4
1909
simon
##ᆼ
fluke62max
zip
スホンサー
##sta
louis
cr
bas
##～10
bc
##yer
hadoop
##ube
##wi
1906
0755
hola
##low
place
centre
5v
d3
##fer
252
##750
##media
281
540
0l
exchange
262
series
##ハー
##san
eb
##bank
##ｋ
q3
##nge
##mail
take
##lp
259
1888
client
east
cache
event
vincent
##ールを
きを
##nse
sui
855
adchoice
##и
##stry
##なたの
246
##zone
ga
apps
sea
##ab
248
cisco
##タ
##rner
kymco
##care
dha
##pu
##yi
minkoff
royal
p1
への
annie
269
collection
kpi
playstation
257
になります
866
bh
##bar
queen
505
radio
1904
andy
armani
##xy
manager
iherb
##ery
##share
spring
raid
johnson
1908
##ob
volvo
hall
##ball
v6
our
taylor
##hk
bi
242
##cp
kate
bo
water
technology
##rie
サイトは
277
##ona
##sl
hpv
303
gtx
hip
rdquo
jayz
stone
##lex
##rum
namespace
##やり
620
##ale
##atic
des
##erson
##ql
##ves
##type
enter
##この
##てきます
d2
##168
##mix
##bian
との
a9
jj
ky
##lc
access
movie
##hc
リストに
tower
##ration
##mit
ます
##nch
ua
tel
prefix
##o2
1907
##point
1901
ott
～10
##http
##ury
baidu
##ink
member
##logy
bigbang
nownews
##js
##shot
##tb
##こと
247
eba
##tics
##lus
ける
v5
spark
##ama
there
##ions
god
##lls
##down
hiv
##ress
burberry
day2
##kv
◆◆
jeff
related
film
edit
joseph
283
##ark
cx
32gb
order
g9
30000
##ans
##tty
s5
##bee
かあります
thread
xr
buy
sh
005
land
spotify
mx
##ari
276
##verse
×email
sf
why
##ことて
244
7headlines
nego
sunny
dom
exo
401
666
positioning
fit
rgb
##tton
278
kiss
alexa
adam
lp
みリストを
##ｇ
mp
##ties
##llow
amy
##du
np
002
institute
271
##rth
##lar
2345
590
##des
sidebar
１５
imax
site
##cky
##kit
##ime
##009
season
323
##fun
##ンター
##ひ
gogoro
a7
pu
lily
fire
twd600
##ッセーシを
いて
##vis
30ml
##cture
##をお
information
##オ
close
friday
##くれる
yi
nick
てすか
##tta
##tel
6500
##lock
cbd
economy
254
かお
267
tinker
double
375
8gb
voice
##app
oops
channel
today
985
##right
raw
xyz
##＋
jim
edm
##cent
7500
supreme
814
ds
##its
##asia
dropbox
##てすか
##tti
books
272
100ml
##tle
##ller
##ken
##more
##boy
sex
309
##dom
t3
##ider
##なります
##unch
1903
810
feel
5500
##かった
##put
により
s2
mo
##gh
men
ka
amoled
div
##tr
##n1
port
howard
##tags
ken
dnf
##nus
adsense
##а
ide
##へ
buff
thunder
##town
##ique
has
##body
auto
pin
##erry
tee
てした
295
number
##the
##013
object
psp
cool
udnbkk
16gb
##mic
miui
##tro
most
r2
##alk
##nity
1880
±0
##いました
428
s4
law
version
##oa
n1
sgs
docomo
##tf
##ack
henry
fc2
##ded
##sco
##014
##rite
286
0mm
linkedin
##ada
##now
wii
##ndy
ucbug
##◎
sputniknews
legalminer
##ika
##xp
2gb
##bu
q10
oo
b6
come
##rman
cheese
ming
maker
##gm
nikon
##fig
ppi
kelly
##ります
jchere
てきます
ted
md
003
fgo
tech
##tto
dan
soc
##gl
##len
hair
earth
640
521
img
##pper
##a1
##てきる
##ロク
acca
##ition
##ference
suite
##ig
outlook
##mond
##cation
398
##pr
279
101vip
358
##999
282
64gb
3800
345
airport
##over
284
##おり
jones
##ith
lab
##su
##いるのて
co2
town
piece
##llo
no1
vmware
24h
##qi
focus
reader
##admin
##ora
tb
false
##log
1898
know
lan
838
##ces
f4
##ume
motel
stop
##oper
na
flickr
netcomponents
##af
##─
pose
williams
local
##ound
##cg
##site
##iko
いお
274
5m
gsm
con
##ath
1902
friends
##hip
cell
317
##rey
780
cream
##cks
012
##dp
facebooktwitterpinterestgoogle
sso
324
shtml
song
swiss
##mw
##キンク
lumia
xdd
string
tiffany
522
marc
られた
insee
russell
sc
dell
##ations
ｏｋ
camera
289
##vs
##flow
##late
classic
287
##nter
stay
g1
mtv
512
##ever
##lab
##nger
qe
sata
ryan
d1
50ml
cms
##cing
su
292
3300
editor
296
##nap
security
sunday
association
##ens
##700
##bra
acg
##かり
sofascore
とは
mkv
##ign
jonathan
gary
build
labels
##oto
tesla
moba
qi
gohappy
general
ajax
1024
##かる
サイト
society
##test
##urs
wps
fedora
##ich
mozilla
328
##480
##dr
usa
urn
##lina
##ｒ
grace
##die
##try
##ader
1250
##なり
elle
570
##chen
##ᆯ
price
##ten
uhz
##ough
eq
##hen
states
push
session
balance
wow
506
##cus
##py
when
##ward
##ep
34e
wong
library
prada
##サイト
##cle
running
##ree
313
ck
date
q4
##ctive
##ool
##＞
mk
##ira
##163
388
die
secret
rq
dota
buffet
は１ヶ
e6
##ez
pan
368
ha
##card
##cha
2a
##さ
alan
day3
eye
f3
##end
france
keep
adi
rna
tvbs
##ala
solo
nova
##え
##tail
##ょう
support
##ries
##なる
##ved
base
copy
iis
fps
##ways
hero
hgih
profile
fish
mu
ssh
entertainment
chang
##wd
click
cake
##ond
pre
##tom
kic
pixel
##ov
##fl
product
6a
##pd
dear
##gate
es
yumi
audio
##²
##sky
echo
bin
where
##ture
329
##ape
find
sap
isis
##なと
nand
##101
##load
##ream
band
a6
525
never
##post
festival
50cm
##we
555
guide
314
zenfone
##ike
335
gd
forum
jessica
strong
alexander
##ould
software
allen
##ious
program
360°
else
lohasthree
##gar
することかてきます
please
##れます
rc
##ggle
##ric
bim
50000
##own
eclipse
355
brian
3ds
##side
061
361
##other
##ける
##tech
##ator
485
engine
##ged
##ｔ
plaza
##fit
cia
ngo
westbrook
shi
tbs
50mm
##みませんか
sci
291
reuters
##ily
contextlink
##hn
af
##cil
bridge
very
##cel
1890
cambridge
##ize
15g
##aid
##data
790
frm
##head
award
butler
##sun
meta
##mar
america
ps3
puma
pmid
##すか
lc
670
kitchen
##lic
オーフン5
きなしソフトサーヒス
そして
day1
future
★★★★
##text
##page
##rris
pm1
##ket
fans
##っています
1001
christian
bot
kids
trackback
##hai
c3
display
##hl
n2
1896
idea
さんも
##sent
airmail
##ug
##men
pwm
けます
028
##lution
369
852
awards
schemas
354
asics
wikipedia
font
##tional
##vy
c2
293
##れている
##dget
##ein
っている
contact
pepper
スキル
339
##～5
294
##uel
##ument
730
##hang
みてす
q5
##sue
rain
##ndi
wei
swatch
##cept
わせ
331
popular
##ste
##tag
p2
501
trc
1899
##west
##live
justin
honda
ping
messenger
##rap
v9
543
##とは
unity
appqq
はすへて
025
leo
##tone
##テ
##ass
uniqlo
##010
502
her
jane
memory
moneydj
##tical
human
12306
していると
##m2
coc
miacare
##mn
tmt
##core
vim
kk
##may
fan
target
use
too
338
435
2050
867
737
fast
##2c
services
##ope
omega
energy
##わ
pinkoi
1a
##なから
##rain
jackson
##ement
##シャンルの
374
366
そんな
p9
rd
##ᆨ
1111
##tier
##vic
zone
##│
385
690
dl
isofix
cpa
m4
322
kimi
めて
davis
##lay
lulu
##uck
050
weeks
qs
##hop
920
##ｎ
ae
##ear
～5
eia
405
##fly
korea
jpeg
boost
##ship
small
##リア
1860
eur
297
425
valley
##iel
simple
##ude
rn
k2
##ena
されます
non
patrick
しているから
##ナー
feed
5757
30g
process
well
qqmei
##thing
they
aws
lu
pink
##ters
##kin
または
board
##vertisement
wine
##ien
unicode
##dge
r1
359
##tant
いを
##twitter
##3c
cool1
される
##れて
##ｌ
isp
##012
standard
45㎡2
402
##150
matt
##fu
326
##iner
googlemsn
pixnetfacebookyahoo
##ラン
x7
886
##uce
メーカー
sao
##ev
##きました
##file
9678
403
xddd
shirt
6l
##rio
##hat
3mm
givenchy
ya
bang
##lio
monday
crystal
ロクイン
##abc
336
head
890
ubuntuforumwikilinuxpastechat
##vc
##～20
##rity
cnc
7866
ipv6
null
1897
##ost
yang
imsean
tiger
##fet
##ンス
352
##＝
dji
327
ji
maria
##come
##んて
foundation
3100
##beth
##なった
1m
601
active
##aft
##don
3p
sr
349
emma
##khz
living
415
353
1889
341
709
457
sas
x6
##face
pptv
x4
##mate
han
sophie
##jing
337
fifa
##mand
other
sale
inwedding
##gn
てきちゃいます
##mmy
##pmlast
bad
nana
nbc
してみてくたさいね
なとはお
##wu
##かあります
##あ
note7
single
##340
せからこ
してくたさい♪この
しにはとんとんワークケートを
するとあなたにもっとマッチした
ならワークケートへ
もみつかっちゃうかも
ワークケートの
##bel
window
##dio
##ht
union
age
382
１４
##ivity
##ｙ
コメント
domain
neo
##isa
##lter
5k
f5
steven
##cts
powerpoint
tft
self
g2
ft
##テル
zol
##act
mwc
381
343
もう
nbapop
408
てある
eds
ace
##room
previous
author
tomtom
il
##ets
hu
financial
☆☆☆
っています
bp
5t
chi
1gb
##hg
fairmont
cross
008
gay
h2
function
##けて
356
also
1b
625
##ータ
##raph
1894
3～5
##ils
i3
334
avenue
##host
による
##bon
##tsu
message
navigation
50g
fintech
h6
##ことを
8cm
##ject
##vas
##firm
credit
##wf
xxxx
form
##nor
##space
huawei
plan
json
sbl
##dc
machine
921
392
wish
##120
##sol
windows7
edward
##ために
development
washington
##nsis
lo
818
##sio
##ym
##bor
planet
##～8
##wt
ieee
gpa
##めて
camp
ann
gm
##tw
##oka
connect
##rss
##work
##atus
wall
chicken
soul
2mm
##times
fa
##ather
##cord
009
##eep
hitachi
gui
harry
##pan
e1
disney
##press
##ーション
wind
386
frigidaire
##tl
liu
hsu
332
basic
von
ev
いた
てきる
スホンサーサイト
learning
##ull
expedia
archives
change
##wei
santa
cut
ins
6gb
turbo
brand
cf1
508
004
return
747
##rip
h1
##nis
##をこ
128gb
##にお
3t
application
しており
emc
rx
##oon
384
quick
412
15058
wilson
wing
chapter
##bug
beyond
##cms
##dar
##oh
zoom
e2
trip
sb
##nba
rcep
342
aspx
ci
080
gc
gnu
める
##count
advanced
dance
dv
##url
##ging
367
8591
am09
shadow
battle
346
##ｉ
##cia
##という
emily
##のてす
##tation
host
ff
techorz
sars
##mini
##mporary
##ering
nc
4200
798
##next
cma
##mbps
##gas
##ift
##dot
##ィ
455
##～17
amana
##りの
426
##ros
ir
00㎡1
##eet
##ible
##↓
710
ˋ▽ˊ
##aka
dcs
iq
##ｖ
l1
##lor
maggie
##011
##iu
588
##～1
830
##gt
1tb
articles
create
##burg
##iki
database
fantasy
##rex
##cam
dlc
dean
##you
hard
path
gaming
victoria
maps
cb
##lee
##itor
overchicstoretvhome
systems
##xt
416
p3
sarah
760
##nan
407
486
x9
install
second
626
##ann
##ph
##rcle
##nic
860
##nar
ec
##とう
768
metro
chocolate
##rian
～4
##table
##しています
skin
##sn
395
mountain
##0mm
inparadise
6m
7x24
ib
4800
##jia
eeworld
creative
g5
g3
357
parker
ecfa
village
からの
18000
sylvia
サーヒス
hbl
##ques
##onsored
##x2
##きます
##v4
##tein
ie6
383
##stack
389
ver
##ads
##baby
sound
bbe
##110
##lone
##uid
ads
022
gundam
351
thinkpad
006
scrum
match
##ave
mems
##470
##oy
##なりました
##talk
glass
lamigo
span
##eme
job
##a5
jay
wade
kde
498
##lace
ocean
tvg
##covery
##r3
##ners
##rea
junior
think
##aine
cover
##ision
##sia
↓↓
##bow
msi
413
458
406
##love
711
801
soft
z2
##pl
456
1840
mobil
mind
##uy
427
nginx
##oi
めた
##rr
6221
##mple
##sson
##ーシてす
371
##nts
91tv
comhd
crv3000
##uard
1868
397
deep
lost
field
gallery
##bia
rate
spf
redis
traction
930
icloud
011
なら
fe
jose
372
##tory
into
sohu
fx
899
379
kicstart2
##hia
すく
##～3
##sit
ra
２４
##walk
##xure
500g
##pact
pacific
xa
natural
carlo
##250
##walker
1850
##can
cto
gigi
516
##サー
pen
##hoo
ob
matlab
##ｂ
##yy
13913459
##iti
mango
##bbs
sense
c5
oxford
##ニア
walker
jennifer
##ola
course
##bre
701
##pus
##rder
lucky
075
##ぁ
ivy
なお
##nia
sotheby
side
##ugh
joy
##orage
##ush
##bat
##dt
364
r9
##2d
##gio
511
country
wear
##lax
##～7
##moon
393
seven
study
411
348
lonzo
8k
##ェ
evolution
##イフ
##kk
gs
kd
##レス
arduino
344
b12
##lux
arpg
##rdon
cook
##x5
dark
five
##als
##ida
とても
sign
362
##ちの
something
20mm
##nda
387
##posted
fresh
tf
1870
422
cam
##mine
##skip
##form
##ssion
education
394
##tee
dyson
stage
##jie
want
##night
epson
pack
あります
##ppy
テリヘル
##█
wd
##eh
##rence
left
##lvin
golden
mhz
discovery
##trix
##n2
loft
##uch
##dra
##sse
speed
～1
1mdb
sorry
welcome
##urn
wave
gaga
##lmer
teddy
##160
トラックハック
せよ
611
##f2016
378
rp
##sha
rar
##あなたに
##きた
840
holiday
##ュー
373
074
##vg
##nos
##rail
gartner
gi
6p
##dium
kit
488
b3
eco
##ろう
20g
sean
##stone
autocad
nu
##np
f16
write
029
m5
##ias
images
atp
##dk
fsm
504
1350
ve
52kb
##xxx
##のに
##cake
414
unit
lim
ru
1v
##ification
published
angela
16g
analytics
ak
##ｑ
##nel
gmt
##icon
again
##₂
##bby
ios11
445
かこさいます
waze
いてす
##ハ
9985
##ust
##ティー
framework
##007
iptv
delete
52sykb
cl
wwdc
027
30cm
##fw
##ての
1389
##xon
brandt
##ses
##dragon
tc
vetements
anne
monte
modern
official
##へて
##ere
##nne
##oud
もちろん
５０
etnews
##a2
##graphy
421
863
##ちゃん
444
##rtex
##てお
l2
##gma
mount
ccd
たと
archive
morning
tan
ddos
e7
##ホ
day4
##ウ
gis
453
its
495
factory
bruce
pg
##ito
ってくたさい
guest
cdma
##lling
536
n3
しかし
3～4
mega
eyes
ro
１３
women
dac
church
##jun
singapore
##facebook
6991
starbucks
##tos
##stin
##shine
zen
##mu
tina
20℃
1893
##たけて
503
465
request
##gence
qt
##っ
1886
347
363
q7
##zzi
diary
##tore
409
##ead
468
cst
##osa
canada
agent
va
##jiang
##ちは
##ーク
##lam
sg
##nix
##sday
##よって
g6
##master
bing
##zl
charlie
１６
8mm
nb40
##ーン
thai
##ルフ
ln284ct
##itz
##2f
bonnie
##food
##lent
originals
##stro
##lts
418
∟∣
##bscribe
children
ntd
yesstyle
##かも
hmv
##tment
d5
2cm
arts
sms
##pn
##я
##いい
topios9
539
lifestyle
virtual
##ague
xz
##deo
muji
024
unt
##nnis
##ᅩ
faq1
1884
396
##ette
fly
64㎡
はしめまして
441
curry
##pop
のこ
release
##←
##◆◆
##cast
073
ありな
500ml
##ews
5c
##stle
ios7
##ima
787
dog
lenovo
##r4
roger
013
cbs
vornado
100m
417
##desk
##クok
##ald
1867
9595
2900
##van
oil
##ｘ
some
break
common
##jy
##lines
g7
twice
419
ella
nano
belle
にこ
##mes
##self
##note
jb
##ことかてきます
benz
##との
##ova
451
save
##wing
##ますのて
kai
りは
##hua
##rect
rainer
##unge
448
##0m
adsl
##かな
guestname
##uma
##kins
##zu
tokichoi
##price
county
##med
##mus
rmk
391
address
vm
えて
openload
##group
##hin
##iginal
amg
urban
##oz
jobs
emi
##public
beautiful
##sch
album
##dden
##bell
jerry
works
hostel
miller
##drive
##rmin
##１０
376
boot
828
##370
##fx
##cm～
1885
##nome
##ctionary
##oman
##lish
##cr
##hm
433
##how
432
francis
xi
c919
b5
evernote
##uc
vga
##3000
coupe
##urg
##cca
##uality
019
6g
れる
multi
##また
##ett
em
hey
##ani
##tax
##rma
inside
than
740
leonnhurt
##jin
ict
れた
bird
notes
200mm
くの
##dical
##lli
result
442
iu
ee
438
smap
gopro
##last
yin
pure
998
32g
けた
5kg
##dan
##rame
mama
##oot
bean
marketing
##hur
2l
bella
sync
xuite
##ground
515
discuz
##getrelax
##ince
##bay
##5s
cj
##イス
gmat
apt
##pass
jing
##rix
c4
rich
##とても
niusnews
##ello
bag
770
##eting
##mobile
１８
culture
015
##のてすか
377
1020
area
##ience
616
details
gp
universal
silver
dit
はお
private
ddd
u11
kanshu
##ified
fung
##nny
dx
##520
tai
475
023
##fr
##lean
3s
##pin
429
##rin
25000
ly
rick
##bility
usb3
banner
##baru
##gion
metal
dt
vdf
1871
karl
qualcomm
bear
1010
oldid
ian
jo
##tors
population
##ernel
1882
mmorpg
##mv
##bike
603
##©
ww
friend
##ager
exhibition
##del
##pods
fpx
structure
##free
##tings
kl
##rley
##copyright
##mma
california
3400
orange
yoga
4l
canmake
honey
##anda
##コメント
595
nikkie
##ルハイト
dhl
publishing
##mall
##gnet
20cm
513
##クセス
##┅
e88
970
##dog
fishbase
##£
##¤
##¥
##±
##³
##µ
##¹
##º
##¼
##ß
##æ
##÷
##ø
##đ
##ŋ
##ɔ
##ə
##ɡ
##ʰ
##ˇ
##ˈ
##ˊ
##ˋ
##ˍ
##ː
##˙
##˚
##ˢ
##α
##β
##γ
##δ
##ε
##η
##θ
##ι
##κ
##λ
##μ
##ν
##ο
##π
##ρ
##ς
##σ
##τ
##υ
##φ
##χ
##ψ
##б
##в
##г
##д
##е
##ж
##з
##к
##л
##м
##н
##о
##п
##р
##с
##т
##у
##ф
##х
##ц
##ч
##ш
##ы
##ь
##і
##ا
##ب
##ة
##ت
##د
##ر
##س
##ع
##ل
##م
##ن
##ه
##و
##ي
##۩
##ก
##ง
##น
##ม
##ย
##ร
##อ
##า
##เ
##๑
##ღ
##ᄀ
##ᄁ
##ᄂ
##ᄃ
##ᄅ
##ᄆ
##ᄇ
##ᄈ
##ᄉ
##ᄋ
##ᄌ
##ᄎ
##ᄏ
##ᄐ
##ᄑ
##ᄒ
##ᅢ
##ᅣ
##ᅥ
##ᅦ
##ᅧ
##ᅨ
##ᅪ
##ᅬ
##ᅭ
##ᅮ
##ᅯ
##ᅲ
##ᅳ
##ᅴ
##ᆷ
##ᆸ
##ᆺ
##ᆻ
##ᗜ
##ᵃ
##ᵉ
##ᵍ
##ᵏ
##ᵐ
##ᵒ
##ᵘ
##
##⁄
##ⁱ
##⁺
##ⁿ
##₁
##₃
##₄
##€
##№
##ⅰ
##ⅱ
##ⅲ
##ⅳ
##ⅴ
##↔
##↗
##↘
##⇒
##∀
##−
##∕
##∙
##√
##∞
##∟
##∠
##∣
##∩
##∮
##∶
##∼
##∽
##≈
##≒
##≡
##≤
##≥
##≦
##≧
##≪
##≫
##⊙
##⋅
##⋈
##⋯
##⌒
##①
##②
##③
##④
##⑤
##⑥
##⑦
##⑧
##⑨
##⑩
##⑴
##⑵
##⑶
##⑷
##⑸
##⒈
##⒉
##⒊
##⒋
##ⓒ
##ⓔ
##ⓘ
##━
##┃
##┆
##┊
##┌
##└
##├
##┣
##═
##║
##╚
##╞
##╠
##╭
##╮
##╯
##╰
##╱
##╳
##▂
##▃
##▅
##▇
##▉
##▋
##▌
##▍
##▎
##□
##▪
##▫
##▬
##△
##▶
##►
##▽
##◇
##◕
##◠
##◢
##◤
##☀
##☕
##☞
##☺
##☼
##♀
##♂
##♠
##♡
##♣
##♦
##♫
##♬
##✈
##✔
##✕
##✖
##✦
##✨
##✪
##✰
##✿
##❀
##➜
##➤
##⦿
##々
##〇
##〓
##ぃ
##ぇ
##ぬ
##ふ
##ほ
##む
##ゃ
##ゅ
##ゆ
##ょ
##゜
##ゝ
##ァ
##ゥ
##エ
##ォ
##ケ
##サ
##セ
##ソ
##ッ
##ニ
##ヌ
##ネ
##ノ
##ヘ
##モ
##ャ
##ヤ
##ュ
##ユ
##ョ
##ヨ
##ワ
##ヲ
##ヽ
##ㄅ
##ㄆ
##ㄇ
##ㄉ
##ㄋ
##ㄌ
##ㄍ
##ㄎ
##ㄏ
##ㄒ
##ㄚ
##ㄛ
##ㄞ
##ㄟ
##ㄢ
##ㄤ
##ㄥ
##ㄧ
##ㄨ
##ㆍ
##㈦
##㊣
##＄
##＜
##＾
##｀
##ｆ
##ｈ
##ｊ
##ｕ
##ｗ
##ｚ
##ｯ
##ｰ
##ｲ
##ｸ
##ｼ
##ｽ
##ﾄ
##ﾉ
##ﾌ
##ﾗ
##ﾙ
##ﾝ
##ﾞ
##ﾟ
##￣
##￥
##👍
##🔥
##😂
##😎
一个
中国
我们
他们
自己
没有
国家
可以
发展
工作
这个
什么
主要
问题
进行
地方
已经
这样
全国
经济
这些
不是
公司
人民
社会
知道
这种
起来
地区
如果
开始
技术
重要
美国
成为
因为
通过
研究
文化
企业
北京
历史
世界
其中
现在
天安门
不能
一些
时间
生产
情况
代表
决定
湖北
关系
领导
生活
时候
一种
可能
出来
学生
以及
石首
一般
同时
认为
由于
所以
不同
这里
学院
两个
作为
会议
但是
部分
活动
需要
怎么
管理
方面
市场
组织
工业
建设
形成
其他
出现
许多
日本
之间
一定
具有
城市
人民代表大会
以上
政治
人们
委员会
发现
记者
国际
规定
机关
武汉
虽然
根据
法律
影响
包括
发生
使用
中心
教育
要求
政府
因此
人口
建立
参加
产品
武汉市
而且
一样
面积
各种
提出
我国
作用
皇帝
必须
行政
编辑
职业
制度
以后
你们
说道
世纪
为了
应该
之一
之后
主席
系统
有关
组成
民族
基本
增长
自然
大学
如何
政体
各级
人员
计划
不会
产生
时期
最后
一次
表示
机构
当时
大家
特别
改革
长江
那么
这么
东西
能力
湖北省
革命
一直
基础
还有
得到
进入
运动
目前
对于
过程
方法
举行
群众
第一
单位
如此
孩子
所有
资源
过去
不过
条件
学校
提高
工程
环境
提供
方式
百科
报告
或者
下来
军事
部门
分别
十分
上海
完成
一切
那些
最大
然后
农业
经过
专业
准备
增加
获得
旅游
一声
觉得
一起
理论
今天
非常
中央
比较
表现
价值
国务院
科技
完全
亿元
有些
存在
达到
内容
实行
思想
事情
实现
甚至
人民政府
任务
选举
形式
原来
有人
突然
不断
咱们
变化
心中
直接
战争
可是
不知
政策
不要
资本
继续
年代
期间
位于
任何
权力
那个
执行
先生
解决
建筑
能够
自治区
称为
结构
一点
成立
英国
社会主义
统一
先进
结果
投资
后来
一下
水平
保护
主任
关于
负责
制定
艺术
利用
于是
学习
合作
科学
看到
项目
不敢
襄阳
几个
那里
公里
服务
精神
人大
全省
当然
个人
超过
重点
很多
原因
及其
公民
锛
希望
新闻
设计
相关
国内
分布
最高
部队
它们
集团
信息
采用
重大
回来
范围
引起
实际
其实
不仅
取得
丰富
农民
整个
为主
了解
价格
甚么
地位
紝
这时
劳动
按照
控制
目标
基地
农村
传统
受到
全部
法国
比赛
军队
土地
规模
荆州
眼睛
左右
选择
批准
身上
专家
分析
统治
加强
不到
铁路
百度
每年
告诉
支持
交通
明白
处理
本级
作战
时代
皇上
实施
只要
成功
办法
随着
之中
进一步
心里
终于
大量
人物
共同
全国人民代表大会
下去
多少
来说
严重
词条
接受
收入
以来
城邦
声音
意见
过来
保持
今日
一条
发言人
另外
坚持
工人
汽车
而是
敌人
商品
说话
改变
先后
力量
事业
开发
看见
战略
标准
是否
中华人民共和国
出去
今年
报道
程度
国民党
平均
消息
还是
安全
独立
注意
机会
韦小宝
父亲
此外
这次
经验
采取
喜欢
根本
领域
具体
联系
几乎
干部
印度
如今
大会
不可
兄弟
德国
阶段
为什么
感到
无法
宪法
似乎
原则
真正
法规
斗争
人类
目的
造成
一位
反对
儿子
相同
以前
著名
众人
建议
迅速
全面
正是
明显
就是
欧洲
作品
首先
集中
正式
朋友
第二
召开
材料
帮助
飞机
委员
行动
保证
现象
特点
现代
实际上
资料
毛泽东
同志
行为
结束
直辖市
介绍
只见
胜利
认识
人数
姑娘
积极
家庭
之前
更加
回答
武器
那样
应用
市长
来到
设立
产业
公路
人才
意义
台湾
容易
长期
一句
大道
扩大
官员
调整
考虑
联合
并且
自由
仍然
拥有
民主
专门
附近
一天
师父
结合
清楚
说明
稳定
古代
三个
此时
物质
电话
网络
利益
然而
很大
不少
中学
开放
调查
人家
重新
广泛
分为
知识
别人
综合
出口
动物
速度
总理
脸上
用于
设备
女人
股东
作出
展开
措施
通常
电子
方向
导弹
小时
平民
行业
特色
货币
完善
地理
功能
香港
巨大
发表
性质
母亲
质量
命令
和平
监督
一年
身体
面前
武功
位置
体系
越来越
逐渐
指出
安排
权利
训练
考试
指挥
却是
指导
发布
除了
从而
感觉
努力
机场
业务
植物
同样
状态
人民代表大会常务委员会
二人
银行
书记
治疗
一阵
所谓
这位
反应
语言
忽然
当年
以下
找到
青年
宣布
恢复
离开
困难
事件
哪里
实在
见到
装备
某些
其它
问道
万元
检察院
平原
经营
多年
往往
苏联
广场
解释
因素
队伍
教授
医院
怎样
男人
双方
减少
考生
当地
多种
经常
各地
生物
平方千米
南京
海军
外交部
真是
心想
外国
财产
全市
本来
两种
有效
尤其
一边
用户
方案
进攻
常委会
机械
参与
充分
从事
尽管
特殊
又称
一块
手段
生命
銆
便是
体育
居民
天安门广场
生长
内部
立即
简单
一片
全国人大常委会
数量
有时
开展
文学
进来
决议
显示
属于
也许
中国共产党
气候
一只
来自
还要
相信
确定
投入
一面
普通
看着
公元
去年
文章
手中
心理
女儿
封建
图片
创造
总统
促进
大型
带来
教师
竟然
较大
看来
若干
反映
每个
每天
食品
坐在
文明
相当
变成
资金
放在
毫米
中间
夫人
相对
大陆
职权
西方
不再
第一次
导致
对方
应当
人民法院
讨论
即使
金融
爱国
证明
制造
构成
老师
担任
区域
一座
殑
院长
计算机
家里
错误
曾经
保障
天安门城楼
创作
强调
连续
运输
看看
分钟
主张
商业
高速
有限公司
真的
只能
天下
贸易
不得
境内
体制
因而
例如
财政
肯定
成绩
一件
音乐
建成
回去
难道
接着
正确
现代化
石首市
以为
处于
大臣
高度
复杂
社区
身子
回到
媒体
俄罗斯
地面
分子
总是
意思
东北
销售
弟子
未来
等等
重视
压力
良好
到底
各个
最终
战斗
航空
之下
一级
里面
数学
全国人民代表大会常务委员会
毕业
竞争
宗教
比例
健康
适应
她们
出版
故事
责任
面对
将军
粮食
政权
各国
鐨
类型
发挥
听说
遗址
南北
立刻
亚洲
正常
女子
培养
就业
大小
秘书长
明确
优势
好像
一场
至少
人士
晚上
特征
确实
贡献
实验
高级
想到
关键
一眼
周围
难以
样子
本报
帝国主义
自治州
一张
相互
是不是
部长
身边
广州
三年
之外
蒙古
发出
只有
比如
理解
刚才
不足
南部
程序
加上
西北
父母
一中
适当
留下
李自成
研制
省级
发达
东部
全国人大
品种
愿意
道路
类似
空军
行使
细胞
空间
形势
西部
小说
妇女
股份
维护
公布
名称
只好
检查
化学
任期
儿童
矛盾
本身
规划
状况
一家
实践
成长
需求
分配
多次
一致
西南
一时
既然
贵族
高兴
全体
美元
统计
事务
体现
名字
不了
产量
始终
最近
长安
英雄
从此
同意
一步
海拔
掌握
普遍
宜昌
招生
攻击
天然
不错
亲自
一旦
相应
观点
实力
中部
听到
再次
更是
突出
全球
条例
人大代表
公元前
经历
进步
上述
抗日
绝对
修改
优秀
至于
河流
发动
审议
计算
数据
关注
女性
职工
资本主义
必要
朝廷
不肯
表明
委员长
主持
常常
遇到
在于
消费
欢迎
想起
日子
条约
协议
公开
行政区划
限制
现实
武昌
强烈
早已
的话
衣服
太阳
河南
广大
正在
胖子
很快
态度
不好
交流
万吨
前面
森林
显然
有所
闯王
一部分
撤销
千米
破坏
双手
江南
阅读
上面
工资
纷纷
北部
种类
无论
深入
推进
石油
进去
地上
效果
团体
倘若
年轻
核心
电影
纺织
形象
果然
意识
常务
垸
显得
规律
平等
山东
加工
只是
洪山区
两侧
列为
加入
大部分
解放
新华社
逐步
担心
下降
电视
表面
工具
第三
网站
制作
设施
天津
成果
各项
预算
寡头
紧张
手机
令狐冲
一系列
势力
记载
外交
搜狐
众多
一把
年底
文物
宣传
日常
检察长
一名
高中
严格
令人
不管
领导人
满足
推动
下午
地下
昨天
随后
认真
大声
生于
成员
明代
创新
不久
遭到
培训
持续
数字
游客
试验
阶级
似的
发射
文字
天门
来看
城楼
公园
空中
软件
习惯
事实
地球
浠
一半
刚刚
手里
武装
不但
任免
张居正
不想
意大利
距离
永远
年间
互相
人大常委会
一段
妻子
妈妈
眼前
元年
对象
听见
四个
变得
彻底
毕竟
快速
朝鲜
失败
临时
一批
利润
多数
那时
路线
其余
划分
唯一
坦克
尚书
概念
来源
充满
降低
四大
慢慢
老人
符合
发布会
小姐
哲学
轻轻
北平
老板
这件
同学
校名
山地
美军
那种
办公室
率领
录取
矿产
当下
别的
咨询
小龙
几天
伸手
五年
各自
自身
判断
哥哥
失去
危机
后面
配合
大事
增强
卫生
金属
成本
文件
加以
丈夫
必然
财富
首都
此后
购买
东南
公共
医生
素质
打击
改善
生态
广东
人生
一带
改为
方针
红色
承认
英语
象征
少数
设置
爆发
飞行
具备
学者
否则
对外
性命
故道
疾病
随即
不禁
大明
百姓
缺乏
院校
功夫
成分
伟大
投票
闭会
完整
机制
起义
几年
国民经济
打开
屽
村委会
考察
皇城
答应
演出
相比
最早
观念
营养
运用
行者
职务
本人
面临
第一个
吸收
流通
现场
协调
抓住
海洋
对手
承担
交易
原料
自治县
邓小平
是从
针对
外面
争取
发育
桃花
事物
风险
奴隶
少年
召集
叫做
推出
教学
鏄
作者
化工
论坛
出席
贷款
东方
再也
理想
游行
究竟
下面
危险
年均
上来
平衡
清代
大规模
寻找
非洲
和尚
不必
兴趣
温度
团结
转移
国民
省长
患者
机器
中共中央
病人
宝玉
威胁
而言
两次
奇怪
相反
厘米
估计
情绪
密切
出发
招聘
一道
大学生
传播
合理
民间
主人
点头
大约
长江大桥
依据
放心
国外
江夏区
北方
厉害
本行政区域
改造
明朝
固定
太监
停止
移动
一支
强大
秘密
前提
避免
休息
街道
高校
推荐
夏天
伊朗
产值
并非
模式
年龄
性能
演习
感情
审判
维持
费用
志愿
太庙
客户
尚未
已有
极大
适合
王朝
一页
校长
一口
更新
这儿
首次
宫廷
整体
自治
四川
区别
资产阶级
及时
地方性
门外
左手
风格
巴黎
江陵
早期
员工
上升
版本
成熟
几句
南方
涉及
两年
空气
国防
旁边
操作
药物
近年来
负责人
方便
全身
门口
候选人
有点
不在
局面
银子
突破
由此
建造
各类
士兵
一份
康熙
两位
转化
议会
开发区
槸
心情
回头
帝国
十年
县级
独特
湖南
公斤
依然
微笑
标志
棉花
战士
十堰
大多数
规范
平台
成就
升级
新型
交换
拒绝
证券
大人
合同
直播
日期
战场
高考
统治者
喝道
崇祯
股权
渐渐
军警
明清
一番
废除
走向
从来
反而
平时
多个
举办
算是
简称
装置
公主
此次
沿海
痛苦
重庆
加速
不行
主动
损失
转变
共产党
市民
杩
之上
平方公里
劳动力
发行
接近
备案
重建
一生
医疗
使得
国有
湖泊
加快
审查
生存
评价
规则
记录
澶
工厂
脸色
累计
大大
祖国
阳光
右手
时刻
著作
客人
以外
医学
给予
原始
学科
典型
仪式
电脑
上去
医药
满意
到处
做法
立场
害怕
进口
补充
运行
北京市
地址
支付
资格
优良
日军
韩国
国家级
博士
传说
少数民族
居住
采访
目光
食物
动力
占领
另一方面
防止
太太
土壤
异常
依照
作家
民族乡
行情
恐怕
某种
人马
接触
总结
有着
动作
种种
幸福
背景
原种
江苏
死亡
理由
部署
集体
大概
同一
毕业生
至今
年纪
人体
武当山
国王
年度
观察
吸引
所说
做出
手术
案件
道理
全年
初步
解放军
最佳
小学
总人口
相似
大桥
极为
仅仅
可惜
总额
男子
博物馆
签订
不由得
此刻
很少
原理
点亮
引用
明天
高原
大门
关心
等于
邀请
转身
授予
陆军
两者
水产
一大
允许
角度
大多
早就
上级
资产
赶快
道德
黄河
剩下
眼见
改进
说法
春秋
电力
亿美元
值得
海上
真实
职能
改称
吩咐
学术
品牌
交给
科研
低声
分类
季节
一会儿
上市
系列
回家
日益
色彩
房子
河北
微微
设有
放弃
之所以
一会
冠军
居然
此事
万亩
选民
坚决
研究所
远远
同年
打算
登时
依靠
皇后
协会
这场
适用
谈判
消费者
云南
队员
中共
太子
通知
当即
个别
仿佛
仙桃
命运
小组
基金
永乐
到达
颜色
不得不
头发
三峡
投降
第四
分享
陕西
十堰市
上午
表演
访问
黄金
地图
而已
种植
建国
一股
动手
吃饭
荆州市
华北
有利于
保存
走出
罗马
周恩来
消失
抗战
网页
再说
追求
大哥
露出
卫星
动态
熟悉
取消
人均
今后
流行
取出
合法
竴
趋势
地势
本次
用来
美丽
过渡
屾
第二次
深刻
向前
繁殖
风味
浙江
奶奶
地质
每次
这般
小子
犯罪
午门
老婆
表达
家长
等待
通信
仔细
最初
遗产
老百姓
八年
头上
鱼类
要是
听取
一部
风景
鍙
将领
联合国
衙门
批评
侵略
人民币
结婚
正义
所在地
社稷
后者
门前
前进
提名
决策
爹爹
初期
官兵
顺利
一方面
最为
公众
袁承志
首页
高速公路
包含
演员
礼部
秩序
自动
根据地
鍦
称号
雷达
广告
含量
编制
客观
股票
更为
贯彻
一路
只得
合并
秘书
当选
前来
游戏
注重
两岸
议案
激烈
一类
太后
港口
主意
多么
文艺
据说
模型
埃及
西班牙
银鱼
主管
潜艇
药品
反复
或是
航线
大军
荣誉
观众
一项
无人
刺激
未必
前后
自然保护区
黄冈
申请
摇头
宋江
最新
宜昌市
含有
大师
笔架
本科
主体
绿色
哪些
得名
忍不住
一套
防御
气温
不用
商人
有限
中原
流域
大清
红军
热情
将来
自我
人工
蒋介石
山区
各部
味道
想着
杭州
制成
推广
深圳
片刻
立法
途径
公安
屼
所在
好吃
笉
次数
省内
诗人
享受
积累
科学家
流动
四周
战役
授权
没想到
一招
一根
其次
成都
一齐
预计
享有
地处
治理
课程
暂时
皮肤
一层
经理
马克思主义
发明
白色
战术
事实上
县长
执政
对付
江湖
君主
出于
姐姐
走进
万公顷
内阁
出身
党中央
冲突
排列
战国
骑兵
夫妇
军人
少女
袁世凯
全世界
太平洋
显著
之际
投诉
报纸
婚姻
校园
人人
落后
基本上
物理
黄石
就算
长沙
商量
路上
只怕
不许
激动
大街
山西
古老
政协
读者
企图
工艺
污染
能量
身份
声明
做到
协定
大典
纪念
这话
总面积
现有
养殖
主题
新疆
海外
伊拉克
简介
扩展
准确
到来
汉白玉
盆地
地震
正好
降水量
天气
四年
联盟
一度
探索
富有
不够
函数
主力
即将
图案
胡秉宸
万岁
面试
中华民族
好好
学会
保险
学位
指示
王国
信心
储量
眼泪
要素
俄国
调节
情形
感受
气氛
呼吸
半天
李鸿章
修建
供应
挑战
建有
钢铁
气体
组合
爱情
自主
丝毫
佸
赶紧
地带
抵触
提醒
紧急
透露
参考
西藏
佛教
江西
洞庭湖
坐下
测量
进程
延伸
文化大革命
十五
发动机
热带
禁止
继承
有力
第二天
领袖
西安
兴奋
循环
资本家
武昌区
事项
沟通
近代
初中
表决
友好
可见
两只
做好
希腊
总数
足够
男性
常见
形态
想法
后期
大叫
无不
讲话
连接
收费
提到
差不多
截止
症状
吴三桂
记得
检察
东京
哊
颁布
高新技术
几次
详细
前往
返回
司法
大力
优质
开国
怀疑
战斗机
酒店
与其
性格
影片
不如
大批
快乐
手指
司令
总量
提升
码头
总体
构造
最高人民法院
场所
网上
朱元璋
一回
看法
房间
不让
说完
毫无
顺治
黑暗
职位
丘陵
自从
随时
之类
临床
之内
正门
政党
任职
指标
留在
悠久
更好
董事会
市区
县市
爸爸
兵力
总产值
辐射
杂志
确立
光绪
总督
中华
保留
测试
效率
相继
私人
变革
小心
局部
沉重
景点
谈话
乾隆
木材
中央人民政府
所属
当前
予以
最低
合适
当真
此人
镇压
灵魂
扩张
分裂
选手
两天
主义
生气
鈥
江泽民
将士
出售
结论
密度
忘记
曹操
轨道
一对
无数
个体
李高成
姑姑
决心
高手
草原
出入
信号
受伤
无产阶级
品德
教主
一遍
伸出
老爷
上涨
共和国
像是
迎接
尊重
安装
腐败
引进
不论
把握
鼓励
人群
搜索
最高人民检察院
随州
专题
差别
外资
千万
有没有
依法
地点
命名
国家机关
简直
始建
何况
慈禧
有机
较为
被迫
读书
各省
行政区
倾向
领土
有权
英文
战胜
频率
布局
病毒
传来
生成
黑色
一处
言语
输出
军阀
一下子
荷兰
怎么样
黄石市
洛阳
想象
二年
在内
就要
特产
陛下
周期
自行
科学技术
鍚
军官
实验室
岗位
城乡
办事
沉默
退出
宇宙
法院
当中
指数
分离
诏书
鍒
单独
剩余价值
原子
如同
工作人员
消除
马上
照片
意味着
一顿
接待
鄂西
竟是
组成部分
胸口
民政
牺牲
选出
婆婆
文库
流通股
身后
布置
一身
有利
嘉靖
他人
描述
与此同时
混合
原有
顿时
感染
障碍
桌上
一日
神色
签署
基督教
收拾
大厅
加大
占有
故意
下岗
唐代
院子
亚热带
合成
脑袋
城里
代替
五一
历代
两条
般的
常用
正阳门
不见
排名
目录
示威
询问
伦敦
长老
同事
哪儿
住房
球队
分成
半个
反抗
反动
旅行社
能源
转过
批判
昨日
冷笑
得以
思维
好处
那天
落实
为何
思考
攻关
夫妻
遭受
教训
适宜
大夫
展示
武林
门户
三分
投资者
千步
意外
愤怒
差异
深处
起身
城镇
当局
沙漠
指着
提前
郧阳
紧紧
青岛
消灭
见面
评论
效益
节目
赋予
懂得
水中
只不过
物资
正当
内地
宫女
尽量
福建
戏剧
转向
一门
土司
孙中山
策略
中期
体内
以便
反正
彼此
急忙
夺取
普查
江汉平原
引导
创办
尸体
麋鹿
局长
照顾
暗暗
模样
口味
城门
如下
抗日战争
无疑
陆续
荆门
妹妹
林区
请求
不变
兴建
主持人
说出
日前
城内
上下
争夺
办理
汉子
名叫
耳朵
施工
释放
得知
水面
同比
的确
乡村
人力
发起
鍏
高等
开辟
口径
明星
通道
主权
大都
战机
凡是
群岛
老子
车程
防空
刑部
鎴
效应
既有
黄色
义和团
宫殿
神农架
联赛
没什么
侦察
一方
神秘
走上
京城
前者
导演
节日
鏉
服从
官军
官吏
一代
国土
孝感
以北
低于
整顿
蛋白质
示范区
经典
考研
考核
又名
当初
脚步
棋盘
光荣
阿哥
南海
陈家洛
季度
蔬菜
连忙
也好
黑鱼
内心
繁荣
下令
印象
历来
缓缓
覆盖
爷爷
鱼肚
会上
上年
即便
不免
权威
进士
庄严
长剑
全都
聪明
加拿大
中华人民共和国中央军事委员会
特定
围绕
本质
小小的
义务
逻辑
麻烦
平面
床上
论述
航海
随便
一个个
一颗
北京大学
澳大利亚
线路
代码
表情
剅
精彩
桌子
南京市
诞生
收购
课题
河道
足球
以色列
意志
旅游区
种子
概况
一群
不停
万美元
回族
瞧瞧
正要
生产力
近日
仅次于
想要
当日
不下
舞蹈
中国队
声响
干涉
汉族
岩石
入侵
辛亥革命
双眼
职司
总部
不住
并未
沿革
派出
热闹
进展
为首
部落
翻译
创建
巩固
预防
形状
所长
祭祀
便宜
改名
预测
各位
等级
相连
眼光
取代
海藻
东汉
宣告
汉口
评为
混乱
列入
嘴里
名牌
极其
庆典
支援
老太太
太空
基层
爆炸
王琦瑶
神经
更名
深深
业绩
大致
天地
信任
冲击
基因
玻璃
部位
场合
平方米
遵守
人选
舞台
满脸
出生
打破
轻松
参观
万平方米
委托
悬挂
师傅
研发
局势
任命
赶到
步兵
确保
市委
带有
热烈
神情
三级
光华
南路
学说
航运
血液
依次
精品
俱乐部
图册
城墙
损害
鲜血
李莫愁
石头
平日
集合
以往
剑法
水力
缺少
侍卫
全长
兴起
可怕
理性
共和
负担
那儿
代理
平静
特性
直升机
知识分子
频繁
州长
手臂
话题
人间
不良
每日
会见
手上
日月
配套
生产总值
不该
号称
街头
拿出
一口气
这时候
维生素
整理
边缘
深度
城中
屋里
为止
大气
姓名
眼下
原本
宋代
年轻人
观看
却说
推行
漂亮
通往
对待
广播
携带
画家
公告
那位
家族
帝王
本地
法制
一副
一头
负责制
明日
元素
法庭
说不定
山脉
视为
侵略者
澳门
聚集
车辆
支配
上海市
信仰
炮弹
可怜
相当于
陷入
前辈
面向
大米
无比
渔业
经费
清朝
总经理
省直
带领
关闭
回国
抬头
沿岸
请愿
情报
国内外
摆脱
外贸
承诺
藏族
两名
事儿
手法
送到
宫中
绘画
利害
心头
装甲
贫困
不满
纤维
世上
亲兵
伊斯兰教
湖南省
街上
何必
服装
火箭
论文
哪个
射击
江夏
党员
协助
媳妇
那边
房屋
器官
角色
东湖
抵抗
哈哈
安徽
二级
省委
不幸
增加值
恩施
通用
五个
工匠
干净
改建
水系
阿拉伯
十八年
当作
天天
当今
渠道
遭遇
我军
视频
古墓
接过
达成
什么样
天空
岃
或许
才能
中外
名城
市场经济
管辖
子女
扩建
能否
马朝旭
采购
个个
职责
兵刃
议事
首领
感动
舰队
鱼苗
光芒
老者
封锁
食用
可用
疼痛
买卖
尽快
选拔
武装力量
舆论
人为
南京长江大桥
重复
回过
大学士
欣赏
律师
号召
行省
名单
定义
收到
财务
一辈子
不利
景观
十五年
宣言
莫斯科
研究生
经济特区
边界
比重
互联网
人民公社
政治部
总裁
群体
阵地
一个月
内外
内战
强度
免费
启动
登记
脖子
十三
点点头
司令部
美术
孝感市
立时
复习
奠定
公子
地形
对抗
技艺
树立
黄冈市
匾额
增多
自觉
递增
伤害
杀人
演变
指挥部
屋子
皇家
民众
船舶
乃是
代表团
生理
查看
力度
鼻子
出土
其间
危害
上游
列车
截至
基于
呈现
过于
领先
军民
时机
球员
情景
工部
测定
物体
野生
事故
后果
高于
健全
兵团
封闭
胡同
决赛
变动
治安
一双
犯人
背上
差距
紫禁城
纽约
微软
肿瘤
低头
建筑群
答案
中文
月份
刘备
火山
蒙古族
权益
桥梁
正中
鍑
初级
官方
弟兄
提议
添加
全党
风光
信用
家中
抑制
施行
第二次世界大战
地主
饮食
开创
大国
大将
胪
边境
几种
境界
晶体
等候
高大
罢了
肚子
打倒
自成
五代
瀹
辖区
名额
旁人
睡觉
商议
肌肉
这方面
层次
各人
广西
此处
推翻
半晌
模拟
毫不
支柱
收益
不顾
周边
玉米
奴才
传递
次日
生意
波斯
精华
出门
占据
口号
南非
年初
公社
华表
张无忌
诊断
名片
感谢
标语
善于
必定
景区
脱离
万平方公里
何处
老人家
团长
化石
文献
师兄
输入
会谈
指定
沿着
引发
无限
眼里
顾问
开封
各界
丧失
敏感
生效
穷人
草案
新鲜
证书
抬起
运动员
锻炼
体验
队长
垄断
八戒
称之为
履行
工商
城外
小麦
直径
奋斗
西北部
道教
化合物
单纯
送给
千克
正面
维修
议论
警察
宏观
名义
一一
参数
统帅
区长
格局
一手
教练
钱谦益
万历
古城
合格
娱乐
用力
前景
垜
天子
一夜
土家族
依赖
鏃
少林
艰难
上前
变为
海底
行政区域
佳肴
动员
大地
派遣
直至
缁
党委
大体
适才
预期
不易
大队
世界杯
招呼
难得
不难
丫头
南湖
小型
江汉
不算
手续
严肃
定位
流传
当代
东南亚
转换
总司令
提起
清政府
湁
非法
公平
淡水鱼
苏州
袭击
看出
总产量
愿望
打死
数目
院士
花岗岩
小人
父子
跪下
黄宗羲
火炮
两边
产卵
十四
网友
六年
固然
勫
装饰
西汉
两代
中等
外界
汉人
海峡
产物
巴西
活跃
思路
打听
水泥
交往
环节
会长
弟弟
怎地
画像
王爷
八国联军
持有
被捕
海岸
半年
说起
阻止
一行
力学
十大
多半
头顶
仍旧
历时
湪
口中
岛屿
煤炭
当天
精细
南阳
身旁
披露
击败
庆祝
心思
情感
伙伴
大幅
汉语
证实
单行
同期
重量
待遇
生涯
鄂州
不怕
以南
例子
包围
諲
咸宁
报名
温暖
激素
联邦
赛季
婴儿
模范
房地产
收集
清晰
制约
受命
事先
场面
殖民地
客运
壮丽
规矩
棺材
紧密
半点
去世
检验
海水
配置
小孩
杀死
北京城
报考
瑞士
沔
现行
庞大
智慧
人口数
以致
冬季
北大
远处
发掘
建制
贡献者
下游
和谐
王公
哈哈大笑
黄州
匆匆
收回
繖
记忆
波兰
鱼种
农产品
可能性
安陆
概览
白雪
讲究
防守
民国
兵器
工程师
诉讼
确认
创立
团子
往来
感激
无奈
援助
本事
河口
脚下
一律
保卫
暗中
征服
注入
深受
技巧
汇报
品质
墙上
诗歌
风景区
主席团
不料
干扰
脾气
长城
北纬
广阔
登上
内力
大为
誉为
溶液
短期
高峰
丐帮
旅客
中华门
燃烧
鄂州市
仙桃市
协商
荆门市
凭借
分支
图书馆
木工
核武器
垂直
屈家岭
对面
一刀
冰川
垱
碰到
观测
压迫
可靠
家伙
怀里
描写
菩萨
咸宁市
节度使
经济学
齐声
满洲
现存
命题
必备
百年
长度
增大
相等
华山
大胆
越是
湖北省人民政府
西晋
勇气
山上
汉江
匈奴
天鹅洲
综合性
极端
亿立方米
用作
周年
物品
越南
不安
个性
写作
制品
可谓
各族
伤口
创业
甘肃
鍐
悄悄
时辰
一体
祖先
作业
文武
作风
大众
据悉
大殿
发言
手工业
每当
海域
防治
鲜明
半岛
孤立
简历
雕刻
石英
要说
设想
大西洋
欧盟
从未
付出
城区
总之
省会
精美
难度
零部件
高温
涌现
登陆
气象
缓慢
违反
天主教
欧阳锋
眼中
本月
水果
鎵
今晚
姊妹
完美
椅子
第二个
纠正
打败
鲁迅
拆除
减轻
得罪
水利
起源
粒子
重伤
冶金
前去
支撑
造型
全国政协
县城
山水
提问
穴道
友谊
流量
满族
这项
不及
大使
长大
以至
地貌
金殿
三天
枢纽
浑身
精力
茶叶
依旧
国务委员
知名
万一
想想
人民解放军
夏季
泰国
登基
纳入
侍郎
接到
本市
终身
一向
夜晚
沈阳
液体
特有
勉强
生产资料
证据
额外
屋顶
眼看
强化
试图
故里
次年
货物
长安街
不妨
方言
用人
纲领
转头
航班
离子
航母
周伯通
积极性
斯巴达
美好
轻易
会计
克服
通讯
黑龙江
有趣
火车
目的地
元代
地域
手掌
有益
这份
题材
安慰
浏览
出手
进城
一本
开口
农作物
设在
一杯
拿到
认定
力气
恐怖
增添
岛上
一幅
促使
全境
学历
否定
夜里
承受
粬
政治家
白天
笑容
司机
未能
回顾
得意
武士
组建
这天
莲子
中午
明永乐
女士
国会
借口
视察
计划生育
以此
何以
清醒
面貌
首辅
出征
消化
灵活
利率
师哥
幅度
户部
每人
汉奸
不能不
人心
已然
皇宫
尚无
教材
先前
平安
旧址
主导
喝酒
展览
水质
穿过
耕地
驻地
利息
勇敢
正文
英勇
高潮
对话
侵入
分散
分泌
学派
就此
注册
也就是说
尴尬
解放区
过分
龙头
仪器
至此
菱花
三层
本国
内蒙古
深化
论证
几何
支出
腹部
营销
同胞
检测
三种
春天
制订
手下
昆明
沿用
笑脸
评估
中纺
别说
口气
客气
连连
三月
定律
实用
济南
齐全
义军
开采
北宋
可不
水运
犹如
声道
生死
心灵
欢喜
答复
位居
兑换
中方
二十
回忆
增设
揭露
綘
新加坡
黄金周
故乡
立法权
罕见
起到
三次
机动
江北
洪承畴
致使
开通
阴谋
调动
处处
实质
叙述
咖啡
活着
刘宗敏
燕京
疯狂
一线
夜间
发放
肩头
零售
两座
十二
少将
恰好
无论如何
逮捕
颁发
珍贵
美洲
曲折
联想
迫使
融合
女孩
第五
体积
笅
定期
期限
用以
伤心
代表大会
电信
从不
外汇
亲王
前期
技能
日后
民事
洪水
逝世
公务员
残酷
绝不
名贵
延安
支流
林彪
中毒
动静
新生
服役
船长
营造
神话
脑子
村里
琉璃瓦
假定
几位
气息
清兵
人身
用途
八月
本领
瞬间
昔日
晓得
历任
民用
进而
湖广
透明
里程
舰艇
延续
浓厚
看作
书写
任何人
探讨
晚期
矿物
一流
填报
成人
顾客
卖国贼
教堂
最小
西域
分解
县委
心态
偶尔
公正
几十年
大业
名胜古迹
向来
对外开放
旗帜
国民政府
征集
看上去
概括
寻求
植被
船上
发达国家
喜爱
外部
特种
五月
方才
鸡蛋
分化
文书
风波
傛
膨胀
莫非
温和
师妹
终究
宗旨
理会
不觉
信息化
凤凰
华夏
嶅
民族自治
占地
缩小
从业
围墙
孩儿
某个
硕士
下级
全军
军区
变更
辅助
沉吟
航天
一小
奥地利
瑞典
西周
说来
辛勤
两类
处长
政务
福临
西南部
高等教育
假如
补偿
认得
金银
含义
监察
细节
主场
人事
心脏
李大钊
上班
争论
就让
平常
洪湖
威力
完毕
激光
税收
米粉
古建筑
泪水
联合会
逃走
得出
苹果
死刑
议员
面子
兵部
便于
人造
星期
阐述
中叶
分流
念头
挣扎
中国人民解放军
几步
突击
湿润
全民
鐪
前线
情节
扬州
期望
反击
多家
盛产
三藏
玉石
绝大多数
航行
剥削
好生
惊人
昆虫
罢工
阐明
丞相
篘
元大都
一派
杰出
章程
黄陂
出台
古怪
拍摄
自信
资助
停留
党内
灯光
空前
精确
行事
少量
固体
大笑
排除
水深
偶然
消耗
近来
两院制
从前
竞争力
苗族
闻名
乃至
帮主
极了
司令员
旋转
每月
国防部
笔架山
获取
转让
随意
打电话
明明
法定
十八
杜甫
求职
随州市
头脑
故宫
时分
优点
开会
乡长
墨西哥
文理学院
寻思
高级中学
八个
巡抚
一封
脂肪
东南部
勬
台上
对立
细菌
胡子
集团公司
早晨
罢免
锅巴
须弥座
通航
高出
不远
天门市
见于
清军
金额
花园
不宜
干脆
格外
考验
地中海
审计长
尊严
春节
通车
应付
六个
夺得
药材
代价
园林
干燥
有助于
池河
干线
老头
近期
偏偏
区分
堝
太原
河床
不准
失业
作物
助理
呼吁
尖椒
普及
珍稀
名为
拉开
暴露
穆斯林
侵犯
后勤
戏曲
摄影
造反
原名
安定
乡镇
古迹
自然资源
道人
激情
辞职
电视台
身材
发作
大片
有意
板块
潜力
处罚
必需
南宋
图库
答道
东经
古人
商城
回归
干什么
桂林
长官
真理
跟随
雅典
大别山
心理学
长方形
所知
不然
放松
生动
畅销
社会学
内河
血管
顺序
二者
天堂
推开
无力
储备
免疫
前途
武力
谈到
身穿
河南省
产业化
反革命
见长
财物
严厉
出色
切实
柏林
氧化
沉积
市政府
射线
流入
道士
鏂
天上
再度
劳动者
吏部
彩绘
有名
苏维埃
亲戚
从小
分明
提倡
身分
通行
阶层
战后
地租
损伤
王府
设法
字形
矿山
专制
战线
胳膊
饭店
可不是
嘴唇
运作
寻常
探明
收藏
佩服
古典
地下水
奥运会
法学
中轴线
掏出
整整
东侧
此前
严峻
主峰
坚定
水流
燃料
现状
着手
行走
炸弹
出任
大战
巴基斯坦
弯曲
相见
群雄
联络
欧元
签字
一分
怀中
政变
有时候
瀑布
军马
华中
咳嗽
水晶
符号
辉煌
失望
遗传
丁能通
博览会
稳步
中国政府
印刷
泊位
纪录
阴阳
新月
移民
限度
官家
恐惧
西边
几下
延长
已知
日报
赶来
二十年
充足
替代
浓郁
外地
擅长
热点
老营
鉴定
本书
好汉
江山
光辉
当场
纪律
遵循
青少年
御道
抗议
探测
谴责
跟踪
干旱
气势
辛苦
面粉
题目
宋献策
汇率
高层
光明
景象
军方
前列
向往
天然气
好事
战斗力
期待
修缮
光学
各校
家乡
精心
四月
总会
总队
教育部
赢得
多久
新兴
粉碎
超越
即位
国师
理工学院
营业
违法
半数
在校
均匀
失误
尚有
手腕
村民
竞赛
受理
省份
磕头
隐藏
摇摇头
早上
湴
一间
同盟
如是
政委
盛行
随之
隧道
利润率
叶子
契丹
征求
栽培
浮雕
灌溉
特权
道具
优先
审计
屁股
理念
省区
记住
旅游业
下属
贵州
高山
世人
主编
操纵
首席
以免
预付
安静
火力
起点
一剑
例外
常规
致力
高低
官府
惊讶
盈盈
神龙
纵然
肠子
人民大会堂
会员
我会
肩膀
风暴
回事
忽视
指点
激发
缔结
住宅
冬天
开拓
梦想
湿地
三面
型号
愉快
鐗
后代
狮子
猛地
鍔
使命
师范学院
特务
纠纷
考古
股市
举动
犹豫
董事
起义军
少林寺
工人阶级
供奉
尝试
牙齿
电台
难免
体重
余种
外语
密集
执法
掀起
一丝
图书
大海
水库
报仇
中山公园
九年
子口
小弟
百万
十六
厂商
合乎
孔明
牛肉
自杀
骑马
崇拜
机遇
转入
低下
判决
物理学
鍗
县级市
土耳其
外长
描绘
途中
荆江
门下
一体化
两面
开来
来不及
顺着
名词
培育
新增
俗称
汉阳
专线
供给
如果说
对比
苏维埃政府
两地
球迷
窗口
六部
军舰
节奏
黄依依
变量
师长
档案
专利
响应
点滴
上帝
从中
加重
国徽
夊
认证
运河
先锋
军中
对此
徒弟
一笔
奖励
横贯
傗
内功
优惠
分工
商务
四下
垃圾
山坡
总算
打仗
步伐
避开
工程学院
赞成
一辆
全力
危急
多尔衮
小声
级别
黄土
不成
出版社
指责
法子
中东
办事处
应有
公式
军师
消费品
分数
在外
收获
武松
磁场
建筑业
水陆
灭亡
禀报
遗憾
分开
寿命
专政
死去
音乐堂
军士
史料
警告
一篇
搞笑
白嘉轩
过度
下载
召见
李逵
漫长
窗外
第一次世界大战
一刻
方程
笔者
两届
源于
习俗
固定资产
想不到
疲劳
考证
难题
建筑物
魦
坚强
墨镜
惩罚
激起
乐器
倾斜
国旗
监管
舒服
隐隐
升高
国防委员会
深远
算了
过年
刊物
间接
一再
亏损
岳不群
船只
西欧
主观
传入
成效
艰苦
高效
出名
带动
底下
沙市
深厚
神仙
追赶
上司
俘虏
早年
结成
致富
部类
刺史
种族
脚本
一团
不仅仅
亿吨
发展中国家
当事人
浪费
回报
抱住
先行
约束
不同于
所用
旅行
直到
谨慎
自带
艾滋病
试点
太康
廷杖
打扮
洪七公
西侧
河谷
超出
三位
办学
地铁
自有
这部
不等
娘子
解除
部属
子弹
弹性
日历
北约
石破天
背后
称赞
年份
渴望
演奏
高呼
大汉
弹药
混凝土
热量
金钱
下达
洪山
起伏
射程
配备
首脑
我家
精神文明
中山
创建者
火车站
这会儿
乘机
内陆
十一
削弱
县政府
来回
上马
书法
休闲
娃娃
座谈会
军用
太平
好看
常委
礼物
名人
嗗
法令
福利
识别
响起
引入
杀害
李太后
研究员
缓解
五分
日志
策划
陆地
隶属
飞行员
始于
工业化
水稻
经济效益
华中科技大学
小小
革新
必读
求知
中药
代表作
争议
大局
辽东
一脚
亲切
嘴巴
总书记
五间
几分
叔叔
变迁
团队
多名
孔子
学士
骨干
冷静
容量
活力
通称
鲜花
元朝
先是
全会
申报
绝大部分
内涵
反射
太和殿
甘泉
那末
中华人民共和国宪法
是非
陕西省
饲养
信奉
清洁
长江流域
除非
一碗
下辖
妇人
祖宗
一八
后世
师弟
模糊
比分
七年
地层
蓝色
辽宁
不便
保健
图像
尽可能
水下
相距
转动
预定
不小
云集
同情
天体
殿试
礼仪
随手
牌坊
独自
落下
四方
在场
奇特
接连
水域
谢谢
青春
人民日报
以东
对应
称呼
笑话
蛋白
电器
汽水
原先
接收
等到
组织法
下列
份额
剧烈
在线
处置
楼上
欢乐
科长
袁崇焕
谁知
两句
生怕
门洞
宽阔
山河
新华网
歌曲
生平
首位
中亚
招收
掌管
直隶
着重
豆腐
这块
万年
南岳
沼泽
褰
鎶
华侨
此间
装有
集会
万家
东风
优美
毛泽东思想
温带
激励
鄂东
以内
山谷
山顶
文华
震惊
鳙
优越
宝贝
拼命
退休
铁矿
户口
虽说
赔偿
一枚
不曾
取决
地步
嶆
白领
董事长
通衢
推送
死者
不已
两家
整齐
猛烈
造林
国民革命军
无线电
着急
第一批
遗迹
拍卖
整合
睡眠
诸葛亮
上层
强迫
曹汝霖
自称
各家
教会
家属
物价
老公
三国
上空
兘
兼备
庭长
老大
统一战线
自由人
行政公署
市辖区
影子
沔阳
私信
编辑者
防务
陶器
定为
看过
自治机关
莲蓬
不吃
刑事
运气
麻城
一点儿
首相
叫作
往前
清华
爆米花
睡着
同步
改装
皇太后
书籍
主流
拦截
珍品
淘汰
现已
共产国际
即可
喇嘛
对不起
打着
相差
红旗
绿化
进化
大展宏图
注视
神圣
进军
狭窄
镇长
印度洋
国情
比利时
省辖市
紧闭
送来
制止
菜系
二路
伤亡
子孙
有害
电流
人文
壁画
大爷
好象
状元
监利
闃
环保
悲剧
搜狗
时尚
竭力
诸多
下马
浓度
表态
豪华
东交民巷
便利
学院路
官职
匕首
只管
台阶
宝贵
走来
传媒
加紧
千年
极少
大伙儿
常设
油料
熷
运营
哪怕
幻想
潵
鄂南
向东
封建王朝
恩施市
月亮
清理
二月
同一个
晚年
债务
后人
很小
调控
鮠
专科
中医
大连
官僚
自幼
自行车
大于
大吃一惊
中小学
体会
四处
帽子
林业
重重
一同
免得
康有为
暗器
潜江市
芯片
这家
一贯
九曲回肠
五四运动
十月
火炬计划
瓙
眼神
奖金
审理
朱翊钧
温柔
王室
现金
病情
练习
叛乱
树木
生日
示范县
置于
共产主义
得分
撰写
灾难
中年
假设
制药
千公顷
小孩子
常有
烦恼
留学
诗文
万多亩
刘少奇
宛如
李鸿忠
监视
纵身
美食
腰间
艺术家
丹麦
南环路
原种场
气味
白沙洲
菲律宾
起飞
频道
体力
厨房
实习
恰恰
西夏
解开
进球
密码
桥头堡
自古
递给
中路
大赛
着实
中游
家务
欎
武艺
科举
伴随
康复
放到
料到
跟着
中央军事委员会
困境
小事
在家
火光
类别
反帝
强盗
揭示
易于
此举
交涉
鲜美
专用
大炮
躬身
鎯
亲人
人格
开支
张献忠
据此
氏族
菜肴
中南部
实事求是
担负
笑声
取胜
学府
手脚
拱手
接下来
恶劣
步枪
纵横
头部
心上
海南
清晨
诧异
顺便
淡水
理智
鱼雷
光泽
审判员
数学家
融资
一旁
中日
加热
单一
改编
暴力
管道
兼任
勋章
合金
惨案
所得
僧人
圆形
挥手
放开
月光
机枪
天府
度假
殖民
监测
一趟
学员
攻占
红墙
印尼
新建
翻身
乐园
嘱咐
招数
民兵
波动
移植
剥夺
变形
叹息
天色
心目
放入
机体
潮流
室内
维吾尔族
自此
魅力
两层
口袋
塑料
战友
姿态
汉中
变换
壮族
灰色
破产
笂
购物
一周
围攻
恒星
投产
振动
未免
沙滩
缺陷
美女
北上
学问
审核
拥护
钢琴
做饭
帮忙
惟一
药用
趋向
折磨
纯粹
一架
可爱
提示
时报
校区
获奖
远程
后悔
哈尔滨
抵达
鼓舞
不时
遇上
附属
驱逐
一倍
否认
尖锐
科学院
黑人
不尽
平行
敌军
面上
二次
产地
分歧
回避
天文
每周
不堪
奇迹
运营商
马克思
动机
扩散
该市
鹧鸪
不止
儒家
充当
公认
工会
师范
狠狠
真相
示范
连同
万立方米
下跌
世纪末
号码
安徽省
没法
监狱
航道
写下
南岸
撤退
王家
行人
重要性
主办
周刊
要紧
进出
严密
兀自
十个
厉声
赵志敬
万万
名胜区
届时
提请
村庄
相貌
缩短
墙壁
建于
资费
九月
揭开
儿女
公使
告别
处分
女孩子
安娜
审批
干预
直达
娘娘
汉代
山麓
传出
保全
半夜
多于
开门
春季
曲线
两旁
借助
公公
慢性
战区
模仿
农业部
流经
黄药师
画面
西门
诸如
清末
解放战争
进出口
一轮
嘿嘿
富人
昨晚
来源于
缘故
闂
一出
任教
游泳
部委
闄
阿根廷
势头
呼声
指望
降水
两步
封建社会
指南
正桥
焦点
走近
共产党员
委屈
李先念
海面
皇权
东亚
南端
服用
子弟
梅花
淮南
立方
经贸
花费
原材料
大理
完备
布朗
生育
赶上
发光
所有者
清宫
高尚
两院
倾听
堪称
男孩
自动化
东北部
为期
法西斯
跳槽
力求
涨幅
给出
落地
走廊
青青
首要
嫂子
工夫
江苏省
编写
从来不
优化
华盛顿
本土
追加
任意
倡导
参议院
外商
娌
股价
著称
语气
选区
鉴于
门人
学费
急性
性别
花生
青铜
代表性
小伙子
橡胶
浼
通商
两级
伯伯
公约
层面
灿烂
京师
储存
包袱
发病
圈子
座位
现今
鐢
阶级斗争
大盘
季风气候
成吉思汗
流派
特区
笼罩
糊涂
见识
车站
靠近
何等
外边
妹子
抱怨
第六次
赤壁
与会
明年
火烧
率先
全书
冲动
厦门
地表
孙权
宗室
站立
精度
金牌
专区
介质
南朝
吃惊
敢于
来往
电压
背心
都督
高声
岄
民主集中制
猛然
第一部
苏丹
适于
逃跑
华人
摧毁
阻拦
联名
一二
使者
小吃
交替
必将
收取
核潜艇
良久
金水河
北洋
相通
精巧
增长率
大哭
宰相
开设
叩头
大楼
工商业
眉头
寄托
挖掘
查询
煤矿
进深
岁月
巧妙
强制
收复
表决权
青海
五行
存储
智力
树上
上次
别处
度过
笔记本
被动
额头
万辆
二位
哲学家
壮大
环绕
规格
较量
对称
蜡烛
口子
牢牢
皇室
要么
吉祥
场景
山南
总长
日趋
火焰
纯收入
外来
工作者
统领
范畴
重组
高压
传奇
复合
广东省
提交
滃
老实
七月
东海
以西
何时
偅
功率
奴婢
流体
相公
中旬
制导
布政使
残疾人
清华大学
自然界
饮酒
中华人民共和国国务院
科目
统称
代谢
屠杀
忽略
空白
下手
冲破
参谋
向上
衡量
乡镇企业
完好
招待会
掌门
欲望
毛主席纪念堂
认可
锦标赛
中断
宿舍
水产品
河水
防范
阵容
隆重
可变资本
安置
打断
樻
出国
包裹
大王
张翠山
野蛮
亲信
打量
羊皮
不语
两湖
书画
手持
此地
相助
色素
预备
水分
汉字
闲暇
交付
交代
多谢
扮演
驾驶
包装
城北
秀丽
交谈
尺寸
痕迹
离去
南北朝
发觉
家人
心意
挑选
苦笑
霳
佹
使劲
厕所
战车
末年
村子
极力
汇集
迁都
仆人
升起
比如说
葫芦
图形
报上
轻轻地
房中
朱德
焦急
舌头
追究
修行
峡谷
怀着
江淮
清风
这边
黄昏
全新
琢磨
示意
经济学家
羊肉
走私
部下
周转
突厥
存款
宣读
害死
崩溃
巴勒斯坦
绝望
警惕
人性
制裁
剧本
推向
施展
明知
福州
象是
越发
过早
一匹
出面
叶大鹰
塑造
岂能
无声
治所
盈利
全然
台下
征收
界限
准则
审美
山洞
栖息
一事
全县
兼并
抽出
时常
第五次
诸侯
功力
没收
突发
落入
葡萄牙
谈论
传到
小姑娘
第三次
臣民
行李
那条
关节
婚礼
攻克
衣衫
该书
驻华
判处
宁夏
望去
嗭
邻近
饮料
名胜
四肢
总兵
散文
昼夜
胆子
违背
鹿角
名誉
商店
处境
家具
离婚
都城
限于
万千瓦
八路军
地级市
申诉
雕塑
其一
内存
尽力
年产
目睹
面包
关联
外表
烧烤
矿床
节约
一堆
不惜
匈牙利
和约
收缩
数额
无意
求助
亲眼
出路
左良玉
灯笼
疑问
研究院
上学
场上
督察
双目
径流量
这点
鍘
閮
三合
抵挡
挪威
李文秀
树种
节制
高血压
业余
第一届
中级
元帅
北美
宫灯
开工
政治权利
整天
中国科学院
列席
历经
小于
意图
游览
疑惑
通红
邮政
颤抖
鸟类
供养
办公
君王
弹道导弹
进门
孙子
日夜
杭天醉
直线
缅甸
各市
形容
通报
陈友谅
首府
六月
多样
指令
演练
热爱
趋于
写道
嗕
土家
应聘
点燃
畜牧业
习性
来访
简化
半导体
左侧
样式
清除
信念
听听
语音
长征
卖国
拓展
一心
全家
双拥
同等
名茶
唐僧
展现
挽救
杜鹃花
雄壮
雪山
一灯
大脑
拿下
沙发
珍珠
走过
迟疑
韩子奇
产区
决战
叫声
大败
宝剑
明成祖
势必
定向
建都
有如
相互作用
轰炸机
中世纪
仪仗
会同
传授
出动
反倒
后边
染料
海湾
陆无双
面条
决计
发电
启用
瞄准
花钱
评选
通向
一艘
上半场
传输
急于
想必
战乱
抵御
拳头
稳定性
缓和
老汉
胸前
顾秋水
冒险
尤为
广义
果实
海里
清江
湖水
生前
共产党人
劳务
山里
打发
看待
禁区
鏅
一来
围剿
带到
步骤
侗族
偷偷
奖惩
嶈
思索
组长
修订
到位
密布
找出
滋味
盲目
一则
上半年
忍受
成员国
抢救
提取
骨头
他妈的
大圣
天花
打工
执掌
核桃
虚假
遍布
面目
预先
上网
侵占
单个
生出
获胜
金花
一举
万物
字母
工农
恋爱
架子
红烧
遥远
一院制
公报
出自
制造业
君子
宁可
快步
梍
请教
不致
做成
剧院
协同
四面
埋伏
杨嗣昌
称帝
芦花
记述
更换
薄弱
发扬
猜测
皇位
耳边
防线
一拳
决不能
加剧
弥补
拦住
籗
联军
防护
姐妹
明亮
每逢
毒性
白衣
蜿蜒
四人帮
屈原
房县
旅游局
机械化
牛金星
篃
缺口
震动
上山
不一
尊敬
手足
方丈
无非
裁判
公务
兴国
叶莲子
平稳
文人
犲
立体
翌年
自家
骑士
下半年
大名
寒冷
江青
见解
词典
起初
阴影
三十年
专项
刘邦
县境
料想
晚会
犳
筹备
身影
高等学校
十一届三中全会
房里
火把
还原
入学率
改组
血腥
龙门
尽数
急剧
渗透
蕴藏
重修
仓库
对策
怀抱
抵制
江水
郑州
高举
合资
强盛
戝
束缚
纯碱
东北大学
南门
头领
字数
建材
晚饭
段祺瑞
傝
出境
带走
文集
条款
质地
不好意思
南昌
定居
攻势
来信
书房
夋
新港
无关
机电
繁华
老山
一品
下半场
中段
乐观
决不
向着
地理学
误解
难受
中华民国
了不起
全国性
出卖
唐朝
所致
拟定
机密
河北省
相传
连夜
一首
主演
人民英雄纪念碑
国防部长
用品
邓小平理论
顺手
不服
化肥
号令
同义词
圆满
想来
救国
新城
硬件
纯属
远离
增产
我校
斯大林
耐心
富裕
无色
未曾
游击队
重檐
鍜
实物
控股
框架
英格兰
不明
京剧
兵马
染色体
约定
荒漠
长篇小说
马来西亚
东边
借鉴
参谋长
名副其实
风俗
上书
九江
古巴
新石器
清清楚楚
镜子
陌生
万余
例行
加之
同行
来讲
灾害
铸造
只顾
史学
客厅
来临
肥沃
阿富汗
周芷若
报酬
水电站
生殖
语文
遍及
顽强
典礼
接口
政事
筷子
会场
动摇
天赋
法官
海关
眼色
走路
修正
清水
虘
讽刺
锜
长远
各派
后裔
多万
比武
葡萄
车上
雪白
介于
内讧
堆积
实业
爱好
馒头
黄鹤楼
不变资本
养成
大部
山珍
索性
一家人
国家森林公园
戒指
暗示
最长
本性
东岳
他家
毛病
称作
获悉
辣味
雄伟
一圈
一所
世间
何不
宜都
重庆市
军长
放出
知府
落叶
鹿子霖
万分
万里
心底
打出
数码
肌肤
胜迹
衰落
分割
富于
序列
散发
无可
有的是
结局
造就
一号
光线
古今
摩擦
有望
来得及
用心
痛快
外国人
导航
思潮
政治局
旨在
牛奶
珠江
凌辱
喃喃
套餐
背部
这一下
选票
陈水扁
隆中
黄家
做事
本章
洋芋
一脸
两支
头陀
强行
是因为
潜江
炮兵
遗留
勮
怀孕
抽象
时光
朝着
聚会
车牌
首长
古希腊
右派
好转
市内
所有人
担保
拔出
改制
杀伤
毁灭
王夫人
鲜卑
不大
单元
奴役
子宫
消极
演化
熸
各方
市中心
希特勒
所指
炮声
进宫
骄傲
大侠
山下
舞美
南面
恒山
惊奇
拿来
皇太极
直言
瞩目
箢
閭
一队
属性
指向
江面
西岸
险些
高明
五保
前锋
柱子
超级
间接选举
中华鲟
厂长
守城
工作日
总管
法王
溶剂
相救
襄州
豌豆
鄂西北
高涨
公职
司长
嘴角
四川省
大洋
改良
此类
流血
这回
领地
华中师范大学
复兴
幼虫
自学
解答
产于
大举
强劲
特意
糍粑
美味
较差
长子
一早
几声
崛起
开出
总队长
数日
明末
确切
碰上
罗田
阻碍
驱逐舰
侵蚀
安乡
山海关
底部
微生物
现役
经济作物
勪
变态
山峰
晚辈
月球
根源
联合国教科文组织
远安
闈
验证
前夕
服侍
灭绝
繁忙
落到
连声
集团军
风情
中队
内城
均衡
担忧
捕捞
火药
第七
精英
阳新
风水
首批
七个
头儿
带上
恰当
接见
照例
缺点
角落
譬如
迹象
勾结
十七年
坐标
庢
报复
星火计划
石桥
国共
嬫
快照
智能
生产方式
留给
站长
竞选
逐年
配件
一等
万公斤
中密度
可知
大厦
差额选举
折腾
接应
江夏郡
猪肉
相处
造纸
其后
北岸
北门
女郎
报刊
栏杆
欢呼
汇合
泰山
病变
纸坊
草丛
营建
讲述
钟祥市
静静地
中专
亲征
傍晚
劳动人民文化宫
华东
屋脊
水电
统率
个股
敦煌
新华门
清新
请问
国产
天河机场
拾荒
珠宝
中央委员会
中洲
倘使
冷却
华容县
嗓子
宏伟
恩施土家族苗族自治州
掩护
滚滚
项羽
各处
哭声
星系
罗清泉
翰林院
蓦地
贾志杰
赤道
闪电
一世
创始人
南极
城郊
终端
英国人
长春
不中
王国生
蒋祝平
贫苦
跟前
身为
随机
使馆
傅德辉
刘子华
北面
张湾区
杨桥湖
焦山河
玩具
珞狮
看成
襄城区
走马岭
选用
透过
隐蔽
预警
高基庙
催促
向下
朝阳
机能
流露
短信
默默地
下山
况且
行程
被俘
风声
亚运会
大刀
徐州
正统
中枢
其时
写成
噷
妥协
山头
电报
中将
传达
出兵
场地
宝库
挫折
观音
转型
长久
陈述
一味
一路上
上台
体质
保守
历程
处在
寂寞
老夫
脱身
荣获
中央政治局
之江
命中
长期以来
阁下
以示
全球化
提拔
编成
转为
大幅度
宦官
对准
山寨
树枝
正规
话剧
近似
闪烁
问世
景色
珊瑚
繀
绉
阵法
八角
勯
操作系统
无穷
自愿
各路
呻吟
喜悦
平定
断裂
显赫
漕运
迫切
风气
驱动
大字
性情
持久
掌门人
本届
糟糕
芙蓉
这笔
举措
事宜
名将
左边
浪漫
那日
交叉
今夜
刑罚
大红
慕容
或者说
效力
欺骗
程灵素
素有
鐫
催化剂
头目
私营
词汇
中型
天星
搞好
真诚
西洋
会后
军政
啗
躯体
声势
奉命
并入
流出
闀
中央军委
低温
可比
差点
木头
演讲
迎来
三十
亲手
以至于
动弹
地毯
声称
感慨
文武百官
歼灭
疑心
罐子
老鼠
设计师
閬
陈独秀
除去
一响
印第安人
山中
用不着
再有
启发
案例
点儿
相近
老头子
芬兰
讨厌
丛林
决定性
器械
地壳
境外
房门
来历
桥面
禁地
鑳
一株
埌
干活
恶化
继位
不仅如此
严谨
修筑
千里
变质
月经
直属
积分
维也纳
一斤
外出
少爷
电子书
集成
驻外
加深
局限
帐篷
排水
放大
歌剧
活泼
瀵
相交
相接
第三批
门槛
难民
鸳鸯
保定
公顷
大纲
忧虑
段正淳
水量
汉水
沉思
锦衣卫
陷于
受过
梁山
炮塔
薪水
一端
处理器
手势
朝代
楼下
石化
贩卖
共有
态势
洞口
一点点
一组
三日
列宁
奉献
小康
强势
果树
潃
补给
语法
链接
交战
宋朝
尾巴
彝族
形制
放下
牌子
默默
不定
侵略军
参赛
少于
手工
管家
腐蚀
起草
集结
入学
创造性
十足
富户
方位
水位
津贴
王位
老虎
龢
不多时
垬
有用
眼镜
神态
罪恶
迁移
队友
商场
彩色
志愿者
癌症
线索
结晶
驻扎
鸦片
一侧
两件
体育场
南侧
原油
感叹
来得
璺
背影
语族
遇见
三路
反之
大妈
归来
猜想
良心
难怪
面孔
兰州
外人
契约
搴
摆在
水上
马匹
一共
上方
东欧
义务教育
半空
协作
各种各样
忽地
苍白
行驶
阿里
你好
写出
双喜
实体
斩首
注射
编钟
跃起
重型
全局
内在
北洋军阀
在位
士气
开玩笑
记者会
兴衰
圣地
挡住
看不到
经受
谷地
事迹
吸取
大权
常绿
弃权
浙江省
米格
讲求
亲属
入境
单刀
好奇
当做
按时
最好
箱子
赞同
运算
进驻
钥匙
饿死
不由
出击
欏
武警
百分点
致命
往日
沦为
流贼
现任
稍微
立足
酒杯
采集
高产
鼓吹
压缩
参见
宣称
山东省
无霜期
踏上
告辞
扶贫
挥舞
本省
牲畜
诏令
轻工业
中小企业
定然
握住
知识产权
遏制
鏀
功臣
嗘
新人
沉着
黑夜
二哥
你家
勭
哑巴
垂体
太和
剧团
柯镇恶
秋天
罗刹
订立
分辨
深夜
瞎子
隐居
义父
外事
女生
孤独
宋思明
层层
总监
沿途
索尼
草地
调解
车子
郑重
金水桥
支队
攻破
首饰
万人次
上将
操练
绿豆
董小宛
衙署
还好
也罢
布什
当面
播种
水土
犹太人
红花
身份证
躲避
不理
后宫
直辖
窗户
管理者
紊乱
课堂
负面
勤劳
大伙
白马
西向东
轻工
凝聚
功劳
脚步声
认同
野外
陕北
骆驼
高档
人影
充实
入口
北侧
大姐
好多
工地
敌后
管制
聚居
至尊
裁决
闪避
鸟瞰
八卦
博客
印度尼西亚
救援
文革
胡说八道
行星
一时期
凌晨
几日
利税
器材
大树
幸好
捷克
流失
疗法
联手
鏍
饭菜
入市
分公司
双边
夸张
妖精
德军
行礼
迫害
陶瓷
下滑
两端
体操
欐
部件
预报
下落
所有权
无线
来时
紧接着
胡说
阶梯
凶猛
十三年
十二年
可笑
新高
浩浩荡荡
盼望
结算
行径
路桥
金牙
余地
关怀
反动派
后退
呐喊
第六
耽误
路边
进京
乌克兰
仇恨
年末
恶心
警方
谷物
鐜
震撼
青睐
不对
交错
力图
多用
对了
所有制
担子
攻打
林立
沙僧
涘
牢固
神奇
糯米
细致
脉冲
节省
贝尔
金星
党组织
应届
灾区
轮流
主角
境地
增收
外形
电池
纺织品
终止
绳子
行列
试试
陵墓
南亚
四项
墓室
姿势
寂静
搜集
浓缩
甘蔗
疗效
自然科学
计较
都市
前所未有
品位
坏人
武汉大学
注定
耕作
茫然
谈谈
难过
驸马
创制
口腔
坚守
法人
言论
压制
吴摩西
国际化
氛围
照射
罚款
运转
迷信
今儿
名列
抗敌
烟草
神农
隔离
一串
乘坐
兼有
可口
朝政
求得
百花
秦岭
竣工
走势
下设
伊斯兰
兄长
加班
山路
御史
敌方
明珠
柔软
洪武
老家
行军
鐒
长长的
助手
区划
厚度
告知
外围
师徒
慕容复
王子
衣襟
鄂豫皖
中兴
介入
似地
成化
抛弃
苏格拉底
范蠡
轰炸
远销
镇上
陈瞎子
格式
每股
版图
诚信
门类
大块
察看
惭愧
板栗
游牧
第二年
羡慕
贿赂
过境
选举权
为名
凝视
刊登
地板
天大
导师
正月
永不
洞穴
议程
岳飞
往事
温泉
溶于
激战
牵引
破裂
贫穷
体格
保住
圣旨
天山
小孔
惊呼
未经
生源
荷叶
贬值
轮船
实战
当成
楼梯
水源
注意力
白宫
研讨会
营长
该校
都察院
骡子
上报
农历
出场
热门
生物学
緱
见证
逼近
长治久安
隆庆
静脉
世袭
东晋
乡下
千尺
山石
护士
焦虑
两手
保密
傣族
反潜
尽头
带头
李鹏
短暂
蒙古人
赋税
事务所
开办
下旬
书面
双臂
啤酒
排队
绳索
鸭子
九个
右边
广布
店铺
忍耐
慌忙
掠夺
搏斗
无可奈何
生产能力
石门
视觉
身着
马良
二世
刑法
单词
反共
向阳
壁上
头痛
女婿
宾馆
油画
疑难
第三个
西亚
西城
迄今
重用
乘客
传送
南斯拉夫
古都
咽喉
四通八达
复制
幸运
成交
诸位
起兵
黎明
主教练
卫士
历史性
司马
困扰
大大的
察觉
工序
树林
爱尔兰
红外
一棵
亯
党政
大中型
徐天宏
秦始皇
舍不得
观赏
造船
郊区
五四
刚好
呼唤
圆柱
家电
市级
芦苇
诸国
隐瞒
餐厅
主帅
五十
动荡
同类
嵩山
性子
治权
痛哭
英军
顶端
黑白
以求
共享
喜事
墓葬
当晚
当着
抗击
红娘子
重镇
重阳
陈列
不耐烦
军费
化为
压抑
布满
建工
戜
教室
显示器
望远镜
江西省
破译
裤子
一隅
三名
三角洲
两声
云雾
会晤
宫城
油田
胸膛
通高
首座
不知不觉
举人
先令
双重
嬩
无偿
残疾
流水
理财
省政府
胜地
修炼
十一五
打造
日渐
波长
胈
英特尔
魏忠贤
作文
外科
客场
导游
总共
水文
用药
鑷
食堂
马路
三元
两下
两道
党派
吐蕃
张英才
愈来愈
振兴
汉文
添加剂
港澳
莫名其妙
菑
通达
中下游
发抖
商贸
坚实
引人注目
泥沙
胜过
钻进
三座门
上线
不当
乐队
互动
侥幸
倒退
力争
器物
外文
导向
巡逻
年级
怒火
洋人
照样
独具
禰
那年
亮相
对外贸易
平生
野战军
不容
乌云
全国代表大会
八一
列强
右倾
四名
增至
天河
常德
房价
拰
玉器
终年
被子
九间
人民军队
厂家
周末
庝
意愿
收支
亲密
体长
余家
名声
四面八方
平坦
打下
敞开
新娘
新浪
木板
畸形
积温
访谈
赶回
运送
门票
世界各地
佷
假装
宁静
往后
攻入
民主主义
皮子
簇拥
倡议
养老
兼顾
卫生部
庡
影响力
杉木
极度
步行
江中
活塞
相遇
美誉
而后
舍得
迈进
防水
顶上
上课
不可避免
吸引力
属下
微波
插入
文官
暗自
气质
熟练
第一位
风采
债券
券门
前方
动身
天皇
张召重
时时
气愤
甘心
石窟
系数
金轮
一块儿
前身
劝说
善人
巡航导弹
时说
物理学家
降落
霍青桐
专科学校
且说
华南
容貌
放射性
新西兰
假使
击中
别名
变法
城头
天麻
实录
扭转
政治委员
机票
爱心
瑶族
频频
侧面
冲出
尺度
战败
摇晃
杀手
永安
热心
石膏
阻力
三类
不至于
服务器
毫克
略有
纵贯
绕过
调和
那次
预言
高空
五色土
叙利亚
增殖
朝鲜族
木婉清
精通
蓝天
部族
一战
上演
亚太地区
几经
唯有
排斥
构件
殖民者
涵盖
綋
舒适
解散
露天
一期
俯身
写信
善良
山口
并肩
弱点
甲板
赏赐
驻足
中书省
公生桥
北魏
太守
左翼
打入
无从
王纬宇
电磁
相识
看清
罗马帝国
金刚
除外
乐于
无处
无效
日记
贪污
轻型
归属
折子
拍拍
暴动
镇定
书生
任用
借款
后方
御驾
摔倒
繁多
纠缠
绍兴
若非
规范化
身形
追溯
里边
两块
军团
利于
数年
梁启超
电路
胜负
解体
警官
降价
元首
前边
咸丰
大山
威严
整治
显出
本版
渤海
衣裳
师生
昆仑
柬埔寨
武官
渡过
潇湘
炸药
碰撞
篮球
肩上
胡乱
诗篇
赚钱
信贷
内政
再生
冷汗
半径
喜剧
常年
故城
最高峰
面色
下次
伤势
侄儿
台湾省
排长
照明
狩猎
使出
假期
台北
成千上万
自卫
航空母舰
输送
选项
都督府
防卫
魔教
一员
三千
五岳
伴生
分量
天亮
妨碍
市政
归纳
形似
惯例
战马
精致
趁机
依托
关系人
剩余
医师
合计
嚭
安抚
开业
悬殊
掠过
数次
水生
犱
生产者
院内
不忍
关公
再三
农场
教徒
田伯光
白族
神功
细细
胎儿
重任
高僧
修养
全场
几名
十七
喊声
威风
承包
熊廷弼
甲鱼
看望
神气
罪名
赶忙
外观
大选
捕食
氬
两眼
产权
呕吐
固有
奋力
寺院
径直
提防
操心
数据库
比比皆是
瞻仰
突围
站住
通天
金代
黄连
争执
动力学
宝石
客店
往年
扶持
有无
服饰
极限
石器
视野
一月
下班
刀法
剪刀
宽广
忙碌
抚摸
许可
追问
为着
几条
右侧
彩陶
数十年
焕然一新
血压
为民
仅供参考
化解
吆喝
在职
护卫
日照
槦
气流
穿越
紫色
初年
千古
呼叫
圆圆
天下第一
小雨
工场
惊慌
慷慨
政制
流氓
蘑菇
钢材
陆游
八旗
官话
恨不得
旅馆
明教
查处
骨骼
中南
关中
农田
卑职
反攻
围着
奈何
字体
居多
户籍
抗生素
朱红
身心
镜头
三军
不利于
前一天
剧目
原谅
吸烟
尼姑
排出
早晚
望见
漆黑
独立自主
理应
省外
职员
车间
野心
量子
金丝
驰名中外
中国人民政治协商会议
光电
地狱
城堡
奔跑
泡沫
盛大
赞扬
近年
雍正
驻军
回身
官署
崇高
弹劾
新风
水底
空运
耳光
请安
销售额
两点
亡国
分水岭
务实
学堂
幽默
推理
摆手
渔民
点评
看好
空调
统治阶级
运输机
里头
金学曾
鐩
三角
交易所
仪表
其他人
勇士
捕鱼
李莲英
洼地
炒菜
羁縻
邻居
中道
全称
冷冷的
列举
太师
小船
抓紧
淮河
湖面
眉毛
矿冶
薪酬
衣袖
财经
饲料
减弱
可行
惊动
新民主主义
欧洲人
潮湿
王守仁
病因
祭天
自治权
过后
二来
修复
国人
坚固
数十
河段
深山
物流
租界
稍稍
说服
赌博
选定
锦州
农奴
初级阶段
城池
好不好
常住
弥漫
忠诚
情势
愈合
棉纺织
歌舞
潜水
炎帝
盛开
两行
取名
媒介
容纳
紧急状态
魏晋
黎族
临近
寄生
小儿
积雪
米兰
被选举权
解读
起码
过剩
迎面
退役
适应性
两头
中介
十五大
园艺场
庄重
海军陆战队
火炬
门楼
陈文洪
一枝
做人
应急
无须
有限责任
望望
爱因斯坦
调研
野兽
仲裁
巨额
感冒
技术开发区
旺盛
犯规
省城
纪念馆
辈出
高等院校
伺候
冷战
增进
官场
定价
第一天
轻声
刺刀
叫卖
可可
四级
心疼
油脂
耗费
规章
觉醒
训练班
夎
大专
所学
整修
水路
江河
球场
石碑
而立
腊肉
诱惑
选任
几百年
奋起
布依族
恭敬
慎重
战俘
控制系统
推测
教导
极好
柴禾
海岸线
牛顿
丘处机
全文
分院
十几个
富贵
海内外
烟雾
知觉
石壁
赛事
跨度
这部分
邮政编码
重申
仙人
国家计划
投机
新河
枕头
潼关
禁不住
致远
詹姆斯
一新
全权代表
公寓
唯独
国立
徘徊
快快
快要
评审
造诣
雇佣
企业家
伦理
修理
卧室
反思
坏事
多余
夷陵
定理
开幕
矿藏
秦汉
绿萼
罗马尼亚
全城
刀子
失利
招商
最先
棰
滀
蜈蚣
转念
事变
会议室
兼职
孙四海
开头
恶人
数值
电源
秀才
邵大侠
东城
京广铁路
僵尸
功效
小时候
我行
杜绝
武陵
泉水
营地
轿子
通讯社
关头
凝神
半截
卓越
喉咙
坚硬
外援
子公司
惯性
指导员
文责自负
渡江
赵寄客
一台
一模一样
不久前
变异
土特产
掀开
转运
雨水
餐馆
饥饿
公道
动人
国务
培训班
增值
工农业
开阔
末期
沙丘
票价
紟
阿拉伯人
院中
两方
住院
促成
城垣
展出
心愿
拚命
掩盖
概率
欺侮
殡葬
献策
综合治理
荒凉
被统治者
重力
阔叶树
鲜艳
外交部长
大顺
季后赛
烧饼
独裁
研讨
移居
群众性
越国
三家
两栖
中小
中途
健身
四位
团团
填补
尸首
屏幕
归于
损坏
数万
无辜
曹禺
替换
林中
果断
泥土
肝脏
蛋壳
问起
黄庭坚
乳房
倒霉
共识
劧
大功
新民主主义革命
权限
永久
瓷器
补贴
退回
黑龙江省
光彩
发送
喊道
嗐
大河
思念
散布
知晓
社长
签名
算术
苦难
野人
风雨
飞舞
公安局
宝刀
归还
扩充
抗争
熶
粮食作物
观光
阻挡
体检
奉行
客车
山珍海味
总和
星云
电视剧
身受
遗体
鎸
长江三峡
信件
刻有
危难
回旋
字样
幸亏
惊醒
显露
最深
民主党派
罪行
过儿
静止
事例
二氧化碳
宏大
岩浆
平津
拈阄
捕捉
有钱
白莲
紶
腹地
苦苦
说实话
赞赏
二十七年
党组
大湖
完工
幕僚
气派
水泵
牌楼
脑海
苏军
袖子
贫民
乖乖
光谱
剧场
发展观
好不容易
打架
批量
护卫舰
断定
派兵
演唱
狼狈
畜牧
而论
预料
关山
关税
北洋政府
参赞
圣水
多条
大江
好歹
姑妈
州政府
死伤
点着
老兄
肥料
腹中
人民检察院
几家
南口
微弱
德意志
悄悄地
旗下
欺负
正说
武术
灌木
留下来
礼堂
脸颊
赞叹
事后
二战
减小
呰
换上
无异
甚为
田地
背面
蔓延
一粒
人次
人民团体
十二月
十几年
四品
基金会
小将
庄稼
故居
民族主义
诗集
门内
阻挠
中产阶级
争吵
代理人
公然
南县
声誉
已成
平地
掩饰
试题
谣言
走访
零星
俗名
务必
按摩
筑城
聚合
西伯利亚
跨越
身高
钢筋
鬼子
三中全会
上周
专著
地里
处死
好几个
守卫
实事
抓起
灯火
着眼
翻修
认出
再生产
十万
发信
大跃进
失调
宴会
救济
本能
楀
水准
治国
滆
烹制
糖尿病
绵延
针对性
鳔
一排
五星红旗
冤枉
名优
安心
师团
排水量
新年
智利
毒蛇
比作
烧毁
申花
看重
顶部
一连
交界
停下
分数线
呼呼
哈尼族
平儿
料理
暂停
看起来
精锐
转而
陷阱
不屈
交锋
厌恶
图谋
孙九爷
怒气
拉萨
求职者
清澈
看似
繁重
职称
要害
跪倒
世俗
中和
丰产
为准
会计师
光谷
同伴
大面积
最快
朦胧
自立
西湖
踁
鍓
高粱
鼓乐
仁兄
剧社
动用
十九年
天地会
急流
悲惨
意味
抉择
晋升
树干
毒品
熔点
甜酒
育才
表述
闻一多
下锅
伸展
十一月
家门
撳
整数
早日
未知
特地
石狮
颗粒
书本
别墅
国家博物馆
婂
海边
纤维素
飞扬
一经
云母
出血
大同
奖学金
持股
烈士
田福堂
砂土
秘鲁
自尽
蒲圻
高新
高高
两根
亲身
住宿
余下
佺
冲积平原
发源地
合力
大革命
天黑
好人
惟有
杭汉
气概
童子
粗大
繁衍
线性
万向
不由自主
京广线
史书
喷出
天生
学联
繁琐
网民
联队
资讯
问问
香味
不败
中军
亲热
众将
大肆
彲
徐秋斋
心腹
抽屉
搭配
流泪
相会
祝贺
秭归
空降
聊天
资深
钱其琛
非同小可
右臂
吃法
国共合作
大方
师母
强力
慈善
活性
涂料
现实主义
眼球
精密
股本
茫茫
衔接
貜
人学
借以
品级
大冶
奔腾
奔驰
摘要
暴雨
比起
民工
纤维板
胡锦涛
营救
互助
哽咽
大火
改成
核试验
流亡
清蒸
湖西
财政经济委员会
质疑
马来
业内人士
二中
公积金
外头
夸特
学到
小学生
招聘会
班长
白石
看病
笑嘻嘻
簨
自发
邻国
随身
上边
听众
圣人
孢子
惊喜
火器
真空
肆意
阮大铖
鸦片战争
史记
放声
昏迷
毒药
法典
电机
短短
被告
领取
东升
参照
失踪
庑
得来
本世纪
李肇星
沿线
深圳市
班子
用意
严禁
大石
天鹅
悲痛
无记名
耽搁
自知
辞去
鏋
驾驶员
下部
不平
会合
傀儡
割据
外皮
工业部门
弧形
护送
新纪元
星宿
有余
森工
河边
注释
混战
独居石
监督权
亚历山大
去过
双腿
应城
思想家
想像
战事
收敛
李俊
松树
构建
紧迫
螺旋
采纳
高位
亲近
半决赛
咬牙
宁愿
宽大
州府
左臂
拥挤
探花
推举
新华
昨夜
毛尖
猴子
端门
翅膀
诸州
钟祥
陙
食性
鱼池
一幕
军营
净利润
名家
回应
宜城
峨嵋
救人
正值
民航
氨基酸
海南省
迦太基
钦差
霎时
万股
为数
从没
传世
余万
凶险
劲力
勾当
化疗
口音
居于
明洪武
湅
照料
误会
辽宁省
鏁
陪同
黄陵
中国历史博物馆
兰花
十天
厢房
口里
山道
常数
惨重
边防
金台
黑陶
一发
削减
四中
多媒体
封面
流芳
美学
贫富
到时候
宫门
山前
日元
椂
榨菜
许家
酸性
间谍
集体所有
书院
傻子
哭泣
张大
愚蠢
批次
林冲
消毒
玩笑
留意
知县
税务
第一名
落成
藻井
调剂
防备
隋唐
鹿兆鹏
三中
不通
丹江口
单板
各州
夌
当先
数千
用水
积蓄
立下
第一种
贵妃
酒家
重心
閫
门窗
上任
中国地质大学
五大
克里特
大自然
接管
政治经济学
明世宗
歌声
滥用
舅舅
荣禄
解脱
顽童
个头
余额
初时
将要
德安
新式
无形
武陵山
民营
汉川
江陵县
狮子山
玫瑰
琵琶
监控
第一步
管理权
绗
著述
长叹
非凡
发信人
拿破仑
母子
箣
苏格兰
见得
讨好
逃出
香料
鲟鱼
两路
宁波
官山
年薪
擅自
此言
流芳百世
确有
第二产业
轻微
陈贞慧
五百
人民解放战争
住处
军事法院
双儿
团城
困惑
埋怨
大将军
山镇
无能
早早
榜眼
沿江
篮板
边区
长河
鲜红
五里
利息率
张学良
房基
抗拒
掌声
新四军
殷素素
淡淡
溶解
背叛
自卫队
舰船
舵主
药师
阿曼
降临
举报
关上
千张
受不了
总称
愤慨
政局
有毒
服务业
正直
沮丧
激昂
神农架林区
糯米饭
路过
运力
先驱
大都城
尸身
明儿
朴实
结实
耕种
超市
退化
通俗
中南财经政法大学
产能
优异
偏重
关切
军事检察院
勘探
反手
吴汝义
庐山
手帕
指引
故障
文科
暗想
月底
有所不同
洺
清炖
潜在
矿石
章宗祥
群臣
船头
要死
中新网
优于
卢俊义
急速
沙湖
瓦屋
逃避
凯旋归来
城下
昂贵
理学
畏惧
肢体
趁着
远征
三户
公有
减肥
北非
土地革命
坐落
委内瑞拉
岳父
工作部门
市容
有益于
楚雁潮
炒米
稀有
解放路
警卫
走狗
起床
起诉
雇主
传染病
内分泌
南唐
卫兵
增高
大奖
我省
池塘
治病
法治
白鳍豚
百官
联络线
踅
领会
高陵
侍候
南下
咱俩
天桥
安理会
宝座
建平
抬高
汽配
经济社会
聘请
院里
不得已
事态
传令
公安县
关门
刻画
口头
宣扬
宽度
年头
怪物
救助
教义
武汉理工大学
汇票
汉阳府
滋润
神来之笔
第一产业
门上
阵阵
高亢
匹配
听力
回想
回收
大沽口
姘
客商
山西省
工业园
探雷器
概论
河蟹
湘鄂
火灾
班主任
盟主
计量
试用
香蕉
不足以
交配
体表
干干净净
引领
忓
沉淀
竹溪
苗人凤
蕴藏量
赵大明
远东
追逐
鑻
功绩
奏折
将近
心血
推拿
无聊
柏拉图
江豚
浠水
淹没
瓦解
电梯
耶律齐
花卉
责备
贯通
边上
首届
何在
史诗
多项
嫔妃
急需
提案
播放
放手
有序
村长
水能
流程
牵制
珰
神往
绘制
范子愚
蓬勃
议题
质询
贾朝轩
酒精
风流
世代
东岸
克制
十六年
同工同酬
婚育
岸上
心脏病
恩施州
拯救
法则
法语
湖北省政府
监利县
社会科学
红土
视线
连长
京山县
前沿
土匪
威信
愬
李沅芷
民俗
生产线
盛宣怀
石湖
祖父
自豪
轿车
过敏
青山区
价钱
几万
剧毒
土层
天真
崭新
希腊人
常人
德安府
提及
故宫博物院
民办
福建省
端的
花样
莲花
转发
金平
集成电路
鳇鱼
中山堂
加盟
四纵
大理寺
女王
学府路
寒意
张之洞
拉美
断层
民主革命
清廷
琴台
经济体制
罗田县
谢恩
钱币
领导班子
两项
乱打
二十四年
交界处
十一届
响声
填写
岭子
新堤
沙市区
王晓东
调制
踌躇
身躯
这样一来
争相
互不
何故
几十个
卤鸡
古称
后备
圣母
应聘者
建设路
恼怒
手枪
暂且
汉武帝
沙复明
点缀
特级
登山
自给
读书人
赛后
迟早
上海水产大学
下边
卡车
商用车
囨
国营
多元
对照
应力
径流
成型
截然不同
朝天椒
末端
死亡率
没事
盛华仁
石墨
礼貌
祖师
立方米
贮藏
踏实
选集
驰名
三品
书目
价值观
保姆
华中农业大学
卫队
县市区
时而
模范县
武当山风景区
瞧见
笔记
老年人
解剖
追击
鎰
鰁
龙大
万尾
乔晓阳
反馈
周长
大堤
太祖
学界
小河口
庸俗
汉阳区
江岸区
烹调
玄岳门
玉虚宫
轮番
邮电
陈丕显
严寒
以防
俞伯牙
刘郎浦
小康县
教育科学文化卫生委员会
文化路
文教
晃动
正宗
氧气
汉南区
流下
满清
爱国主义
缴纳
荆州区
说好
过往
退却
郭树言
闻到
中华和钟
农业部渔业局
区雄楚
南岩宫
大湾特
姚师傅
崇阳县
意杨
担当
拉栖第
曾思玉
殷家洲
江纳苗
筑成
色酚
苦恼
荆东
蒋家冲
袁宗皋
请来
调关镇
车厢
车城西
镇江
长江水产研究所
黄松龄
两会
举止
光滑
升值
反感
发展史
启示
大元帅
审讯
感应
物种
珍惜
细心
分析师
战备
无耻
比不上
油漆
片面
白白
纵深
英才
裁员
一朵
下层
俌
光亮
共计
原子弹
反响
婲
武将
渊源
温差
纳什
褶皱
转折
铭文
陆上
随从
乌龟
代数
十一年
南通
历届
听从
大雨
微观
抗原
有色金属
概述
游人
热泪
终点
经理人
肃穆
不合
亾
凌厉
前人
吞吐量
弹头
木结构
步入
法案
牛爱国
直奔
真心
隔壁
青城
预订
三座
传闻
供求
先秦
八大
多方
岸边
总公司
抓好
本文
沙皇
熟人
电气
食欲
不适
北海
厮杀
委派
娘家
柟
楚王
真个
稻谷
窑洞
第五届
粉红色
纳粹
编队
药店
香烟
不必要
云南省
健壮
剂量
奔走
小路
怪不得
月初
浑厚
灵柩
环球
胚胎
衰退
警戒
鞭子
一动不动
主子
亨利
亲生
便捷
冲着
击落
初次
唤起
在手
官司
小心翼翼
就是说
忠心
法兰西
照耀
约翰
飞跃
首创
不光
会战
候补委员
制剂
墓地
太湖
安宁
密封
师娘
政治协商会议
敬重
真人
编剧
通话
阴道
隐患
再现
参战
慌乱
护理
案子
盘旋
石子
行进
装甲兵
设计者
起步
适时
验收
上门
口岸
常识
志愿军
摩洛哥
显现
生息
管理局
一千
丛书
召回
大旗
武昌起义
歼敌
第三代
细看
美貌
财力
轮廓
道长
高端
从容
北伐
半月
大乱
天竺
孕妇
寒风
尾鳍
当儿
毒手
炎热
理事会
病理
着地
细腻
蒸发
西山
足以
通货膨胀
酿成
争端
使节
山体
意识形态
火星
破旧
精选
责任感
野战
高三
一分钟
一束
下水
伙计
倭寇
十四年
周岁
开局
开车
海南岛
留心
菊花
请示
谋求
豪杰
车体
陆菲青
中央电视台
他用
保管
千斤
天王
家境
小城
平和
拨乱反正
放射
歧视
泄露
深感
皮革
货币资本
贪婪
进发
乐趣
传给
何人
保加利亚
商品经济
四十
坟墓
外号
好比
幼年
怪异
方形
时节
比率
汗水
王八
留学生
路面
黄沙
丁思甜
临死
伴有
土豆
塽
守护
平息
建交
抗日救亡
核电站
炎症
瓜分
稀少
胡闹
艺人
荣耀
下车
东北地区
二爷
做梦
切割
呼喊
回复
小岛
带回
泛滥
漏洞
精子
耀眼
老弟
闪动
龙袍
一伙
一角
为重
众议院
侧身
刺客
午饭
南美洲
后卫
嚜
审定
序幕
指明
月薪
波罗的海
涡轮
满怀
立马
红楼
脊椎动物
解析
闹事
面部
马克
不在乎
不解
之用
入选
几时
功课
可靠性
国家队
奇异
好评
投身
案情
涨停
理工
空虚
等离子体
羟基
享用
悓
扫描
摄政王
早知
牧业
粗糙
美国政府
装甲车
账户
问候
高分子
一晃
保佑
几件
噪声
四维
夜景
工学院
往返
情愿
抢劫
拜见
无人机
洛杉矶
活人
海滨
界岭
皱眉
监护
经营者
航空兵
花瓣
间隔
传感器
偏离
入手
制服
募集
呆子
开心
张宁
挺进
推算
旷野
渔场
课目
跻身
三尺
不妥
井冈山
令狐
傜
冰雪
害虫
开除
战舰
敌手
机翼
楠木
玉音
生猪
神庙
胜任
路径
长假
阎鸿唤
革命家
黄山
人称
名次
因子
奴隶制
工人运动
庄子
悲愤
慕尼黑
无以
标记
绝情
老妇
裘千仞
逃脱
为害
冰冷
外侧
市镇
推迟
标本
眼眶
细长
编纂
融入
趴在
酒楼
鍖
伪装
发给
叔惠
壮观
孝敬
惊叫
捐款
撞击
椭圆形
楁
潇洒
现出
考上
句子
最少
杨百顺
淤积
热水
石板
罪犯
详情
下雨
创意
多座
大户
寺庙
录用
心念
慰问
手艺
有待
有点儿
栧
植株
毫无疑问
演说
物产
萐
蝴蝶
一届
佽
偿还
兂
列表
千户
占用
应试
座谈
惊异
戞
残余
深知
激流
特长
皇族
相邻
统辖
长袍
闺女
高程
三角形
不胜
交纳
其父
原地
咬牙切齿
大大小小
大理石
容忍
总局
数百
桂花
烟台
热线
牲口
疙瘩
皮鞋
郑和
面具
主人公
保安
几口
剧痛
危及
原子核
多米
战绩
抗体
果真
武装起义
牵扯
疲惫
皇爷
脆弱
至关重要
全线
同治
戠
投放
新世纪
本部
机身
特种部队
荷花
褐色
险恶
不快
会试
传动
先天
单人
废墟
德国人
攀升
机床
燕山
继而
读完
边疆
三项
催化
充沛
动植物
压低
嘲笑
小贝
少年儿童
并行
快活
拂尘
接替
日用
毒物
相对论
职官
路子
道光
马蹄
修葺
刀剑
右翼
各别
大礼
批复
提督
救命
歌颂
海口
熺
精明
系统地
表彰
该当
载体
辩论
食指
麻袋
齐名
人际关系
值班
再行
冠以
冲开
原型
响亮
围棋
天津市
妄图
广州市
指挥所
放过
泄漏
法国人
红薯
赛场
近乎
郡主
随口
高悬
一百
三者
业已
两翼
五千
仇人
决意
堵塞
夺冠
放火
施主
查出
解放后
轻视
铁棒
长短
院落
一文
下调
农家
可想而知
国籍
彭德怀
悲伤
戚继光
理事长
盘算
莫大
轨迹
辅导
鎷
陡然
马背
不合理
乙醇
乞丐
何事
公私
助学
去处
呼啸
开端
柴油
水温
生母
统筹
议和
闲话
除此之外
一时间
乔木
乡亲
人行道
儴
北向
叶片
扎实
招办
树皮
生病
第二批
耶稣
联合政府
蒋丽莉
骚扰
一具
严守
中性
二则
他俩
办公厅
喘息
安放
宫里
开罗
无知
湖区
电荷
论题
试探
鎺
顾及
一枪
一概
争斗
农药
双脚
复辟
天才
忠实
折合
无尘
河西
流向
看守
自来
艰巨
衰老
轻重
输电
遍地
郁闷
郑克
酝酿
镖局
鵞
世家
交易日
余年
依附
关口
南移
叛徒
城南
嬶
小厮
尽早
教科书
无锡
毅然
毛巾
电极
磁性
私有
胸部
连锁
顾源
元旦
十多年
博士生
奖章
巡洋舰
成年
投向
标题
檲
活儿
眼皮
试卷
贤良
适中
音乐会
促销
切断
半分
大喜
太阳能
奢侈
容许
巨头
指头
振奋
最强
炮火
烹饪
磋商
神道
科比
考古学
脱落
非但
中央集权
偷袭
全方位
剩余劳动
升降
及至
喝茶
士官
微小
恶性
打交道
抨击
指挥员
槐树
没用
深沉
瘫痪
直通
相望
贯穿
违规
金嫣
音乐学院
为生
低级
侦察机
北麓
小字
常驻
异议
敌对
机理
横扫
沿河
登录
神学
肉体
航程
课本
醒来
马头
一顶
三代
中央委员
六大
单打
厚厚的
字迹
宴请
木雕
浪潮
涌出
磴
童年
结识
表层
论断
赠送
跳出
马克思列宁主义
一盏
制度化
前行
四次
地雷
大成
年前
往常
斿
普鲁士
未有
本科生
水手
法兰克福
海滩
煶
硫酸
胆敢
饱和
马刺
高地
麦子
乐意
倒下
多样化
对口
工兵
火锅
畜生
答话
经商
统统
膝盖
虚弱
这本
伪军
但愿
借着
动脉
化妆品
外企
宫墙
少见
有事
污水
精兵
西路
踪迹
乳腺癌
名山
商代
坐骑
实实在在
山间
文凭
有理
模块
满腔
牡丹
秋季
道歉
郎中
顾虑
领导者
不动声色
与否
星级
曙光
温州
电视机
突变
缘由
自如
震荡
何应钦
动乱
听话
多元化
定额
巨幅
应变
排放
接纳
族人
梅超风
死活
石块
算法
股份公司
虚拟
迫击炮
不妙
伤人
停战
元世祖
大豆
孵化
实话
招待
枪声
源泉
琉璃
硬是
羊毛
赵家
钻石
制式
时任
白布
老天爷
茅屋
身手
送往
遣使
长途
静电
鼻孔
三条
会餐
几千年
右掌
张开
指挥官
新闻司
日方
民生
派别
留守
碱性
考卷
胡萝卜
一国两制
不期
代号
传真
元老
女真
宁远
平米
情人
战火
折断
拍手
新教
术语
汪精卫
湘西
理事
理睬
电子商务
硬度
节点
若干个
贫血
借贷
全区
公文
切除
必不可少
捍卫
掌法
推断
新郎
栏目
淤泥
跃上
迅猛
金石
隆起
领导权
食盐
高分
军政府
前部
劝阻
半日
同级
图画
地被
天线
小腹
带给
彩画
技工
深情
着力
经脉
绝技
葡萄酒
西瓜
觉悟
远远地
鐭
铁路线
雄厚
中央政府
刘伯承
宽容
屈服
教皇
有功
有意思
牧场
王大夫
生物体
着想
花朵
荒唐
东路
主义者
主公
人情
冶炼
化纤
受益
变质岩
另行
周密
水乡
潮水
生性
级差
讲座
贵宾
跳跃
银杏
黑海
两部
九五
喧哗
天文学
奶粉
妓女
对敌
尽情
投奔
放置
生产率
男女
筋斗
羽毛球
财年
责任制
路灯
迁徙
马力
中星
主机
卫国
叶剑英
君臣
国道
家园
平反
底层
擒拿
方略
朴素
样品
海盗
爱好者
白万剑
缝隙
航速
衡山
赫然
轛
造价
闪闪
事关
单身
围住
在建
埃塞俄比亚
天顺
妊娠
日内瓦
棍子
滚动
独有
监禁
目瞪口呆
第九
签证
骮
黎元洪
一等奖
一节
不论是
亲爱
医学院
含糊
周到
大街小巷
廉价
敏捷
权势
李家
毒素
海运
灰尘
电气化
盒子
私下
穆罕默德
翻过
避暑
陈设
马其顿
马夫
高处
一万
三枚
主席台
人品
俗话说
兴致
出产
少妇
市里
庄家
浅水
白人
羽毛
脱手
该是
贴金
鉴别
阵势
鞋子
入海
发泄
土著
孙少平
孝子
帝制
心跳
欣慰
沧海
滨海
省市
素来
细小
老总
英俊
要点
进兵
重工业
黑衣
剧作
发源
嘉宾
多所
奥运
就医
损耗
救灾
榜样
樼
武修文
殊死
游击战争
游离
石家庄
签约
绐
苏区
认知
运动会
隐形
下乡
分手
匆忙
回升
开去
拇指
气血
汉堡
沸点
螭
译成
过人
领教
上衣
下一代
东面
圣经
外貌
奉天
妥善
师范大学
惊恐
拖拉机
探春
推销
施加
旨意
暴行
杂种
李娜
次之
短缺
肉类
街坊
西江
跨国公司
迎宾
通讯员
颠倒
驯鹿
一阵子
不可思议
东坡
丢失
内脏
分行
勶
十倍
即日
呭
国门
堂堂
大公
孴
怀念
新婚
楚国
欧阳克
狱中
疯子
神位
粉末
联通
装修
遗漏
采矿
铁木真
马丁
三间
专心
两处
低价
分会
名位
四种
弊端
张三丰
意境
打印
拉丁美洲
拨款
无情
清初
爱护
短短的
突尼斯
第一件
第八
纳闷
舰载
良性
草甸
裸露
西直门
进修
迷恋
邮件
鐐
陈近南
高薪
下楼
不负
乌鲁木齐
关东
刚毅
剩余价值率
厚重
合营
墠
大丈夫
大作
宾客
对峙
尼摩星
尼日利亚
干流
悲哀
氨基
综合征
臽
迈出
迷惑
零点
飞奔
驻守
中年人
为此
亚细亚
公有制
前年
区内
并列
指甲
此书
油茶
液晶
联姻
至高无上
逃亡
逃命
遗传学
金色
鑴
万多
三通
上行
动工
华丽
即刻
卷起
四圈
型式
奲
学子
容器
废物
扇子
星球
更何况
更改
柑橘
欧亚大陆
清洗
男生
终生
统治区
零件
黄龙
交货
俄军
南美
同位素
大祸
季风
孤儿
屯田
探险
柴油机
正经
残忍
石林
笼络
轰动
金陵
顽固
香气
军情
几何学
凤姐儿
北段
喇叭
地道
妸
守军
寡妇
引桥
当兵
愕然
敏锐
文体
无用
明末清初
本意
极致
淀粉
船队
被叫
视力
语系
轰轰烈烈
铁道部
长廊
附加
上乘
两艘
兵法
千方百计
妥当
官人
对联
弘扬
得力
成虫
招标
挥动
方可
构筑
架设
炒作
盗版
竞技
要命
言行
载荷
金箔
阿尔及利亚
麻木
一次性
不留
为难
动向
坑道
拆开
登台
着陆
笔直
经书
身法
限定
马车
伤员
侮辱
北端
即时
太平天国
小屋
屏障
工商局
恩师
揭发
杯子
洗礼
瓜子
真菌
祈祷
科索沃
萎缩
见方
财政部
软弱
不乏
判官
围困
恭恭敬敬
挽回
推力
摸索
田见秀
盘子
绝无
萤石
薛姨妈
该车
京汉
地产
复苏
建起
强有力
惧怕
意旨
成因
报答
燕子
答问
美容
要不是
诡异
该机
贮存
一言不发
两派
中子
亸
人气
优雅
传销
公款
副作用
左派
悗
祠堂
萌芽
视角
连年
金字塔
陪伴
面容
顾不得
饭碗
一两个
保护区
几只
吉林省
巴掌
幓
干吗
摆动
旋律
杂质
永恒
流畅
炉子
狂热
电场
直立
第三产业
纪念品
茯苓
蹂躏
五名
产妇
侧重
六十
内乱
刘翔
前日
园子
地段
夹击
总得
悬崖
抒情
搅拌
旋风
曝光
松软
滑稽
现成
病死
白发
笑笑
练兵
胸脯
许世友
顷刻间
六角
净化
合一
嗡嗡
四季
多月
大嫂
奏疏
好些
实地
富含
弓箭
归结
急切
摩托车
树脂
甘肃省
神州
酿酒
重兵
院门
世事
六合
制备
携手
期货
福晋
老朋友
迷人
金黄
骂人
公理
劲儿
包机
历年
四分
家畜
尤伯杯
引力
张飞
扭曲
曲调
林子
栦
汛期
海港
病房
社团
菱形
阵亡
中间体
先期
凶手
初一
叮嘱
峭壁
拖延
拥戴
按住
时空
档次
知足
石灰
立项
获准
虔诚
行长
货运
贫寒
辫子
风化
停滞
公关
制造商
央视
戣
数丈
机动性
民歌
测验
淡淡的
烦躁
相机
纹饰
速率
香山
麻布
东征
中国足协
临安
二分
五彩
值钱
分校
加油
压倒
叫化
哈萨克
啊哟
导管
抢先
朱子柳
石刻
脸红
自然而然
角逐
辣椒
迎战
适度
门诊
阵营
一瞥
上场
专注
军务
几点
器件
大踏步
定型
强占
怦怦
某人
某某
检举
沉浸
激怒
田径
称谓
简易
考取
血缘
表哥
袁紫衣
襄樊
话音
路口
铁链
伤感
入睡
全权
冷漠
头衔
就读
意想不到
木匠
浮肿
深切
狭小
网球
载重
迟迟
鍝
难忘
交汇
兵士
出行
十里
商朝
圆圈
婃
存放
射门
小区
抗衡
控告
政法
柔和
殿下
洗澡
禁忌
第一期
筹建
般地
茶馆
草场
解毒
贤弟
长辈
丝绸
人民网
储蓄
冲锋枪
决不会
凄凉
各异
堟
宜兴
岩洞
崇尚
成排
机动车
林木
源头
独家
狭义
盗墓
花色
蒸汽
贸然
黑客
信封
养猪
勇猛
原告
墓道
增速
娴熟
打扰
把头
挑起
校外
簩
终结
老头儿
考场
胡宗宪
蓝小梅
跳动
七座
专任
又惊又喜
国务卿
多岁
头晕
女工
威武
孙少安
成书
杨柳
横向
横跨
河网
电影院
皱纹
移交
美国国会
肥胖
荒谬
讯息
集装箱
青藏高原
黄花
一阵阵
兴盛
分局
创汇
北欧
反弹
可观
哥伦比亚
好久
安危
总计
无需
梅子
歌唱
油桐
研究会
胸中
贵人
黄安
万名
不善
与众不同
东门
亦可
出差
北极
十月革命
反驳
唯物主义
国库
垛口
大半
巍峨
战死
撇开
李贵妃
查明
社会党
结交
苇席
茂密
军械
固执
城西
声学
备受
外向型
大风
婊子
店里
总统府
数月
濆
火候
相聚
筹划
胡涂
艰苦奋斗
花纹
蟠龙
触及
过滤
不予
交待
光纤
出言
劻
史册
唐一娜
嘉兴
平板
急促
招架
星光
晶石
澄清
献给
生命力
石柱
神经系统
纯正
英超
蚯蚓
讲解
说明书
赵宏声
近海
追随
通风
骰子
一个多月
三十多年
中立
厅长
合肥
名师
在座
地名
大营
威尼斯
家当
工业区
带兵
心神
招手
攻读
明王朝
杜鹃
核电
死尸
湡
版权
禀告
第三卷
组分
考查
自言自语
设定
误差
身亡
远去
龙亭
不远处
中层
亲临
佛像
反过来
国债
增发
工艺品
巨响
巫山
幼儿园
摸金校尉
未尝
机组
活活
清脆
满地
烈火
用兵
答题
编织
银两
专职
五届
传记
公益
共生
北边
声息
失学
学术界
并购
开挖
忔
折射
文艺复兴
殿内
泉州
相符
粘膜
美国空军
老年
股指
风貌
龙泉
一大早
一季度
一遭
个子
优劣
免除
几千
司礼监
国际法
复仇
天文学家
威风凛凛
尼罗河
常言道
心肠
执政府
抽烟
支部
新政
母本
海区
海瑞
清亮
热潮
物力
甜蜜
男子汉
红宝石
纬度
腐朽
诡计
赶着
丰厚
人头
农户
北路
原定
后部
实为
摊开
断绝
树叶
求解
疆域
石兽
破碎
编号
肯尼亚
话语
阔叶林
不要紧
书信
人权
停顿
国号
图纸
山林
张贴
得不到
扬子江
拓跋
教派
标准化
洁白
热力学
竟敢
繬
苦头
观礼台
铺设
领悟
马士英
三招
主战
众星捧月
作曲家
全邦
博雅
发祥地
撤出
撤离
电磁波
米饭
跟上
身披
长虹
一般说来
下过
丛中
丫鬟
主动性
之二
传呼
南航
大漠
天棚
开启
性状
愈发
旁听
牛车
看书
短篇小说
繁茂
西面
辨认
黄海
出发点
名列前茅
周旋
姐夫
山川
巨石
干事
废弃
愭
戒严
斗拱
星星
杆菌
生机
蓄积量
足协
跃出
铁锅
隋朝
一记
东长安街
乘员
九五之尊
乡试
五更
何种
侦查
信息技术
军机
前门
北风
历史学家
台独
呼延
园区
大连市
夺去
宪政
批发
新版
比拟
法拉第
浪漫主义
液压
碎片
簬
精湛
继承人
老衲
蚕豆
西便门
观望
论点
辩护
零食
震天
黯然
一通
中国移动
产出
出访
小米
开花
息息相关
海产
稀饭
箞
系主任
诗词
败坏
起火
镇静
丰收
信赖
凝固
出租车
史天雄
屏风
巴蜀
年内
性生活
湖边
焚烧
物件
繁体字
觉察
解救
赞美
那大
钀
隐身
雪花
两张
丹田
半殖民地
和解
岩层
帮手
当家作主
影视
心惊
拐杖
掌柜
文化史
日出
残留
海战
牵连
病例
矛头
辈子
靠着
面面相觑
首级
上扬
人手
做起
及早
变故
复旦大学
奔波
定量
换取
民警
生产关系
石灰岩
肚里
试飞
运载
预感
飞翔
飞行器
一盘
代主任
会儿
体型
取经
周二
商洛山
在校生
大船
对华
弯腰
拜访
新文化运动
杀掉
田间
离不开
自古以来
记号
负有
进屋
进度
镶嵌
三世
上海证券交易所
下院
人行
信息网
克拉
八届
冰箱
出资
分给
利比亚
大阪
威望
小马
感人
换成
新村
椾
横穿
理科
田福军
相待
絾
纪要
纵队
练功
诱发
质子
通史
酋长
阿森纳
飞来
麻雀
中国革命博物馆
典雅
前不久
剑术
助攻
和县
国安
堕落
增援
央行
托马斯
改用
新科状元
旅店
无边
村落
汊
波罗
泰来
流星
狂风
相隔
砖头
边陲
连队
重返
钦佩
一班
举手
亿万
几十
出嫁
列出
刹那间
千元
可说是
周仲英
大堆
天坛
夸大
学业
尹克西
当众
懂事
栫
櫘
湗
田园
界面
白云
礼法
线条
罐头
被窝
说不清
长三角
门扉
音节
高职
五台山
公路网
印度教
发热
商学院
基部
夜色
差额
排挤
杂剧
污染物
竖起
童话
绿洲
谈起
黄帝
业界
伯爵
兄妹
古籍
周期性
地委
墦
大陆架
撤军
普法
界线
疲倦
真主
破败
祖右社
第二位
紵
肆无忌惮
诚意
身处
那双
银行券
骨髓
鲨鱼
两枚
傞
城址
大专学校
宣德
总指挥
打扫
晒太阳
波段
濒临
热气
诚恳
足迹
锁定
镇守
露面
魔鬼
不约而同
中学生
分治
大峡谷
孔雀
形体
心怀
憔悴
找寻
放电
数十个
曼谷
极少数
沙河
炲
疏忽
疑虑
盟军
真情
端正
第一代
纲要
讨伐
迅捷
钻研
长篇
高耸
严整
云盘
全心全意
分头
双双
可喜
大体上
大城
夺回
巴格达
心境
忠于
恩格斯
把手
拳脚
换届
探头
机器人
民心
玲珑
田震英
瞧不起
祭祖
红细胞
经由
老先生
谷子
黄瓦飞
侵害
养活
判定
存有
居委会
市场化
总工程师
扰乱
捐赠
探测器
教育厅
断然
构想
梅林
比喻
沉井
眼角
窟窿
背诵
腐烂
衁
麾下
一两
上当
临走
低沉
公路桥
军火
冷淡
出使
副总
十九
卢象升
吭声
多多
大堂
嫉妒
幸而
当地人
推演
朱祁镇
架起
点击
球形
硝烟
组委会
辽阔
逃往
那段
重晶石
销量
锋利
阵线
飞船
上岸
上车
东吴
几内亚
加薪
劳累
升学率
太小
握手
救出
木质
洋行
瓶颈
破灭
秦王
第四次
老乡
超导
退缩
配偶
隋开皇
难看
题型
驻京办
下发
乳白色
亮丽
作坊
南平
哆嗦
备战
大团结
天明
失常
好似
存心
小牛
巡视
扑通
掌心
敬业
欢呼声
腰带
难堪
两日
中国国民党
伯父
伸缩
偏向
冒犯
合作社
喷发
大拇指
尘土
开元
推崇
昆仑山
有失
机载
植树
正殿
民意
水资源
沟渠
照相
璘
瓦罐
盟国
胜败
许久
费力
赞助
赵半山
追踪
郭药师
默然
一个多
亲友
兴办
冻结
十余年
哎呀
喜庆
墙角
外交部新闻司
大胜
大雪
好友
师兄弟
并用
张家
忙活
战功
政府部门
斯拉夫
本场
汵
火控
病虫害
眼珠
肖鸿林
远方
选取
逐一
键盘
霸权
饺子
鸣叫
中线
分队
力道
勤奋
南洋
唧唧
头盔
女队
宣战
应为
开枪
得天独厚
拥抱
时日
桃园
桌面
游击
百倍
粘土
芝麻
计策
调集
跌倒
软件工程
邮编
降到
首选
不甘
伍子胥
俞莲舟
军校
出游
北流
十余
含笑
商家
圆锥形
地方官
多处
婚事
官儿
帀
庇护
开发商
旗号
民主党
火热
白家
看中
管理层
粮草
脏腑
航空港
解题
誓死
让步
议长
轮回
严惩
义气
北美洲
十三个
地质学
多长
天池
平凡
搬运
新闻界
水泡
派出所
烧制
牌位
生物学家
生计
痛恨
进行曲
金碧辉煌
雇用
风筝
一成不变
中指
乘势
交织
佛塔
减产
吉利
后续
唯恐
基数
多天
归公
才华
接任
星火
木牌
李白
江东
狡猾
王宫
老爷子
耻辱
肾脏
自考
茶杯
试管
豹子
责成
辗转
馷
鸡汤
农用
华为
口吻
哈萨克斯坦
国力
国民党中央
大宗
屯兵
工作组
张作霖
抵押
柜台
桥墩
森严
汉城
由此可见
疫苗
自然环境
补助
赶走
金丝猴
雄性
马铃薯
龙王
一应
不休
出力
双向
周身
唱片
四海
大唐
头疼
忠义
意向
房产
检阅
河湖
王安石
矿业
矿区
第三名
葛洲坝
装配
该国
雕像
骤然
两口
债权
农业区
冯玉祥
出马
前殿
寝宫
徐寿辉
得胜
成年人
断断续续
早点
早餐
松弛
果子
焦躁
熄灭
犵
登极
知音
租地
经纪人
花木
虚实
裂缝
赶路
辟邪
闻讯
中国外交部
交出
八五
医治
叶碧秋
土地革命战争
实情
打招呼
挣脱
杜仲
洪涝
游记
空隙
绝顶
贴着
遮住
雷电
伴奏
低空
入川
台地
史实
吴邦国
哺乳动物
奋勇
小提琴
彩电
征税
悠悠
指使
推辞
数字化
旅游者
更迭
朱砂
来华
火爆
环境保护
精制
足足
限额
饮用
丑陋
偏差
出炉
古文
后劲
后院
大路
大门口
失落
庭院
张嘴
怠慢
戈壁
抖动
杂交
清真寺
独具特色
王明
社会化
织物
肖像
覆盖率
试行
辽宁队
体裁
信徒
偶像
光缆
升旗
古物
台海
因故
在意
好手
尚且
尹志平
抚养
摧残
朱熹
梦见
楼房
谋生
踪影
车身
进取
适龄
铁门
铸铁
题为
两性
免不了
全州
勇于
名气
咸阳
增生
失眠
女尸
御林军
戒备
扫荡
报价
敌机
机型
欑
正比
洞庭
炭火
爆破
珠海
穿戴
表皮
证见
走走
鍟
闪过
面颊
中常
优胜
光年
划定
剧作家
北齐
华国锋
卑鄙
县府
后任
商标
埋葬
声调
天使
孟子
就任
尼泊尔
尽管如此
带电
干系
摄入
斗志
本轮
特约
稠密
空袭
经济型
罗汝才
腺瘤
荧光
装作
谝
一包
两队
人世
伊尔
使臣
光景
光盘
八七
农行
华瑞
厅堂
合称
奇妙
席位
库存
应邀
手榴弹
招待所
文泰来
断代
根基
母女
点子
牙膏
生父
电影节
禁令
纸币
色泽
芙琳
董必武
衣食
试剂
起因
辩证法
那场
难于
三星
上路
不得了
乙肝
体温
作响
假冒
做生意
儏
元件
剰
劣势
劳役
嗙
巧克力
平平
得失
总值
战局
攻陷
明史
椤
波音
烛光
犺
空战
简陋
经管
美方
足下
隐私
专业化
二十六年
俱全
其二
军备
小镇
屯子
师资
幼稚
弄清
心爱
无心
有心
毗邻
炮击
独树一帜
皇陵
笔墨
耳目
良机
苍蝇
诉说
贴身
这样的话
适量
逼迫
采茶
陈毅
东林党
全程
只求
和谈
土坑
天监
奴隶主
张口
忙于
执行官
搜查
无量
木棒
租赁
翻阅
艺术品
诬陷
谁家
集镇
青铜器
顣
骨折
北山
堜
外交官
大庆
子弟兵
实时
开关
开幕式
心事
普通人
有生
汉书
沿袭
田野
空地
粈
羌族
考入
药业
蜜蜂
辜负
遗书
郝摇旗
重臣
隐约
马列主义
一曲
中南海
化学家
原则上
参军
增幅
多子
多样性
天津队
尊号
延期
恶意
拉动
散射
新药
早饭
毛笔
水道
矗立
站台
结盟
螅
讲学
讲授
调度
道场
问话
阿尔巴尼亚
高贵
修补
删除
南湘
发酵
回合
国宝
宗族
工事
巨人
庙里
强国
强悍
总参谋长
慈悲
战果
教务
日本政府
明月
构思
活捉
特委
理所当然
生化
礼拜
社会制度
种姓
纯洁
经济林
输给
造化
雪地
顾不上
主宰
偏见
兴旺
劳动生产率
单体
卵巢
商旅
尖叫
政治学
沸腾
清算
相持
纳西族
衰竭
西华
要道
误区
跑道
连成一片
长于
阿弥陀佛
集训
饥民
上院
健美
公爵
册立
北伐军
南京城
床单
微分方程
戏称
技法
搜捕
敌我
文中
机械厂
生理学
直系
知识点
精于
翰林
腹泻
要钱
解放思想
载入
边沿
金子
高山族
黑影
不屑
中场
丰富多彩
久久
云朵
伤痕
军委
十名
发财
婆娘
婏
孕育
宣武门
录音
忌讳
意在
挣钱
改正
无所谓
枯水期
正德
激化
犹太
神韵
筵席
肃清
芳香
草本
葵花
路旁
辅佐
这帮
鲤鱼
丢下
作法
分辨率
努尔哈
商业银行
山羊
悲壮
愈加
憎恨
拳法
改进型
政区
泥鳅
深海
濇
硬盘
磷矿
神通
种质
稿子
第二代
素养
虎门
谋杀
难当
首轮
黑点
七十
不失
亨特
亮点
体面
半句
县里
发病率
史可法
地盘
坡度
外债
太行
失地
尊贵
恐慌
无论是
桃源
樱桃
毕生
热血
知青
稀疏
绕道
给事中
行至
遗物
野味
非线性
骗人
高额
一并
三节
为的是
亚军
党委书记
农田水利
冲虚
凳子
创伤
双打
反恐
后天
启蒙
地表水
大碗
妖怪
姨太太
嬬
射箭
小鬼
屈辱
招募
接连不断
文本
斟酌
王平
电缆
皇子
盲人
第一卷
筛选
精妙
纳税
茶水
赏识
远洋
金正日
青竹
五角大楼
人道主义
合葬
唱歌
嗓音
女孩儿
张国焘
慕名
技改
放养
李云风
棺椁
海参
满载
神像
耀武扬威
耶路撒冷
荒山
触动
许可证
过日子
鞑靼
黄鳝
井口
创刊
大衣
悼念
撕下
新任
有数
本着
梁曙光
洪流
海防
猴头
畜禽
监事会
脸孔
青年人
韩太太
预备役
高铁
两极
会师
传言
台基
坐定
夏玉莲
宗派
年满
总分
按着
有罪
李时珍
炼制
芝加哥
行路
轰击
邮票
重叠
锅炉
颐和园
题词
颤动
风云
一卷
一滴
三百
上部
不凡
中堂
仰天
军种
动不动
单调
同声
嚑
国庆节
并存
手电筒
扫地
文渊阁
新闻网
李子
棉纱
熊掌
熜
落差
身世
难保
鲜嫩
一连串
不规则
中行
五谷
人参
兵家必争之地
典章
内设
军心
冰凉
击退
半路
吵架
声势浩大
好容易
婆子
字符
平民百姓
忎
意欲
环岛
登记日
督促
竞相
第二炮兵
绝非
老将
获利
蒸气
调味
财税
贵阳
跳投
错落
雄蕊
马尾松
业内
二十一
何尝
刺杀
副职
动物园
化学工业
发起人
告状
哈萨克族
廉政
情趣
成群
欙
流言
绝缘
职高
西班牙人
转眼
银河
颜洪烈
业主
两颗
乘车
亚平
入关
决断
化学反应
发电机
受热
名头
吸附
垎
声名
客房
山门
平整
庣
当阳
恍然大悟
数理
时数
时速
柱头
棉纺
水族
沦陷
混淆
湘云
献帝
直觉
窒息
评定
踉跄
重现
间断
万个
二十一条
冬瓜
几块
古田
吊脚楼
夹杂
学艺
开凿
正南
煽动
皮质
禁军
笑吟吟
细嫩
袁时中
褢
远近
金黄色
长矛
魔头
中流砥柱
传球
免于
兔子
再见
堂屋
岭南
巴东
巴比伦
张义民
往回
或多或少
无礼
果园
染色
氧化物
甲骨文
相宜
第一台
编译
网络游戏
萝卜
薄膜
裙子
调用
贝母
负债
迳
隔开
顶住
世界性
乾坤
卡拉
喊叫
嘴边
学期
宝物
害人
岩盐
建华
成品
成色
挫败
李铁映
残暴
老前辈
艰辛
衍射
要不然
质感
贵重
辨别
迎娶
进犯
连带
铁钉
附着
陆羽
三步
义和团运动
停步
减退
副官
受贿
可疑
周六
国企
坚信
实质性
微型
政绩
文昌
暗算
朝野
棕色
棤
气囊
深谷
满身
焦黄
眽
短剑
短线
置身
老佛爷
蜰
都统
银针
面皮
世代相传
丢掉
九十
何用
党风
凌空
台风
唯心主义
大件
婶子
嫌疑
尘埃
应声
效用
昭君
涉足
炫耀
立功
粠
觉着
贵州省
过时
闯进
青蛙
不朽
严刑
主将
于长江
众所周知
刻本
卖出
占优势
可行性
圣彼得堡
大麦
宪兵
山岭
布袋
得手
患有
战船
打动
放纵
旗杆
林黛玉
水性
点心
留有
稳健
穆念慈
第三种
粗壮
编导
考官
膥
补血
诸般
赍
赔款
辩证
钓鱼岛
雨季
义勇军
伊犁
倾心
假日
关押
听觉
吹灯
大巴山
头颅
好办
存亡
愪
打人
拨打
捉住
无缘
晋代
欣喜
气压
沙俄
灰褐色
炼油
牧民
物事
田福贤
电能
私有制
笔试
罪过
英国议会
茶庄
衬衫
万世
两组
临终
为政
党政军
军纪
半斤
古时
各门
合影
君权
周日
咀嚼
大帅
太阳系
失陷
安全性
建筑师
扫雷
拔剑
文学史
替补
染发
氭
波斯湾
波浪
甲状腺
瘽
胃口
菏泽
迟到
钱财
雷声
一如
不愧
乐曲
乒乓球
仿照
其内
凝结
刘絮云
制糖
刻意
副将
劳力
取材
受损
同盟会
后门
告诫
圪节
姓氏
帆船
彼得
情不自禁
意料之外
拉根尼
散步
无赖
枢密院
款项
武大
澳门特别行政区
焚毁
白嫩
硅谷
英寸
讲习
负荷
赤字
跳舞
过量
近代史
连日
逍遥
遵照
长阳
鱿鱼
中大
何心隐
余脉
假若
军容
冷水
击溃
十次
多种多样
如实
左腿
平壤
影像
微妙
总动员
换句话说
政工
枪弹
榴弹炮
温馨
热带雨林
百货
网吧
艺术类
贡品
走入
金莲
铁掌
镞
阳性
险要
非农业
黑格尔
鼓动
二十七日
五丈
传教士
入库
关照
到期
前哨
升任
卢布
去路
处方
奸贼
威名
嬮
忍心
悄声
悄然
成名
抗病
换来
搜寻
放宽
文化教育
棋子
每每
水军
流速
炉火
用到
白银
破解
突起
窗子
红楼梦
联结
蔗糖
象牙
连任
上风
乌桕
人民政协
养牛
冲锋
去取
哈里
宣传部
富强
平方厘米
开水
挺身而出
新颖
方解石
晴雯
曲子
术后
潜心
环流
筽
自由主义
蓝图
褠
证券报
走开
辏
铁路桥
降雨量
隐秘
预示
风力
且慢
东州
丫环
伪造
体贴
克罗地亚
其子
冒充
卷入
吕布
哀求
唾沫
宪宗
屡次
巴拿马
幽灵
徐霞客
情调
抗震救灾
接壤
木盒
桥下
歌词
武警部队
殷勤
火柴
熔岩
用材林
畅通
直观
笑意
笢
管事
网点
聚焦
跳水
铁青
一着
代为
医务
午后
原文
右腿
后台
呼吸道
回扣
回落
复原
并称
床边
引信
挑衅
数里
期刊
朱厚照
枃
注明
深水
灾民
熻
疾驰
第九届
綔
蜂蜜
迪斯尼
送礼
金庸
首发
驱赶
万头
中西
了结
产业资本
伯母
体外
倒地
停泊
六届
关外
吓坏
待定
明智
李四光
核算
棩
汹涌
湖中
灵敏
炮台
眼睁睁
第一章
第三章
第十届
经济基础
计划经济
遗嘱
防腐剂
餐饮
三王
三道
三门
不须
信用卡
冲洗
出具
出奇
刘体纯
取缔
埋藏
头颈
妄想
寻觅
左脚
巨型
扁平
打中
扣除
新路
机上
用地
登场
约会
自制
解说
身价
风雪
一定量
一桩
上船
两幅
古人类
只用
哮喘
奥妙
好奇心
岳家
帷幕
延误
惨白
晚清
汇入
河岸
油价
火腿肠
皬
福康安
秦安
秦腔
第二种
肃立
股份制
血浆
过硬
金钱豹
针灸
鼓声
严正
仕途
会址
保养
军衔
加害
发音
名著
吴仪
周一
大头
大官
废话
录取率
惊心动魄
截断
拱形
撶
攻下
旁观
横行
治愈
滋生
漫步
炼丹
矮子
矮小
石雕
磷肥
祝福
绚丽
编码
罢休
融化
资财
铅笔
陈旧
静默
鲁智深
一瓶
位子
公事
内侧
分出
前导
剧情
北冰洋
口服
口语
向导
坦然
外力
大牌
岋
平缓
年幼
府上
异性
强弱
归国
所作所为
救治
旧制
正视
每秒
沉香
混杂
游子
特大
男朋友
秘诀
简洁
良药
迫于
酒吧
錧
马鞍山
一帮
五道
京西
作曲
借用
几道
出生率
卧薪尝胆
反常
号角
团员
堵住
复发
复线
审视
山势
巧遇
成败
战胜国
扑灭
执教
抢夺
效能
斯密
既定
未及
架桥
棋手
民法
沉静
河湾
渡河
火速
狐狸
生死存亡
简明
终极
编组
草木
贝壳
鲥鱼
不在话下
中共中央政治局
会意
余处
几分钟
出乎
外加
大观
委托人
威慑
定制
宠爱
懒得
手表
打鼓
拼音
止住
河里
猎人
磁带
老伴
胡须
蚂蚁
起降
运输量
静悄悄
骚动
高昂
会审
军委会
出奇制胜
受体
吃掉
唐贞观
堡垒
增量
好几
孔道
客机
庄园
归侨
影壁
核动力
椭圆
武装部队
狭长
老龄
股数
胆固醇
衣着
要塞
详尽
贴近
部将
鎭
集资
颂扬
黄一彪
下场
乱砍
于城邦
信托
凉拌
刻苦
募捐
吐露
四门
姩
学家
崄
平起平坐
径自
恳求
惊惶
惶恐
新近
日程
显而易见
杠杆
确诊
积水
粽子
肥大
致癌
茶几
蟮
见见
议定
跨国
金光
顺势
黄豆
鼎立
一清二楚
两晋
争辩
二十多年
你老
停当
叫喊
含蓄
品尝
奴仆
如意
实习生
幕府
征战
打法
报社
搀扶
撒谎
服务员
此法
此种
清单
渔网
湿度
热忱
爹娘
皮肉
祈求
票据
第三纪
第二级
繁盛
脸面
自负
蝌蚪
证件
迷宫
顾忌
骗子
一周年
专电
依稀
全集
几百
出头
出没
出版物
分管
十几
叔父
各型
失声
小桂子
情欲
执意
浙东
混合物
熔铸
牱
猛攻
省内外
神智
积聚
联谊
蒸汽机
谢家
遗忘
铜器
霹雳
预案
风浪
下沉
侵袭
公安部
刘家
化验
发射器
发脾气
商周
大院
威廉
家产
打探
正气
毫升
江流
牌照
王长顺
畲族
纸条
经文
缓步
衍生
警报
许许多多
象山
超前
遗存
锡伯族
长山
间隙
陨石
青衣
风景线
鲜有
三只
两用
习惯于
从头
再创
凭证
呜咽
外祖母
天性
孙婆婆
安定门
师大
庐江
建安
引来
所到之处
披上
既然如此
核实
水解
汽油
河东
流放
涗
清明
溃疡
罗斯福
老伯
血清
装束
装甲师
飞架
马里
丁汝昌
三叉
上铺
串珠
乌鸦
交接
从严
从属
仿效
体形
侵华
偏南
公孙止
劳工
吃喝
国事
年后
怜悯
想念
执政党
核查
止血
永和
江醉章
皮毛
石灰石
翻滚
背鳍
蔡元培
车长
逃生
重担
钓鱼
陈富忠
颁奖
飞快
高超
龙宫
专场
二七
估价
典范
出其不意
划归
功勋
包扎
北周
只当
周瑜
失守
宫阙
射手
岛主
应酬
忠臣
批示
教练机
无数次
日光
智商
棍棒
毋宁
求见
沐浴
游玩
漆树
潜入
灵感
点点
确信
磨制
竹林
策动
绠
老婆子
膀胱
订购
说到底
走兽
重演
销毁
陌生人
骇然
世界观
仿制
体弱
傲慢
农牧业
前头
卷烟
发誓
吞并
好喝
安庆
岗哨
惨败
成像
架构
牧区
独联体
珍宝
蛋糕
血流
袈裟
谢烟客
醒悟
革命战争
颈部
飞身
丁春秋
东道
九曲
五种
仁义
典籍
内务
南宁
大奖赛
头骨
年限
张海丽
恋人
情操
李汉俊
柳如玉
棶
水雷
洛桑
烘烤
蝙蝠
衣物
谢富治
近处
配有
采花
铜牌
非得
一村
上调
不敢当
九阴真经
二十四
亚里士多德
克隆
农夫
刚果
加倍
叹气
后金
喘气
塑性
奏章
宣统
布雷
店小二
延津
弹道
录像
患病
拓宽
挨着
探究
数组
施琅
无机
木棍
汲取
海岛
渗出
漫画
猖獗
红眼
肩负
胡椒
钞票
阴沉
领事
马到成功
上天
余万元
侍女
偏僻
入门
册封
前端
司法部
味儿
夏威夷
大洋洲
委托书
实例
打井
指控
放慢
斯里兰卡
晚报
晶体管
暗道
杀戮
杆子
武备
水体
溂
火花
缰绳
趣味
逗留
骚乱
鱼翅
齐国
东非
交互
保罗
俺们
军训
冲散
凤凰山
刘华清
后头
吻合
售价
商定
喀什
喧嚣
备有
外公
大修
太宗
异样
张罗
当头
扬言
提炼
放肆
断言
时人
暖流
李岚清
歇息
淙淙
渡口
牢房
白俄罗斯
相比之下
知名度
石英砂
编印
肉丝
蜘蛛
行政部门
行辕
谈不上
轮胎
迄今为止
醇厚
铜矿
门将
不知所措
世锦赛
两把
交响乐团
光照
南山
古文化
后背
字型
徐徐
忧郁
承办
数招
旌旗
普通话
本期
熠熠
爽口
碰见
空降兵
篮子
红海
群山
胆怯
计委
诺基亚
谷六仙
迷迷糊糊
面对面
鱼头
三局
下回分解
不畏
人工湖
八中
关内
冯公公
凑巧
制取
千百年
厂房
历法
原址
含意
呮
固守
好听
孙玉亭
定性
小摊
尾部
布拉格
心血管
撴
晶莹
有别
标识
民主人士
现代人
瓶子
第二节
红火
老道
肚皮
色情
血迹
轻蔑
达西
运到
选派
郎君
顺从
高雅
上床
不以为然
个性化
中国大学
侨眷
司空
后市
哼哼
土族
坦诚
射电
岳夫人
庆贺
忌惮
拉扯
挨打
敲门
文坛
架上
死囚
漫游
研究室
稳固
肝炎
裂纹
过不去
醴陵
鍧
钢板
钻入
闻名中外
面团
革命党
餢
万多公里
严酷
乡土气息
于二龙
传教
做官
决议案
凡事
初等教育
华沙
去向
喉头
喝彩
土城
复杂性
奇珍
女神
工贸
当务之急
微分
微米
披甲
整车
暂行
暖和
殖民主义
汤若望
活佛
深渊
满面
漂浮
琚
运输线
造反派
霎时间
三点
僵硬
全球性
冬至
分娩
刘姥姥
十道
厂里
各家各户
四十年
大鲵
头号
孙夫人
开明
强者
恭喜
惊叹
放在眼里
放疗
日本自卫队
民建
水洞
浅层
爱国者
翻开
老太爷
自然灾害
航天器
蒸笼
袁绍
说错
起先
通州
郡县制
陆路
陵区
高坡
中能
半边
南边
四角
外籍
宙斯
宪章
打通
抑郁
振臂
文化部
极小
林平之
溥仪
灵活性
炮轰
痛心
碑亭
胡风
蠕动
计议
贫道
跌落
邓有米
三下
个儿
中阳
临界
乘着
事前
五峰
依山傍水
充电
分泌物
叙事
吃酒
器具
国语
女童
子叶
属实
常青
底面
快船
星期天
更深
毫不犹豫
沉积物
河畔
满心
熼
爬行
留神
白旗
皵
等价
老化
胜仗
袜子
车轮
转弯
迁居
钑
银奖
附件
陈潭秋
限期
一寸
一站
万事
五门
京都
傻瓜
八宝
出海
南昌起义
原子能
取决于
同门
国家旅游局
土块
复明
大好
如林
妗
字头
对岸
帘子
张家口
思虑
惟恐
摊子
无言
早些
最后通牒
松开
极富
渗入
王兆国
电阻
礼品
累积
约旦
纵向
结为
编程
胆小
葡萄牙人
诱导
迫不及待
难忍
难点
领略
风度
飞速
人民武装
冲杀
出家
分期
剩余产品
北京地区
台前
喝水
在乎
垂帘听政
声望
太重
嬭
富豪
小张
战法
景物
榘
殷正茂
气力
沙包
满头
牛马
特殊教育
王昭君
生产量
科教
第二章
筹集
襄樊市
领队
万吨级
三院
上岗
中枢神经
主队
俔
修习
入主
全队
公孙
内蒙古自治区
出栏
古罗马
可言
地空导弹
士卒
大娘
太保
太史
宝宝
对阵
开胃
引得
懡
打猎
拔牙
招致
捷克斯洛伐克
摄氏度
摸摸
无常
时髦
有钱有势
机车
李闯王
油气
游戏机
独立性
玹
用油
电动机
电子邮件
痉挛
真经
神灵
紫文道
纺纱
苏鲁克
袁宗第
警觉
转增
边际
颠覆
黎巴嫩
不计其数
不问
乙烯
合十
回乡
大通道
天文台
奢侈品
完婚
山墙
帻
庆幸
庙宇
所为
承袭
投靠
敬仰
无益
杰作
殷梨亭
激荡
炒面
牛筋
狂奔
知情
算盘
红糖
维新
表妹
表扬
衰变
裂变
订单
诱人
调遣
达摩
近现代
钢厂
餐桌
不管怎样
倒塌
兴山
出新
区区
南纬
夕阳
安全局
崚
平底
平素
并发症
应选
开时
恐龙
打成
明太祖
显微镜
景致
款待
洟
浸泡
游荡
演示
潜伏
烟火
白果
盛名
破烂
穿透
第一家
粰
美妙
美观
臭豆腐
补救
装卸
钾长石
长条形
随同
需求量
黄原
一丈
丧事
亿年
伞兵
传导
佣工
倔强
偌大
党支部
几处
凶狠
出钱
勤务
南水北调
周家
回转
回鹘
宝藏
寄养
惬意
据称
方以智
斾
死里逃生
潮汐
片刻间
特赦
盛会
禽流感
竟陵
第四纪
等价物
老娘
老李
舒畅
苏宁
赛前
银河系
长堤
闪身
一夜间
一天到晚
中国共产党中央委员会
九章
五天
亿多元
付给
凯旋
初始
到头来
县域
听候
契机
定下
实权
寓意
幇
意料
控诉
撒拉族
教书
星夜
有机物
次要
江城
江段
浮动
痛楚
登陆舰
破土动工
科普
脊髓
英美
要旨
路程
蹲下
防腐
陷害
隔绝
鲇鱼
佛罗伦萨
保和殿
倾覆
兼容
办公楼
发愁
发自
可望
各司其职
向忠发
地基
墨鱼
奥斯曼帝国
屡屡
年老
扭头
护法
捕获
棱形
樊一翁
正副
歼击机
清静
灶台
电工
睡梦
简史
纤夫
约莫
纯白
绅士
自由化
苏门羚
西装
蹄子
转达
过关
逐出
郭中姚
青草
韵律
高家
一拥而上
一款
万斤
三件
上万元
事事
人民共和国
先例
克林顿
军装
出缺
前程
卫冕
卷宗
可取
士大夫
太郎
安哥拉
展望
心地
成天
打伤
插手
放行
散货
敬畏
文史
更替
极点
栨
楚文化
概貌
此起彼伏
河沟
炸毁
真切
紑
紧缩
繁殖力
翡翠
芭蕾
训练团
退位
银元
马场
麻痹
七届
三十六
三部曲
不祥
两场
中西部
书店
五座
京族
便当
元气
八十年代
减免
刘芳亮
加勒比海
千亩
半封闭
县令
变色
古董
吉普车
奋战
子房
实惠
快捷
性别比
手忙脚乱
报表
拼搏
整风运动
棕黄色
永固
献身
疏松
第二卷
米芾
背包
自居
范文程
补选
装载
观察员
译本
诗句
躲开
远古
违纪
铜钱
锣鼓
音乐厅
鱼尾
万户
两三个
中国工农红军
中美洲
买者
京山
估算
光彩夺目
兵权
历次
发生地
取向
合葬墓
国贼
地坛
外衣
宅子
我心
戴尔
招牌
拥入
挖出
李为民
桐柏山
正午
毛冠鹿
深层
熟知
爽快
珊瑚礁
祭司
编入
网址
英亩
蚊子
评判
谋反
远距离
配殿
金鲁生
镏
陈云
馐
两样
买来
俅
分付
勩
升至
反叛
品格
因特网
塔吉克族
多公里
大熊猫
定时
宝马
审计署
少不了
帖子
徭役
挤出
插图
效忠
教法
有史以来
李永波
枪杀
核弹头
求情
演绎
用功
白纸
监事
矿物质
绰号
美术馆
而今
莎士比亚
蜜枣
行刑
衰亡
陡壁
高利贷
中建
九宫山
二十二年
互补
仡佬族
低廉
儿媳
农民起义
出品
加息
动能
千卡
土地改革
好端端
姑苏
婚后
孙传庭
宗人府
定名
宫内
家庙
家里人
封建主义
履带
德行
怜惜
抗日民族统一战线
抱拳
挤压
文化层
施政
有色
松散
棘手
武昌鱼
测绘
火堆
猎物
真话
磨损
礼服
种群
紫外线
考前
耗资
肠道
船舱
草坪
葡萄糖
行刺
转折点
金山
附中
驴子
二龙
呼喝
声援
外经贸
多边
大增
头皮
审判权
导体
总成
报警
指路
排灌
支行
方城
检讨
棚里
港湾
犁头
私自
空姐
第一分
绿松石
肉质
肛门
肮脏
胰岛素
虎山
血色
谦虚
转机
银川
雌雄
三万
两对
产销率
亲情
亲政
光临
全天
刷刷
反倾销
可恶
各条
唐太宗
奇才
宇航员
宽敞
岂非
强敌
惊疑
折扇
教员
新春
杂草丛生
权分立
江浙
渲染
煡
盯住
胡自皋
自转
英雄好汉
藏书
逆转
遥感
郊外
郑成功
与会者
书桌
乳腺
二环
供电
党章
六路
反省
吊舱
咸蛋
嗛
回味无穷
失传
山影
工信处
数千年
最高点
本校
民盟
清凉
火电站
眼界
睙
结合部
花儿
花山
菜汤
萧条
装扮
词语
诚实
辐射量
郑家
鏌
阿昌族
陪审员
陷落
风向
不知去向
中山路
低估
何苦
侀
全军覆没
凤山
后魏
吸入
唱名
四散
坦率
小山
工程局
徐家
急救
慷慨激昂
按说
新桥
明朗
极地
气恼
求救
沙湾
活生生
牵涉
甲午战争
祥和
简便
绕城
编修
药物学
荷枪实弹
覆灭
访华
转战
金元宝
金刚石
铁甲
银票
阅历
龙船
不详
任意球
倒转
儒学
公交
兴高采烈
化妆
单向
后主
后生
告终
嚣张气焰
复印件
大喊
天宇
女兵
妓院
娃娃鱼
字眼
巡航
巡视员
摄氏
数十万
整风
文职
极目
查阅
欣然
武英殿
汇编
油菜
熊猫
独具一格
用电量
私利
老挝
耶律大石
苏打
蕲春
西宁
解围
贪官
通宵
顽固派
飞刀
万台
下垂
丝绸之路
人代会
住所
佛经
使用者
决非
几十斤
劳作
反对派
叫好
台站
商船
国美
在城镇
外校
奸臣
屋内
性病
怨恨
恶毒
排成
斑竹
新兵
方圆
无理
明文
本分
杀毒
毙命
沉寂
沧州
涉外
点火
煤气
王莽
生来
电子战
相异
真假
红卫兵
缺失
落得
螾
西北地区
认输
议政
送走
邪恶
钟声
鞯
音响
麦加
东至
使馆区
光源
出人意料
发怒
取暖
古墓群
吴应熊
哨兵
堢
墩台
大乘
好坏
实德
张家湾
强硬
感知
扁圆形
操场
教养
新陈代谢
旀
板凳
模特
欧亚
水产业
湘北
火箭炮
特技
督查
硝酸
种植业
继任
胡人
诞辰
语言学
霸主
青葱
顶级
领导人员
不自禁
乔治
交响曲
京九铁路
亿千瓦时
兵火
出山
古诗
各色
吴淞口
嘈杂
大内
大叔
失手
市县
幽幽
徐海东
惊诧
战略性
斑斑
旅途
旧闻
杬
松滋
沈国放
测评
石棉
社交
秦基伟
第一线
管教
老兵
肉鸡
鄙薄
鍩
长寿
青海省
鞈
预见
马蹄声
高高的
鸽子
齿轮
一尺
一把手
不可一世
东安门
为啥
九尺
二门
亚科
人类学
价值量
传染
伴侣
侯方域
僧侣
养鸡场
分子式
单薄
发难
可信
吃亏
堂上
多出
大杨树
寒气
封口
小品
少有
思绪
托福
拉古
敷衍
来京
椰子
楠竹
欠缺
此项
波及
混蛋
温热
爱国人士
电站
相间
碾子
竖立
筹措
纪委
苏北
血统
规程
触角
试射
该项
载人
退后
钱塘江
鸟儿
三声
下巴
东宫
两广
丰满
主任委员
人声
休克
充军
几张
北城
回游
基本工资
外电
孟浩然
安稳
峰峰
布尔
惨遭
所部
接入
撤回
文工团
机智
松花
枣阳
楚庄王
欺凌
求和
湿热
牧师
王者
白带
破绽
神经元
纪年
细作
统制
绵羊
翂
自由自在
茶树
蒽醌
规章制度
财团
辽河
远眺
透出
闭幕
陆军大学
陶醉
青木
领到
马道
一动
上旬
专程
东西方
中华书局
举世闻名
交警
以备
冰山
分区
印度人
外层
导引
尝尝
局限性
幼时
收录
放牧
文学家
朝鲜战争
毁灭性
滋补品
漆器
热泪盈眶
猇
秒钟
粡
西门子
西陵
认错
谷底
豆类
通城
长满
隆隆
韦香主
一章
三民主义
中医药大学
付款
侍从
偏要
储藏量
先帝
共用
军力
分枝
前任
北伐战争
启程
嘉庆
大使馆
家家
小史
峣
延庆
开战
悲观
成亲
我市
指指
捣乱
文教卫生
新婚燕尔
无影无踪
旧城
朱光亚
果蔬
根本性
梁子湖
民办教师
盘中
竹园
竹山
粪便
编排
耕作业
致病
药膳
该科
该院
说不得
豪强
购置
选料
遵从
闯入
陈政委
随行
鼎盛
主旋律
体能
何鲁丽
光合作用
全盘
凄然
凶恶
利物浦
卖掉
参展
多达
失衡
峁
巧合
抱负
散开
文汇
施用量
曲酒
最重
朝鲜人
棺木
橡树
毒气
氳
永新
永福
汉英
热呼呼
牛头山
玩意儿
甲醚
痊愈
矿产地
童装
第四章
粗细
细微
肾上腺
芰
荷兰人
西口
贞观
递减
配制
配色
铁证
陈世美
陡峭
饮誉
高一
魔王
鳜鱼
鼓掌
丁卯
不均
乱七八糟
二里头
余叔岩
倏地
农家乐
创下
加速器
动词
十五道
华容
名曰
吴香香
墓穴
实德队
客货轮
小石桥
得体
微不足道
悬念
截住
扇形
投掷
抗美援朝
抽搐
招式
捕获量
数百年
斯洛伐克
晨报
朝鲜半岛
李如松
枝叶
欧拉
残废
江底
燕京大学
特派员
略微
砂岩
祝愿
福星
第一座
篇幅
绌
胡杨林
西非
语种
贱人
送入
道姑
阿拉
附和
一月份
中土
书城
二氯
五县
产业园
仙女
作对
印记
原产
原来如此
取笑
叛变
古镇
否决
呼应
唐宋
囚禁
回廊
围城
土台子
地球化学
塑像
大厨
大腿
太公
太极
必要条件
恍惚
恭候
托人
挂牌
放屁
文昌市
无名
星际
期满
朱邦造
杀出
松花江
柳大华
样本
梯度
櫙
次序
比试
浮现
消亡
温家宝
父女
界定
皇太子
盐酸
硅灰石
糖果
緢
结尾
育种
语句
逃离
避寒
铃声
阿姨
雕栏
鬼神
鲌
鲍春来
默契
鼻涕
齹
上阵
东莞
中统
举例
倒闭
即令
吓唬
吴楚
外事委员会
多功能
多变
多期
天神
太尉
女友
学分
宏达
尖端
尹吉甫
引诱
必胜
情意
搬迁
攸县
教士
教诲
昏暗
月均
未了
欧共体
汪洋
汶川
泥灰岩
温饱
湘军
照相机
王树声
生活资料
疄
皮日休
省籍
粳稻
绱
老二
肥皂
能耐
质点
超额
酒席
铁器
闲着
颜料
两门
严加
丹麦队
停产
僵局
冲天
十二五
名闻遐迩
后湖
圈套
基本建设
堵截
大洪山
安葬
家丁
对内
庵堂
式样
引着
德语
怡悦
惩治
扬起
抽调
按捺不住
放逐
新字
明器
櫧
此行
水草
法律委员会
洪凌波
电饭煲
百亿元
第一面
联苯
节能
要冲
递交
针叶林
黄骅
一缕
不无
企盼
何方
先于
全家福
公人
几百斤
分属
分担
包金
包银
医保
南港
国宾
多瑙河
大兴安岭
天安
太行山
夫人道
奇观
引出
情怀
折扣
接上
救护
有幸
有所作为
杨大哥
杨建华
查理
楼阁
母体
水肿
烤鱼
牙口
王任重
甜菜
石龙
第一节
红安
经济带
艺术节
董家
规划师
评级
辍学率
退兵
防火
颁行
风沙
齐达内
三峡大坝
上议院
不失为
丹江口市
举出
买买提
人杰地灵
伦比
保荐
俨然
倒好
冷落
出世
利刃
加装
卖国求荣
印证
受访者
名士
名望
启德
外婆
尯
山庄
常遇春
幽深
彩印
排练
接轨
楃
横沟
武汉队
水源地
洞窟
湖北省委
烤鸡
申包胥
畅达
福气
绝招
维和
群落
致电
航天飞机
花木兰
莼菜
薪资
觅食
认识论
跨过
邯郸
金俊武
陆冠英
饴糖
骨架
傻蛋
冒烟
出家人
前天
区委
十八日
华中地区
博得
发票
受害者
大象
妇科
安顿
宜黄
富水
工农兵
师师
席卷
惦记
抗辐射
救亡运动
晚餐
标签
树丛
汉朝
沙子
猛禽
留情
直管
简短
糯米粉
纯净
自旋
藻类
誓言
许嘉璐
调蓄
超音速
转载
辩解
退让
郢州
采伐量
饔
驿站
一桌
互为
五中
人种
他杀
任凭
供应商
公案
军工
冰期
列位
别扭
割断
北湖
卢森堡
双桥
哇哇
嗅觉
声波
复活
外国语
大红门
头球
安内
归州
思量
成文
成方
抱歉
探望
推选
放流
放进
整日
新洲
有意识
朝臣
标的
毕升
江海
沙特阿拉伯
温室
火箭弹
甄志丙
白玉兰
皇岗
眰
石榴石
研讨班
租金
纷争
纸张
老马
耳机
葬礼
融洽
西方人
论著
试用期
轰然
送回
郧县
铜镜
长阳土家族自治县
高新区
鸱吻
上身
不懈
主料
丽江
乏力
五项
京九线
任免权
伊利
便秘
信息产业部
入伍
共同体
分封
分部
刘志军
南漳
卫校
古琴台
史方
周五
喝采
域名
奥斯卡
平方
思科
手指头
打响
拦河坝
日本国会
春风
杨维
殆尽
汤化龙
流动性
涉嫌
渐近
游历
滑雪
炒锅
生态学
白洋
盐度
秭归县
空投
立陶宛
第一峰
第一条
精魂
缺席
聘用
读物
赋役
还给
阅卷
阵前
难关
集散
音像
马口
高能
一九六二年
七日
三等
上品
人流
冲积
划一
刺伤
变废为宝
可怖
司马义
因果
大寨
大湾
太阳年
奋发进取
如愿
嫳
干重
张扬
彭真
微软公司
抗逆性
报知
掌上
摇手
教众
新奇
无尽
无能为力
日落
明玉珍
曲面
毁坏
泰州
焊接
玉女
第三天
简体字
繘
腹痛
英山
莫过于
血型
认购
评议
贪图
路甬祥
遥控
铺筑
错觉
阁楼
陈锡联
雅虎
霸王
领头
驱使
高速公路网
鲶鱼
黄永胜
三顾茅庐
两个凡是
主教
京广
伏明霞
八字
切块
午餐
半头
半部
南郊
喜讯
器材厂
城东
姜恩柱
婄
小林
巴西队
惩办
散水
新颜
梯子
欺诈
浇注
浦东
涢
渔船
石膏矿
空洞
篇章
红莲
级数
织布
经络
罗家
自给自足
草泥马
虾子
谬误
豫西南
赐予
连环
闅
鱼汛
鲩
龙乐豪
下放
乡政府
乳头
二郎庙
俞正声
修正主义
候补
储油构造
公安部队
凝聚力
别有风味
动植物园
匣子
千吨级
古山
合兴
商用
固城
季风性
学海
守备
宣誓
宽松
择优
操持
收下
方面军
星座
枝江
气球
汤用彤
河鱼
玩耍
田秉毅
电网
百花园
知己
穿行
立案
簯
纪念日
老河口市
聂海胜
荆沙市
莱比锡
虚伪
见闻
调皮
资质
轴瓦
运往
运载火箭
近郊
通山县
邰丽华
鄂皖
雌性
驾车
鹤峰
黄土高原
三子
三鲜
下功夫
中国证监会
中止
丹江口水库
任新民
余平方米
兴山县
准许
判刑
北斗
原意
同居
回锅
复查
外甥
多万平方米
多胎
大冶市
奔赴
媚外
广度
庤
引见
当官
悉尼
手下人
挂念
捉拿
探听
攻坚
敬意
无条件
春游
曾宪梓
本色
来势
梅雨期
氧吧
江南西
游击战
炒制
猜疑
玩家
百头
盖茨
盗贼
科威特
突破口
红安县
缠绕
老同志
英山县
融为一体
袁宏道
触犯
论语
追兵
里程碑
预警机
香辣
高喊
东盟
两口子
何椿霖
佛山
保康县
僵化
公办
冲刺
几根
刀工
北京市政协
印度河
厉无畏
反面
叛军
周逸群
商贾
回老家
堰口
多吉才让
嫘祖
宗朱厚
官位
小白菜
崎岖
巴东县
布鲁塞尔
念道
戯
撬棍
整洁
日语
曲艺
武穴市
气节
水利工程
江道
河势
清白
煤田
照亮
燃油
王亚南
瓦工
盖子
端坐
第三届
羽毛扇
联邦院
胡春华
脑筋
自律
襄渝铁路
谭嗣同
谷城县
车票
辣椒酱
金锣
鉴定会
集市
青色
麻醉
万民
万镑
下颌
东风汽车公司
二十五
亲口
余亩
六期
共同纲领
分外
副教授
加筑
化身
卓著
四十五里
基准
如其
委婉
密密麻麻
寻访
小女孩
峞
干贝
幼儿
广布政
庙街
强壮
当阳市
招来
捣毁
提包
插口
改动
无暇
星罗棋布
月刊
月湖
杜审言
枣阳市
检察员
永久性
油砂
洋溢
澳洲
爵士
王承恩
王英凡
玛瑙
生长量
直指
真味
突如其来
竹山县
纺织厂
结核
耸立
自已
蒸馏
被评
诅咒
越王勾
这就是说
透明度
邻邦
鄂豫陕
钟子期
闭目
飞去
骨肉
高法
鲜品
麻糖
黄明生
一扇
丁石孙
上校
下棋
乌鱼
九线
云梦县
五峰土家族自治县
任性
保康
傅志寰
初衷
利亚
利器
刮水器
动画
募款
单兵
发疯
古隆中
只此一家
吉佩定
周继红
和丰
和平共处
嘶哑
园林式
土耳其人
备考
奠基人
奥秘
她家
好莱坞
宗庙
实效
干面
开垦
弄堂
户外
执法权
接待日
文峰
斥责
新沙
曹化淳
杨守敬
氨化
氽
沙口
沙鱼
河头
洋务
洗脸
深造
牢记
猎头
现身
用具
砖瓦
社会保障
罪人
胭脂
自动步枪
自尊
芜湖
花灯
花粉
花菇
莲肉
蕲春县
襄渝线
西天
贡茶
赖以
远安县
迟缓
造像
顶多
不怎么
乔红
交货值
俘获
六中
几杯
刘和珍
刘大响
刘醒龙
创业园
南襄
双湖
吉新鹏
名特优
吴国伦
吴定富
周全
国务院令
型谱
塞尔维亚
夏斗寅
大本营
夸奖
妇孺
市郊
幽州
应城市
开发型
摆放
晚间
朱丽兰
李建明
步子
残存
氱
水产局
汉口站
江汉区
海军工程大学
熊召政
程志
素材
网具
聚合物
舟曲
药库
葛洲坝水电站
车城
过招
送行
郃
郑功成
长衫
阳新县
陈再道
魁梧
黄土岗
黄陂区
东坡肉
中国政协
乐舞
二十万
传人
侵权
信春鹰
停放
光子
全村
八成
农林牧渔业
刀美兰
北河口
叫嚷
后河
周代
周正庆
周礼
大悟县
夫人城
头等
妖魔
小女
建始县
归附
徐天川
成思危
改装车
放眼
文东武
时不时
曼联
木业
权威性
松滋市
桌椅
正色
此话
死守
比达
油饰
洁净
流淌
涌入
满口
点火器
焉耆
熊十力
牧刘表
猴头菇
王聪儿
白夜
科技园区
竹乡
竹溪县
筋骨
肺癌
脂肪酸
脉搏
脚跟
苦练
药房
袁行霈
谭家
软件园
道教协会
针刺
陈章良
陶驷驹
雨量
顾秀莲
高检
鳊鱼
一步步
一盆
万线
三自爱国
东西湖区
中程
买房
令狐大哥
任贤齐
体虚
余米
佛教协会
侠义
兑现
全神贯注
冯之浚
冲撞
凸出
刘积斌
利川市
北京市劳动人民文化宫
升迁
卢瑞华
发布权
史籍
叶君健
地毯厂
堤垸
奥林匹克
孙金龙
安息
宰牲亭
宽带
导出
山羊肉
嶯
店主
庞德公
弘治
恶鬼
成交量
扎伊尔
扫除
把持
抗日救亡运动
振动器
措手不及
搬出
救国团
文选
春义
权贵
李小双
李志高
李树文
杜铁环
杨国庆
杨景宇
杨献珍
林文漪
梓树
气旋
江猪
沉船
洪湖市
浓重
消防
深重
清早
湖北省物价局
湖北美术学院
灰陶
热能
焦枝线
玉米棒
王必成
王立平
王茂林
盗窃
石象生
磷肥厂
神农溪
程贻举
终日
美术字
考究
腾龙洞
荆沙
荔枝
菱湖
蒋正华
许智宏
贴现
贾亦斌
金利
陈宜瑜
隔河岩
韩先楚
香炉
鱼松
鱼花
黄埔军校武汉分校
七八个
上篮
不列颠
不计
东宝区
东湖开发区
东连吴
两万
中国人民解放军军事科学院
停车
入党
内务司法委员会
军需
农场主
出事
别国
办好
十四所
十字军
千秋
升腾
南口镇
南振中
南漳县
古月
合唱团
吨粮田
哲理
嘉木样
埋头
城郊型
基督教协会
堰桥
备降
太晖观
好日子
孝感人
孝昌县
季梁
完成率
宣恩县
家门口
崇敬
嶉
广水市
引水
张国光
彩虹
彭克玉
彭桓武
志军
惋惜
慌张
抽签
斜眼
易贤忠
本体
李珊
杜宜瑾
桂鱼
植物体
歌手
殷海光
毛发
汉阳军
沙咀
沙市市
活性染料
流产
涂长望
湖北省财政厅
激光器
玉泉路
王佐书
王怀远
王梦奎
石广生
科林斯
算作
红光
统治权
联网
胡光宝
胡德平
自力更生
舒惠国
良知
苏轼
袁宗道
西塞山
西德
让给
谢皇恩
贡士
迁入
过错
速生丰产林
道家
邢世忠
郧西县
钱运录
银海
陈圆圆
陈昌智
陶伯钧
高台
麻城市
黄梅县
上爬
下陆区
严义埙
主治
久远
九州
二七路
二等奖
于汉初
人形
亿株
任克礼
优孟
侯义斌
傅振邦
关广富
划出
刘明祖
刘精松
化学元素
十多起
单果
南岳山
卢邦正
原籍
可比价
吉尼玛
吴基传
周坤仁
周纯全
咸丰县
嘉鱼县
壬子年
夏赞忠
大寿
天主教爱国会
天心洲
夷陵区
如来
姚期智
安邦治国
宋教仁
官绅
定点
定论
宜城市
山自西
差遣
干椒含
干粮
庄公惠
张志坚
张新宝
张明楷
张毓茂
张继禹
徐复观
徐志纯
悬挑
感性
承接
振荡
捐献
敬佩
新洲区
时会
时装
曲目
曹燕珍
朱相远
机主
李元正
李新良
李重庵
来凤县
杨业功
杨可世
杨国屏
杨摩西
杨晓波
枝江市
桑国卫
梅新育
欢快
欧阳
武汉职业技术学院
武连元
汉川市
汉江全
沈思
河子
济南市
熊有伦
王利芬
王学萍
王宁生
王家耀
王尚荣
王建安
王新亭
王永炎
王玉珍
王维城
环境保护部
白昼
皈依
矩阵
石牌岭
礼节
祝铭山
禁捕
科教兴市
秦国
立于
立法者
第一罐
第十七期
等额选举
米公祠
粉蒸
糖色
维系
羞愧
老母
老莱子
聂凤智
肄业生
背负
胡贤生
茄汁
装卸量
西朝东
解放公园
谌家矶
谢伏瞻
谢佑卿
谭元春
谭家渊
谷建芬
质朴
赤壁市
赵可铭
起始
超声
转速
辜胜阻
迂回
连续性
通城县
郭凤莲
郭振乾
郭超人
郭锡章
酒保
金炳华
铁山区
铁戟
长江三峡水利枢纽工程
阉党
隗福临
韦家能
马春花
高家岭
鹤峰县
黄瓦朱
黄石港区
丁大旺
七星鱼
万学文
万学远
万寿羹
三千粒
上官洲
东升镇
东湖新技术开发区
东湖高新技术开发区
严晓频
严智泽
久美
乌云其木格
乌拉圭
乌日图
九阳
九龙
习家池
二柱
二楼
五横
产业链
任茂东
伊斯兰教协会
伍增荣
伍家岗区
何晔晖
何晟铭
余少群
侯张信
侯长安
保贞堂
俞小凡
修承天
倪家塔
倪岳峰
傅自应
充斥
八万斤
公众网
公凸
兰世立
兰湖
关路圻
军令
农业与农村委员会
冯云乔
凉爽
分团
刘亦菲
刘冬冬
刘卫东
刘合炳
刘国正
刘子厚
刘应明
刘振伟
刘湛恩
刘石泉
刘道玉
刘雁飞
刘雪荣
刘黎敏
别必雄
制动阀
化军
区四园
区政
十一五首年
十八岁
华容区
华辰春
单果鲜
南岳尖
南河头
南河洲
南洲子
卜学亮
卫铁
危品
古三国
古华容
古长堤
叫唤
叶如棠
叶海峰
吉象
吉象牌
吕忠梅
吴少勋
吴德馨
吴燕生
周传雄
周培公
周家湖
周少波
周森锋
周玉清
命中率
咸安区
唐一菲
唐良智
喻家碑
喻林祥
团风县
图丹
图道多吉
地板厂
声乐
夏佐全
夹攻
奉恒高
姚来泉
姚湘成
姜声扬
子童阁
孔祥复
孙家拐
孙必干
孙晓群
孝南区
孟尝湖
孟庆南
季家嘴
学苑
安七州
安陆市
宋照肃
官田湖
宜都市
宝业
宝海
审问
容水量
尉沐昕
小河口镇
尹汉宁
尹集镇
居文沛
山寺镇
山粟林
左传
广东核电集团
庶民
庹宗华
庹宗康
张业遂
张佑才
张培刚
张学东
张振仕
张昌尔
张昌平
张智华
张桂华
张润斌
张维国
张美兰
张舒媛
张蓉蓉
张龙俊
彭清华
彭红艳
徐克俊
徐家岗
徐小凤
徐永清
徐立华
徐高栋
恶狠狠
成清波
戴证良
掇刀区
援引
改由
改观
政协常委会
新开铺
新江
方小顿
方李邦
明太子太
明文禁
明武英
明礼部
普圣寺
曾为楚
曾令良
曾子墨
曾都区
朱家渡
朱邦复
朱阳湖
朱雅琼
李三春
李从军
李作荣
李儒雄
李大双
李宗翰
李家墩
李建群
李慎明
李新觉
李明豫
李春亭
李绪鄂
李翊君
李行亮
李连宁
李金早
杨兴富
杨叶湖
杨同嘴
杨国梁
杨家台
杨家潭
杨德清
杨晨晖
杨柏龄
杨波坦
杨臣刚
杨苗洲
杨铁心
杨长槐
杨闻孙
松林山
松水桥
松江
林兆枢
柯约瑟
柱洞
柳湖坝
标准计
栗林嘴
桂质廷
梁子湖区
梁孝宣
梦鸽
楚源牌
楚纪南
楼式木
楼阳生
樊启鹏
樊城区
欧阳祥
武敦儒
武昌站
武汉东湖新技术开发区
武汉东湖高新技术开发区
武汉站
武汉经济技术开发区
武麻
段思思
比划
毕家塘
毕家荡
毛如柏
民院路
水果湖
汉丹线
汉施路
江夏治
江家岔
江波渡
池宇峰
池月堤
池际尚
汤洪高
汪习根
汪潮涌
汪爱群
沈春耀
沈辛荪
沙洋县
油榨
津南
浠水县
涂黎曼
潘粤明
潹
点军区
点穴
焦柳线
照应
牛皮
玉田寺
玉皇剑
王云龙
王以铭
王伊锋
王作荣
王冬生
王利明
王太岚
王宋大
王家墩
王家岗
王梅祥
王祖训
王祥喜
王若涵
王茂润
王诚汉
环境与资源保护委员会
珞珈
生物圈
田承忠
田玉科
田长焯
田长霖
由藕池
电离
白云村
相逢
瞿家湖
石华堰
石安
石寿永
石静宜
硚口区
神皇洲
福银
秋审
科隆
秦克湖
秦家洲
秦属南
秦置南
秦钟英
童庆禧
第三十一次
米业
粟田湖
纳孙夫人
经江波
罗亚蒙
罗家墩
罗汉
罢官
羊子庙
老张
老洲岭
聘为
肖家岭
肖海亮
胡佳
胡厚昆
胡康生
胡雅歆
胡黎明
自营权
艾春荣
花坛
苏慧伦
范恒山
范蠡庙
茅林口
茅箭区
茅草街
荆南府
荆宜菜
荆府
莫艳琳
蒋方舟
蒋树声
蒋硕杰
蒋红星
蒋远华
蒯祥同
蒯鲁班
蔡宏柱
蔡家潭
蔡文静
蔡甸区
袁姗姗
袁思怡
袁汉民
裁军
裴高才
西塞山区
西陵区
计划生育率
许志琴
调味品厂
谢丹阳
谭子拐
谭家洲
费胜潮
贺一诚
贺炳炎
贺龙来
赵家条
赵家湾
赵钟泉
蹊跷
边孤石
连心桥
道特
邓家岭
邮科院
邱四豪
邹远东
邹高阳
郑李辉
郑肖庄
郭天民
郭有明
郭柯宇
郭永宏
郭生练
鄂三州
鄂城区
鄂菜鱼
里海
钟朋荣
钟阳阳
长岭岗
闟
闻世震
阮成发
防洪
阳三蒸
阳府
陈东升
陈佳贵
陈兴瑜
陈大民
陈家湖
陈家铺
陈币桥
陈建生
陈木森
陈秀榕
陈艺戈
陈难先
雁湖
雷家沟
青木河
韩宁夫
韩高湖
颜邦屏
飞往
马家棚
马林工
马湖村
高凌风
高陵镇
魏兴郡
魏复盛
鱼原
鱼氽元
鲁桂成
鲁磨路
鸽子花
麻辣酱
黄二州
黄古蒿
黄家湖
黄家潭
黄州区
黄州菜
黄康生
黄月英
黄格选
黄橙子
黄知真
黄莲湖
黄金湾
龙合玺
龚泽艺
专员
东华门
两倍
任弼时
伦理学
供水
全岛
加纳
司马懿
吞噬
喽罗
嘲讽
器皿
坑洞
坚定不移
夐
大德
大步
太医
学风
定于
封建主
小河
帝位
心动
扔下
抑或
拜谢
收买
村里人
梳理
樿
淋巴
港元
突击队
署名
胡青牛
艳丽
茶园
衍生物
识字
透镜
颇具
万千米
为所欲为
主干
作好
俄国人
信誉
全过程
公立
关爱
兵丁
十五日
各具特色
呬
咚咚
堣
快点
恶斗
戎装
抢占
政治经济
期盼
滈
狂妄
王侯
王重阳
电解质
砖石
种属
经略
船体
苛刻
装机容量
负伤
逃难
陈新甲
顽皮
不可不
乡里
公开赛
出外
出示
加固
各县
各式各样
嘀咕
国势
国民收入
国际性
大病
宽恕
富农
小手
就职
开平
弽
惩处
拖欠
撞见
改写
施礼
楼顶
正版
海盆
混沌
滞后
照旧
爱惜
玉带
盟友
看样子
短命
称道
第一道
羞辱
老老实实
衷心
裁减
麻将
不力
书上
书法家
亲笔
优越性
信道
北半球
哈佛大学
嗓门
囚犯
国政
多日
奉旨
居中
恕罪
愣住
投票权
拍马屁
接班人
援军
正向
洿
祖母
第七章
第二名
约翰逊
肋骨
至正
请客
谢杏芳
足见
踊跃
过节
退路
钢刀
阴茎
飞过
高价
高官
鸭绿江
下意识
买办
全景
决无
出租
千金
可否
呆呆地
商丘
城市化
好消息
层出不穷
平庸
庄稼人
拍打
时隔
显见
楷书
次子
欧几里得
沉沉
流浪
涨价
漠北
猛虎
王小兰
王道
琼斯
社员
空旷
第二条
胃肠
荒原
药方
藏身
订货
认清
达标
追寻
退去
鐏
长相
门边
九大
五尺
体育馆
公差
创造力
剥落
劳动资料
原始社会
发亮
合伙
同日
吐鲁番
响动
唆使
喷气
奥巴马
客流
庞丽娜
忽悠
惊骇
所得税
政客
无权
昨儿
画派
禅杖
美德
肾功能
胡适
评论家
诚然
越冬
边远
迟钝
选购
黄纸
万方
下官
临头
二十五年
从政
便士
公众股
原野
发烧
地主阶级
坚韧
夜幕
失业率
巴不得
带宽
张望
彩票
微粒
恩人
恰恰相反
想见
愉悦
愶
成行
担架
摄像机
核能
欢庆
武则天
流落
混入
激进
烧香
玩意
省里
称得上
端详
胡思乱想
致死
藏有
行当
误导性
谦逊
贝海石
过河
道谢
门派
雷霆
鳎
二十一年
仰慕
侄女
光速
六位
击毙
刘正风
功名
十二个
十余丈
向量
四五
大气层
尼日尔
开进
归入
征兆
总而言之
惊吓
懊悔
拘留
掉头
推移
播出
攻略
文臣
新生儿
易经
朱漆
杀入
李中堂
柳树
残破
比方
求学
河内
清查
牛市
牵动
甩开
白细胞
白血病
白酒
肺炎
西双版纳
谅解
资历
鄱阳湖
酸麻
驾驭
黄河流域
下丘脑
丹青
全天候
农民工
剧照
北郊
吴佩孚
孙悟空
官制
小车
心满意足
总工会
扎营
指针
旗袍
旧石器时代
检索
榴弹
汤姆斯杯
油灯
浓烈
炴
甘愿
瘟疫
破口大骂
破门
社会学家
绩效
自私
苦于
该党
追杀
邢夫人
里昂
闪光
音译
顶峰
顺应
风速
上皮
中科院
位移
入狱
参政
受刑
吃苦
合唱
吓人
商会
善恶
国际队
基督
境况
处以
复试
小妹
底座
彗星
我辈
把守
拍照
旧社会
构图
激活
火龙
照看
特此
狠毒
省得
稳妥
突袭
组装
老爸
考古学家
联邦德国
西柏坡
许诺
赤手空拳
陕甘宁边区
非正式
三甲
中国画
人质
体液
免去
公司法
准噶尔
几项
刀枪
前列腺
剖析
十岁
变幻
古尸
启奏
嚫
地底
大便
失效
字号
存储器
小队
常州
庯
得逞
念书
怒不可遏
想方设法
手头
敓
旋涡
晕倒
棉袄
法宝
清人
眷属
绝境
统考
缓存
缺氧
胡耀邦
脚踏
脸庞
议事会
走动
郡县
里里外外
高加索
万震山
下方
两列
丰盛
二十岁
债权人
几十万
分隔
刑场
创设
前胸
十日
单项
原子量
受众
吼声
善行
回击
家喻户晓
岂可
年产量
怀有
总能
恒河
排泄
明明白白
本科段
杂草
李瑞环
条子
杨尚昆
枪口
欠身
牦牛
特异
留住
社论
第三世界
纸烟
经得起
绝灭
萌发
言辞
训斥
详见
醒目
重围
量子力学
阴暗
降雨
除掉
雇员
上上下下
二中全会
交情
伍廷芳
侧耳
做客
公孙胜
六中全会
内侍
内膜
几眼
分立
劲风
协奏曲
卓有成效
反贼
响彻
囦
圣上
多重
孟加拉国
开赴
恍然
惊惧
指教
插嘴
支书
攻取
无敌
条文
梦境
沥青
湵
烧杀
特制
猛扑
现阶段
电讯
皇马
稳住
空荡荡
立宪
第二轮
紧要关头
红绸
老哥
自主权
薛传薪
讲演
许昌
论战
话费
贝勒
转眼间
金元
阻塞
阿波罗
饭后
黄蓉笑
一百个
上层建筑
两千
个数
二十三年
人力资源部
冻土
几遍
勒马
南麓
发兵
君士坦丁堡
唤醒
夺目
字典
宗法
实则
岳母
性欲
手心
护照
拆迁
搬家
收音机
暮色
暴徒
染发剂
正派
海河
烟叶
王妃
电磁场
白痴
硬着头皮
精绝
纠葛
美国国务院
脑门
膳食
行署
观摩
近在咫尺
通缉
铁骑
长诗
门阀
阳台
颠簸
饭馆
香精
魏巍
龙井
乌黑
人丛
伊万
俸禄
僧道
内参
刘玉尺
双层
听罢
吵闹
呼和浩特
咕咕
天命
山野
底盘
建设性
弱势
恶贼
折叠
换装
摇摇晃晃
暴躁
有赖于
楄
液态
滴定
点中
用布
眼圈
穿梭
竹子
第一颗
第二步
粗暴
精神病
织造
经销商
老式
脾胃
自刎
该行
车夫
逼真
避难
郠
顷刻之间
须知
一开
不为过
专权
二道
从容不迫
伤痛
假说
关岛
冷酷
凝重
升华
升空
单方面
印欧语
变压器
古玩
史前
后唐
啀
啐
噩梦
基岩
塘沽
复旦
多年生
天宫
姥姥
密林
导线
性感
拜年
据点
摆摆
支气管
支线
敌意
晦气
河西走廊
泪珠
混交林
王后
疾苦
目不转睛
窍门
立国
舍人
花白
花鸟
衙役
裁定
迷糊
造福
遮掩
重创
锐气
不顾一切
两匹
中生代
五中全会
任由
借机
充裕
公家
军事家
农具
准备金
几率
出入境
出息
友人
品味
坐镇
壮士
委任
寓言
小可
居士
平遥
幻觉
张宗琪
弹簧
徽州
怪人
戒律
挂钩
改元
暗杀
横幅
步兵师
水师
浐
海湾战争
煎熬
物业
珠子
病床
矮胖
第四节
综合国力
考题
耕耘
脱水
苍老
荡然无存
践踏
连结
遇事
闲置
隐隐约约
题写
马德里
七八
七里沟
买方
五指
何如
公用
出题
包天剑
去掉
坦桑尼亚
外流
天鹰
婉转
字画
容积
小肠
开朗
当之无愧
情结
投射
收起
新编
旧金山
晋级
暗淡
洗劫
洗手
流通领域
源自
班级
短刀
笁
第二届
精良
纪念碑
缠住
老太婆
耗子
胁迫
苦闷
著录
西南地区
诗经
起居
迷茫
通告
野菜
音乐家
高一功
一纸
上古
专人
五星
休养
便衣
修正案
入土
内里
农副产品
前秦
剧中
印第安
危亡
回忆录
围观
土木
外壳
大酒店
好感
妫
孟加拉
差错
床头
度量
座舱
异同
恼火
手提
攻击机
故人
文帝
旅游胜地
无畏
暑假
暗藏
橈
欓
气喘吁吁
没关系
男士
皮球
睾丸
禅师
空空导弹
窗前
第六章
粘性
精简
英明
荒地
螺旋桨
配位
铁匠
韦一笑
三维
上房
不要脸
不见得
世界大战
中国联通
主动权
二百
充任
光是
几招
压根儿
厌烦
受苦
君主制
哎哟
喝醉
土改
大专院校
天井
女排
姊夫
嫂嫂
宜人
展览会
悖论
情谊
憳
挑剔
摔跤
撤走
敦促
方法论
标明
梁子翁
步步
殿堂
涂抹
溪水
王瑞芬
甲醛
电灯
稻米
粉身碎骨
紧缺
老一辈
背脊
自小
至极
获得者
菠萝
谈何容易
赵云
过失
鍢
鐧
静静
鞭炮
骏马
一肚子
上街
下决心
不济
凤天南
分列
到手
十几岁
参差
口诀
可贵
吃药
哈密
壮烈
多一些
夜空
大振
大捷
婅
对得起
常规赛
打赢
搭载
斺
本钱
汇兑
画廊
窡
脸皮
躲闪
辨证
送达
鑵
附有
雅克
顶点
黑豆
一整套
不经意
东北军
也门
五万
亚麻
交通工具
何者
冷门
分批
刺激性
加油机
助长
升温
大中
密谋
寨主
尿道
己方
师爷
心得
惨叫
战利品
挥发
摆布
敌国
旗子
月季
杂技
林震南
桥身
棉衣
止不住
溃败
满文
瀃
瑧
电动
相称
矩形
矿井
矿工
破损
缅怀
缠绵
贫乏
资源管理
路途
选举法
通货
顿足
马三俊
鳞片
一目
不法
两份
互通
低潮
倾诉
僵持
六级
出境游
出过
受用
商品生产
墍
委实
抢险
摄取
改型
数步
有期徒刑
杀敌
此案
比尔
气管
玄武岩
环顾
甬道
田归农
短小
离职
红晕
纽带
罗斯
聊聊
艿
苦战
蛓
裇
西沙
要领
谕旨
赵一荻
违者
郝大通
金瓶梅
铁丝
银行家
阐释
险峻
一瞬
交易会
亭子
伤寒
何太冲
使唤
全球通
兴隆
军部
劝告
加利福尼亚
加蓬
喜好
奉承
奴家
守御
害羞
寄主
巴拉圭
德化
总编辑
战斗部
手续费
打狗棒法
投篮
报销
披挂
捂住
摩尔
新房
旇
有效性
朝服
汇聚
流体力学
浩劫
滔滔
牵挂
皮层
缴获
肤色
舍命
花草
英镑
讲课
质问
超群
轻盈
进食
选中
金针
钢管
防汛
雷锋
领衔
饭桌
一心一意
三重
不相干
中央政治局常委
人际
会面
出狱
列传
劲敌
千瓦
午夜
咒骂
坃
填充
夏商周
天堑
奸淫
姑且
山后
师范学校
徐以显
德里
忘却
情状
战战兢兢
手套
手稿
搠
正常人
消化道
漂流
珍藏
白鹿原
石室
碎屑
端庄
纯熟
纳米
美分
臣子
蛤蟆
这一来
遥望
金蛇
鐞
青春期
青石
马鞭
黄道
下地
中人
中国人民银行
乘马
作证
全副武装
全歼
关羽
冲入
参预
叛逆
商务部
四中全会
士族
大发
女朋友
妇联
学制
小朋友
屋外
平淡
忽而
打乱
授课
放映
无与伦比
晴天
有加
木制
松林
汕头
海尔
濅
火枪
特异性
献出
离散
美的
耕田
莫不
虚构
蟸
衰弱
装填
西西里
触发
财主
贵金属
迷失
透视
道义
那马
鐙
驱除
鼠标
龙舟
不一会儿
丧生
主营业务
久而久之
云中鹤
做工
儿媳妇
分身
刺绣
劳德诺
千家万户
司徒
名录
呯
咆哮
品行
堬
宋青书
家禽
富饶
就近
岛内
开学
强忍
彂
心理学家
手册
抗洪
排序
木星
海报
海浪
浸透
玉兰
男孩子
瘦子
百般
硬化
祸害
索马里
老太
设宴
请假
谚语
贫僧
鐑
钉子
隆冬
七天
上限
书记处
五百年
佛法
八名
共建
分析家
券商
剧种
匮乏
卫春华
厌倦
名校
后妃
吸毒
坏死
多亏
媲美
安歇
完蛋
寺里
巡捕
工党
庋
怒吼
成婚
招安
拦阻
无私
朗诵
束手无策
枪响
核试
汉王
沉没
淹死
濓
狭隘
猴儿
王国光
男友
祖上
第二道
繁复
缩回
聚众
致敬
英国政府
西藏自治区
证人
诸事
跺脚
轮式
辅导班
这伙
野猪
鎻
钱之江
门板
阿拉伯语
阿拉斯加
高丽
鬼鬼祟祟
鬼魂
一中全会
不正
举子
乙醚
九卿
互利
休假
全真
写给
军售
冰块
半封建
印章
哥儿俩
国际货币基金组织
大顺军
姨妈
宋庆龄
忏悔
急躁
恶性肿瘤
想象力
扣押
接踵而来
无为
未定
梦幻
楋
波涛
洗净
深邃
清史
灵机一动
特困
环形
疏通
社会民主党
竷
笑眯眯
羚羊
脸蛋
舒展
诗意
谷城
责令
超标
过长
进山
酒壶
锯齿
长成
队里
高炮
一例
三岁
严明
中式
中欧
主旨
书影
了得
五卅运动
人迹
公证
六朝
共存
准时
吓倒
告示
四条
大乐
大帝
大惊失色
头绪
孙承宗
季节性
审时度势
巴结
悄悄的
慈禧太后
报国
拉拢
择业
教育局
新疆维吾尔自治区
方始
无异于
曹丕
有误
枸杞
次生
殖民主义者
测算
热血沸腾
玉山
申花队
相容
真实性
碧绿
终南山
肉眼
规律性
角质
说了算
遭逢
门生
降温
韧性
三个代表
上吊
丑恶
九品
伏兵
优待
传承
侠客
停靠
光顾
全校
变相
后堂
商品房
啼哭
回首
安阳
宫颈
密室
对答
工件
心甘情愿
必要性
排行榜
接种
摇篮
曞
曹云奇
核弹
每块
河间
沼泽地
海地
深思
潻
狼群
王希烈
看得出
眺望
禽兽
稀罕
索取
缂
美联社
群众运动
老区
自个儿
莱茵河
营业部
营生
蟋蟀
迎合
那会儿
锦旗
饭铺
香火
骡马
一本正经
专栏
中国区
亲家
仓皇
令尊
信息系统
光波
光绪帝
冒险主义
割裂
十四大
土丘
坤宁宫
垂危
墓碑
天象
妙计
室外
尽心
屠龙刀
带状
延缓
愚昧
承载
摇动
普普通通
杞县
横亘
毅力
毛皮
涚
珟
由衷
相干
章启月
管线
系统工程
脱险
花厅
装药
近前
违抗
邓肯
金华
长处
顷刻
默认
万公里
不顺
两架
两片
为官
二千
亚美尼亚
先天性
凭着
双星
反对党
发号施令
发审委
叞
名言
喝问
嚬
官兵们
宣抚司
察哈尔
导电
很早
很难说
性急
抵抗力
新军
武职
汇成
消遣
淋巴结
王九思
王权
疏远
考点
联接
聪明人
脏器
臀部
花铁干
营运
蕴含
行家
诊治
跳板
还击
遂行
金沙江
阻隔
青州
靠山
风尚
骇人听闻
骷髅
不俗
东家
争气
交还
侊
先师
公国
凛然
功德
加州
半步
去除
吸纳
园中
增补
大伯
大抵
安南
尾翼
山沟
幼小
建桥
张永红
强暴
彭连虎
慈宁宫
景山
林伯渠
武当
注目
源源不断
相伴
神父
稀释
空手
篱笆
糟蹋
缩减
虐待
血红蛋白
许多年
购房
转正
输血
迎风
邢台
郭沫若
鏇
集散地
雷阵雨
领海
骨质
黑洞
两周
亮度
但凡
借助于
出师
初三
单单
原件
双亲
召唤
右脚
吉米
哈哈哈
噪音
四爷
地区性
复出
天龙
客栈
幕后
当夜
恐怖主义
悠闲
惊天动地
慛
提携
教官
木柱
核准
歇歇
武林中
汉唐
沙洲
沙特
炵
燃气
独到
白菜
百科全书
着眼于
神医
私事
精光
苗若兰
西风
赌场
轮换
轻装
遗弃
避孕
饱满
三丈
上交
上楼
中央纪律检查委员会
五次
代表人
传遍
体育运动
使用权
儒生
几层
力主
单于
园内
增减
大个子
大法
孝顺
宣抚使
将令
尚可
广为
庄上
康德
徒步
战前
手工业者
托管
拍马
持刀
攫取
收盘
斯文
无政府主义
果品
毛细血管
水声
燃起
玩儿
看准
磁化
种师道
空缺
端倪
第三位
第十一
绿林
美国国防部
考试院
莫名
血糖
行踪
行车
诗作
超额利润
跟进
陕甘
雾气
青藏
香水
一席
一百年
一瞬间
中曾
主食
买下
二元
二老
余部
佛祖
光度
党人
党籍
公孙谷主
共鸣
几岁
分红
半球
听懂
呼救
喷射
四尺
圣火
左岸
开放式
张君宝
徐世昌
心肌
怕人
悜
愤恨
抒发
文廷式
旅行家
本子
灌丛
疲软
直流
竦
组织者
胆量
苍天
行宫
被告人
谷主
责怪
赌气
辂
问及
阎王
非金属
马达加斯加
鼻梁
一无所知
不公
伸长
低调
关东军
前朝
友情
受阻
各式
后山
唐家璇
四壁
国名
图腾
坦白
外戚
孙女
寒暄
寝室
尸骨
开场白
待人
微量
心旷神怡
忘掉
执着
扶植
探亲
撤职
星期六
朱笔
机缘
江边
法国队
淡化
玩弄
理想国
祖坟
笔法
第五章
粘液
练武
罢市
街巷
说谎
谋划
责难
赫鲁晓夫
起用
轻薄
长白山
闭塞
随军
黄牌
黄牛
不单
严严实实
代言人
仰望
佩戴
先人
公鸡
军饷
凑合
凝望
出汗
剿灭
南开大学
卡特
双刀
名堂
喜出望外
国大党
大惊小怪
安史之乱
寒光
岑春煊
弱者
拨开
推倒
提供商
散落
斜坡
新生代
旗舰
杀头
松手
海豹
清香
潜能
片名
物理量
狠心
理论家
甘薯
生活费
眉目
瞳孔
研习
窗帘
罗小梅
美术史
脊背
自民党
英联邦
行贿
被褥
越野
进退
鄙视
酸软
长长
陈名夏
难逃
靠拢
面板
须臾
上班族
个人崇拜
五官
人氏
保重
克里
免疫力
占卜
商宝震
商讨
喀麦隆
如期
妹儿
始祖
得当
怎么着
成都市
扔掉
技术性
捆绑
无罪
明晃晃
朱仙镇
朱祁钰
杀气
林肯
毛文龙
沉降
河滩
法度
洖
洪亮
浓烟
海宁
游街
湖州
濈
焦耳
甲基
男儿
穴位
简略
算命
缩写
网队
美国队
虎口
载有
辜鸿铭
迎春
银行卡
门路
雄姿
集群
顾金标
马鞍
一声不吭
上朝
不二
两间
义愤填膺
二品
低落
假话
利用率
动辄
回声
城里人
多一点
大兴土木
大意
奢华
女方
宀
宋远桥
山脚下
建树
引向
德育
忚
恪守
悊
悬浮
惨烈
战犯
扫帚
排行
摄政
擂台
放大器
故事片
日寇
机灵
枪支
柏树
柯达
法门
洛克希德
津巴布韦
流利
浅海
溪流
灭火
烧成
热衷
猴王
疏散
秦桧
緰
经常性
胸怀
脱颖而出
自个
舍弃
舱内
调来
谢若萍
败仗
较之
述说
遇难
闲谈
非典
领导层
黄埔军校
龟兹
两碗
五位
亲率
从未有过
价位
入阁
兵书
创维
动武
匪夷所思
原创
命脉
国境
备忘录
外传
大中城市
天宝
定都
小钢炮
工钱
年长
当家
征伐
征讨
慕容公子
收藏家
文联
权衡
殉国
猓
电离层
略带
白丽娜
睫毛
耗尽
自我批评
般若
蒙古国
表征
触怒
谋略
费时
跃入
逼人
魏清慧
上映
不配
与非
专卖
丛生
两米
买入
借给
光复
公馆
兴致勃勃
剑桥
双水村
发布厅
取食
可好
台大
地下室
基座
大会堂
大坝
头子
嫦娥
字符串
孤单
小贩
小鱼
归宿
念念不忘
打捞
拉丁文
排球
摆设
斩断
无望
更具
核反应
民权
沙土
游动
特使
犯罪分子
玄武
用语
电厂
皇朝
短促
礼乐
第十
簺
组织部
细细的
老高
胶体
能级
自助
苦心
莫桑比克
血泊
衬衣
裁缝
赢利
辉映
那根
长足
闸门
雷击
颜面
风韵
一刹那
上访
两河
九天
乱石
今儿个
仿真
低微
先烈
光束
加速度
动量
华美
南疆
夏日
天仙
小店
尖刀
山丘
开场
成功率
拳击
掌印
掩埋
揭晓
散乱
时至今日
松山
栬
横冲直撞
歌功颂德
法名
洞开
物理化学
理直气壮
祖大寿
神明
肥力
致密
蔑视
要犯
豪迈
贼人
车队
辽西
金冠
锐利
闽西
陈永福
预备队
饮宴
下半叶
不言而喻
中央书记处
主攻
云梯
俭朴
倒像
倒腾
兵制
冷气
协约国
叓
取舍
受罚
可逆
周三
咱家
唐玄宗
头巾
字儿
封存
小觑
就诊
巴塞罗那
庄客
廉洁
强奸
房舍
手书
执事
折回
抚慰
报业
报应
抬手
敬酒
斑点
新旧
无济于事
根系
歌谣
沈绿爱
洛阳城
渔人
热衷于
燂
球门
留恋
百里
盛世
真挚
禁毒
藐视
血肉之躯
街市
踏进
躲过
通知书
霸道
鲁莽
三杯
中小学生
书架
五世
分派
前台
北坡
危险性
反导
叶二娘
叺
同名
名利
含泪
宣武
屋檐
恒定
憧憬
未婚
本周
柔情
格斗
检疫
江阴
清热
清秀
潕
爪哇
牧草
狂欢
独裁者
率众
现时
玻利维亚
留出
税率
站点
管子
绝无仅有
维吾尔
缃
舰炮
苦涩
英格兰银行
荡漾
荷马
行之有效
行政院
西学
西安事变
谎言
跪拜
跳伞
轻纺
造船厂
避风
重病
鐖
钦定
长发
长生
陆承伟
随心所欲
雌激素
一如既往
一尊
一幢
中用
丹阳
举足轻重
二号
于今
伽利略
俄共
停牌
全能
冠心病
升职
厄瓜多尔
厨师
同心
唱戏
国军
地带性
基团
姏
学识
实务
小说家
岛国
帮帮
废水
弹壳
德黑兰
情由
成形
拼死
接通
撰文
收留
